#version: 0.2
Ġ a
t h
i n
Ġ th
e r
o n
r e
Ġth e
Ġ s
e n
a t
Ġ o
Ġ c
e s
n d
Ġ w
i s
t o
Ġ p
a l
in g
a n
o r
Ġ f
Ġ b
e d
t i
Ġ in
Ġo f
o u
Ġa nd
Ġ to
Ġ m
a r
Ġ d
Ġ h
i t
l e
r o
i c
a s
en t
Ġ e
Ġ re
i on
e l
Ġ T
Ġ l
i l
u s
o m
e c
a c
Ġ n
â Ģ
Ġ is
v e
at ion
Ġ g
o l
ĠT h
t r
i d
u r
l y
Ġ y
Ġb e
ti on
o w
Ġ A
Ġf or
er s
i g
Ġ I
o s
Ġth at
Ġy ou
i r
c e
t s
Ġ on
Ġw h
Ġ S
i m
t er
u l
Ġp ro
a m
i th
a y
Ġ C
Ġa s
Ġc on
a d
c h
Ġa re
v er
t a
t e
Ġw ith
Ġo r
Ġ it
Ġa n
e t
ĠTh e
Ġa l
m ent
es s
g e
o d
u t
âĢ Ļ
i f
u n
Ġc an
o t
Ġe x
Ġc om
re s
it y
at e
Ġ P
Ġ M
Ġ r
Ġ v
Ġd e
er e
Ġ W
o p
Ġs u
Ġ B
Ġc h
Ġh a
k e
q u
ig h
a b
p p
il l
t u
s e
Ġ H
Ġ en
o re
u c
i v
Ġ us
u m
ro m
ti c
th er
a in
Ġ D
l d
o c
Ġ E
Ġ le
Ġ F
Ġb y
Ġ âĢ
Ġ (
Ġs h
i es
Ġyou r
Ġ -
Ġa c
Ġf rom
Ġn e
a p
Ġa t
Ġh e
Ġ tr
Ġ 1
Ġ R
Ġ im
om e
Ġha ve
an t
i al
Ġs p
to r
or t
es t
Ġthe ir
Ġw e
o g
Ġs e
Ġ u
i b
ĠI n
Ġw or
Ġp l
al l
Ġw as
ou r
Ġth is
f f
Ġ L
Ġa b
Ġd is
Ġ G
Ġn ot
r ou
i ve
Ġ N
ic al
el l
p er
u re
a re
Ġs t
g h
ti m
Ġre s
in e
p l
ic h
Ġa d
Ġm e
Ġ O
a nd
i z
y s
a g
ar d
igh t
ou ld
at ed
v el
Ġin c
ou t
ac h
ec t
Ġcom p
a ge
id e
Ġ 2
Ġim p
ou s
ation s
i ti
Ġthe y
s t
an s
k ing
t en
m s
tion s
o od
s o
os t
Ġm ore
Ġw ill
en ce
an ce
Ġal l
i p
Ġwh ich
l u
Ġ k
e ar
Ġ U
al ly
at er
Ġal so
d ing
Ġm a
Ġh as
f er
k s
ar t
Ġm an
ig n
d uc
on g
or m
âĢ Ŀ
ĠâĢ ľ
e m
ĠTh is
ab le
t ing
Ġ un
t w
i e
ent s
ĠW h
a v
Ġp r
res s
Ġc l
ou n
ĠI t
re at
c ess
ar y
is h
Ġa pp
e p
en ti
Ġp re
t y
i a
i tion
Ġd o
Ġb ut
tu d
Ġ te
i re
ac e
a us
ta in
Ġcon s
Ġp er
as e
Ġs o
Ġ j
in d
Ġs ome
Ġcom m
al th
Ġin f
ac k
Ġ tim
il d
Ġo ther
0 0
is t
Ġh el
on e
re n
v en
en d
as s
os e
Ġ J
Ġon e
Ġa r
us t
Ġp e
el y
Ġm ay
as t
ver y
Ġ ta
Ġit s
c es
Ġab out
Ġl i
u e
le c
Ġin d
ac t
en s
Ġh is
o o
Ġhel p
Ġf e
n ow
an g
i le
Ġthe m
Ġs tud
am e
on s
Ġ qu
Ġcon t
Ġo ut
Ġthe se
Ġin ter
ol og
Ġre c
Ġ ro
r i
ec h
Ġin to
Ġs tr
ay s
Ġe m
b l
Ġu nd
Ġb ec
Ġd if
Ġu p
al s
Ġs c
iti es
Ġne ed
Ġwh en
Ġwh o
Ġe ff
ment s
op le
ĠC h
ou nd
ti ve
b er
Ġo ver
Ġsu ch
l l
Ġhe alth
Ġo ur
Ġ Y
Ġw ere
b le
Ġus e
Ġh ow
n ing
Ġtim e
ys te
g r
rou gh
at ing
it e
re e
vel op
Ġp ar
er v
Ġg o
Ġpro v
Ġinc lu
ta nd
Ġm o
Ġc ol
Ġin s
Ġth ere
Ġth an
Ġn o
Ġpe ople
ic e
t ed
at es
l ow
ro w
Ġh igh
Ġ K
Ġd es
Ġk now
aus e
p le
Ġs a
i ous
f ul
Ġd r
ul ar
il ity
n e
if ic
Ġde velop
Ġm ost
Ġre l
Ġbe en
ou gh
ur ing
Ġy ear
Ġwor k
Ġ if
tu re
Ġp h
Ġ V
Ġs yste
Ġsp ec
Ġan y
Ġus ed
Ġb l
a il
d s
Ġdif fer
ti v
Ġli ke
Ġ2 0
er g
Ġne w
Ġth rough
Ġre g
l es
Ġa g
a w
Ġch ild
ul t
Ġb r
Ġc o
' s
f ic
en e
ow er
i ent
ech n
a th
ar ch
Ġre p
Ġsu pp
or s
Ġp os
m p
rou nd
Ġimp ort
is e
Ġpro duc
ĠA s
a k
ing s
o th
it s
Ġac c
Ġd ec
Ġw ell
Ġwh at
Ġad d
Ġw ater
Ġex p
Ġman y
ir st
at ive
i et
at a
Ġ 3
ation al
i an
Ġas s
h e
p s
ad e
ĠH ow
Ġg r
es e
Ġin v
Ġsh ould
Ġ1 9
as ed
or d
Ġa m
Ġc r
Ġon ly
Ġex per
ĠâĢ ĵ
an c
ec ts
on d
u al
ib le
) .
Ġb u
Ġma ke
Ġs ec
ion s
an ge
Ġ tw
Ġle ar
en c
ty p
if e
Ġe v
en er
m er
Ġo p
Ġtr ans
Ġre m
t echn
e en
Ġ techn
n ess
Ġs ign
Ġp ers
b s
o in
e ver
Ġs ur
ĠI f
Ġw ould
i ence
Ġv ar
Ġpro cess
Ġ typ
Ġs m
ur al
f ter
oo k
Ġ ke
f orm
enti al
g an
ter n
ar k
Ġm ed
is s
Ġc re
Ġinc re
ro p
Ġh ad
Ġimport ant
f ore
Ġwh ere
ĠA n
Ġf irst
ir on
Ġbe tw
Ġbetw een
o ol
ĠU n
tor y
an ts
Ġd ata
d e
Ġdiffer ent
iv ers
Ġp ol
ic k
Ġ |
i ed
ow n
u ch
Ġf ac
Ġm od
o b
Ġre qu
Ġc ar
o v
Ġex am
olog y
Ġtw o
Ġp res
il y
el f
Ġs k
Ġg et
Ġwor ld
Ġres p
u res
id er
tr y
Ġsyste m
u es
Ġc oun
Ġinf orm
Ġdis c
ers tand
Ġw ay
Ġre se
ĠThe y
Ġse e
p h
Ġcomm un
Ġs ol
o y
ĠF or
r it
ĠS t
tor s
v iron
Ġc ould
Ġle ad
Ġs oc
u bl
ĠH e
c c
Ġl ong
iz e
Ġe ven
at ure
Ġ es
Ġrese arch
Ġp art
ĠW e
w n
Ġfor m
iv id
Ġs y
Ġp at
ar m
Ġh um
Ġg row
Ġs im
Ġf ood
Ġyear s
as es
Ġ ed
Ġa u
Ġm ain
g es
al ity
ĠR e
Ġl ife
Ġs ch
Ġe ar
od y
Ġg ener
ĠTh ese
Ġf l
ter m
Ġf in
ĠE n
Ġe very
Ġh er
Ġn um
t reat
viron ment
Ġf ol
Ġpers on
ĠP ro
or y
tic al
iz ed
in k
Ġad v
Ġle vel
in es
Ġf r
ce p
Ġof ten
Ġbec ause
Ġa v
v es
ic es
Ġde p
Ġr is
Ġ treat
is ts
Ġsu b
Ġl oc
i o
ec tion
erg y
c r
Ġl ar
Ġf ound
u p
Ġ 4
) ,
ĠY ou
Ġ "
Ġund erstand
Ġpar tic
ĠTh ere
Ġd uring
ĠA l
is m
om m
c t
c er
Ġus ing
ur n
Ġa fter
Ġb el
v ing
it ed
re d
Ġex pl
Ġinform ation
u g
Ġe ach
ro s
j ect
Ġth ose
e w
Ġ 5
Ġb re
Ġbe ing
Ġdes ign
Ġwh ile
ĠWh at
iv es
Ġthe n
Ġchild ren
Ġm on
tr uc
v ed
h ip
Ġm in
ical ly
w or
w ard
Ġv al
Ġcomp le
Ġpre v
u ce
c on
Ġprov id
Ġj ust
Ġ very
l ed
Ġcon d
Ġs erv
Ġo wn
Ġind ivid
ti l
Ġc ent
b r
to m
it al
Ġimp ro
Ġstud ents
. âĢĿ
in s
gr am
Ġp ower
o ve
Ġs te
Ġall ow
Ġg ood
Ġpro ble
Ġg l
ol d
Ġund er
Ġc ur
Ġc are
ic s
u tion
t re
Ġof f
Ġta ke
Ġen vironment
Ġb ody
l ic
Ġs et
Ġp ot
Ġf am
Ġre ad
Ġb oth
r y
Ġc ap
Ġdo es
Ġf un
p ec
iet y
Ġp ubl
Ġor gan
Ġac tiv
Ġfol low
o ver
en ces
ie w
t le
Ġv is
c tion
u nd
ĠWh en
x t
o ther
an y
tr ib
i qu
Ġb ack
i or
Ġsupp ort
Ġpr ac
th ing
Ġc le
Ġc or
t est
Ġm uch
Ġcomm on
ect ed
d uce
Ġe lec
a ther
Ġc all
Ġinclu ding
Ġcons ider
d er
ĠHow ever
ĠT o
ro l
Ġo b
Ġp op
Ġen s
in ess
Ġdis e
Ġha nd
ent al
Ġrequ ire
g er
Ġ20 1
Ġbe fore
Ġd i
mer ic
el s
Ġen ergy
Ġsm all
Ġa ff
u ally
Ġpro t
Ġb ene
ater ial
tr ic
Ġm ade
Ġstud y
Ġpos s
Ġa round
enc y
k es
Ġpl ay
Ġprov ide
ĠI nd
ĠA r
i x
Ġse ver
i tions
iv ing
Ġch ar
ĠC on
Ġs ame
ĠB ut
Ġg u
Ġl ess
Ġsch ool
ĠA d
Ġed uc
l and
Ġsign ific
Ġsh ow
ag es
Ġs ta
Ġpro f
Ġde f
Ġsa f
ĠA meric
t al
r ic
Ġbe h
os s
Ġ ess
a u
i el
Ġe as
t ter
tic s
f t
re ad
Ġd own
Ġ id
Ġpro gram
Ġm aterial
ti ll
Ġhum an
Ġd ay
Ġm us
Ġis s
Ġen d
Ġpl an
Ġen g
our ces
i ents
Ġm ust
Ġcont in
ĠE x
ap h
Ġdevelop ment
r a
Ġre f
Ġsa id
th od
Ġlear n
Ġexam ple
c l
ec tive
Ġlear ning
ul ation
as h
Ġg rou
Ġag ain
Ġe qu
ac ter
al e
Ġpro per
Ġinclu de
Ġs to
Ġapp ro
Ġme m
om en
i um
Ġto o
Ġo cc
Ġsoc ial
ti es
Ġst art
Ġph ys
Ġris k
Ġa w
ill s
oin t
i er
c ent
a ir
ĠO n
o id
Ġst ate
ros s
Ġp ur
y p
igh ts
oun t
Ġb us
us tr
Ġf ind
ĠA nd
iti ve
Ġc aus
Ġc ell
iz ation
Ġknow n
Ġde m
Ġs er
Ġid enti
Ġ test
Ġch ang
ar s
in ce
Ġd ire
us s
Ġ ve
, âĢĿ
ti ce
Ġb est
Ġcon f
Ġm ight
in ation
Ġ 6
l ine
Ġcl ass
Ġbu il
all en
Ġl and
a ve
ĠB y
d ay
are d
Ġke ep
Ġnum ber
Ġm y
Ġwith in
Ġte ach
Ġp ain
Ġa ir
Ġin t
Ġl it
Ġsignific ant
Ġwith out
Ġim m
at ely
ition al
Ġg re
ab ility
Ġinv ol
t urn
Ġ ide
Ġgo ver
Ġc reat
Ġan al
Ġac cess
Ġh ome
Ġg reat
ivers ity
Ġc our
Ġn ow
or ts
Ġch ange
Ġn at
ate g
Ġvar ious
ĠâĢ ĺ
Ġc er
Ġs tand
Ġper form
er c
Ġbe tter
u d
Ġr ight
in c
b e
n er
i od
Ġw ant
Ġgover n
Ġbene f
Ġme thod
Ġb o
con om
ul ts
om es
ish ed
Ġc ause
Ġbec ome
are n
u tr
f or
00 0
er m
Ġpl ace
Ġfe el
Ġme as
ang u
Ġsh e
ĠD e
Ġma king
Ġs till
Ġcont rol
ĠI s
th ers
Ġl ight
age ment
oc k
Ġde v
Ġbl ood
Ġo pp
ur y
ĠB e
ĠT r
ul l
Ġs w
oc i
oc us
Ġd on
Ġfe w
Ġch o
Ġpubl ic
Ġ ti
at s
Ġsu g
Ġpl ant
th e
Ġsp e
Ġcon n
ĠS p
to ms
ou se
a ke
2 0
e x
o h
Ġth ree
b ers
Ġimp act
Ġo per
ĠS h
og n
at ter
Ġ1 8
ĠS ome
or ding
ĠR es
ent ly
Ġch allen
Ġd el
Ġqu es
id s
Ġs it
Ġcre ate
Ġre al
Ġw rit
y ing
Ġtreat ment
Ġdise ase
v ers
Ġpro m
om p
Ġth ough
Ġle g
Ġs us
in al
at ch
Ġsyste ms
ren t
Ġre duc
ten d
ĠS o
an ces
Ġtechn ology
u als
Ġspec ific
as on
Ġexper ience
Ġbus iness
Ġimpro ve
Ġsu c
ess ion
ain s
Ġto ol
Ġpot ential
ĠW ith
ain ing
Ġ tre
w ays
Ġd oc
our ce
is ion
âĢ Ķ
t on
ĠS c
wor k
in ed
Ġlar ge
pl oy
Ġmo ve
en se
Ġte m
ic ation
Ġe conom
Ġf ocus
ut ure
T he
Ġcon tain
Ġprev ent
Ġp ass
l ess
ta bl
ial ly
Ġtr ad
a h
Ġneed s
Ġm ark
Ġsy mp
Ġm en
Ġ1 0
m e
Ġro le
Ġav ail
Ġcall ed
Ġto p
Ġn ec
Ġl im
ort un
ti tu
le ment
os ed
Ġme ans
Ġpres ent
Ġl ow
er ing
u te
Ġm ar
g th
Ġnat ural
Ġare a
ac y
olog ical
Ġstr uc
Ġtr a
Ġ 7
Ġl ook
ur ther
Ġan im
Ġl angu
Ġd ue
Ġess ential
Ġlevel s
ĠO ne
ĠWh ile
Ġapp lic
Ġpartic ular
Ġare as
e e
ie ve
i ke
Ġan other
ag ing
Ġtyp e
Ġb as
ard s
Ġsever al
ou th
Ġposs ible
ap e
pl es
ĠN ew
Ġcons um
iv en
iel d
Ġof fer
Ġens ure
at ic
r is
Ġcond itions
Ġc al
Ġd id
Ġl aw
Ġd ig
o res
Ġ Q
Ġm ul
p ar
Ġab le
Ġ ent
Ġor der
ĠA t
Ġbeh av
Ġh im
Ġo thers
ĠP l
Ġhis tory
Ġau th
iqu e
c ed
r on
Ġme an
tion al
u ts
Ġke y
ĠC l
Ġd am
Ġha pp
Ġf re
Ġappro ach
Ġidenti f
Ġw omen
g in
Ġcon trib
Ġear ly
il ities
Ġ 8
Ġf uture
o or
Ġagain st
an k
Ġcer tain
ta ble
Ġsuc cess
Ġindivid uals
Ġp ress
Ġs l
ĠEn g
Ġc ul
ab or
led ge
Ġb ased
g et
c le
Ġfam ily
Ġ ter
Ġre duce
Ġop en
j or
Ġen c
e ther
Ġocc ur
Ġfun ction
ur ity
ĠW or
ag n
a z
tu res
Ġinter n
Ġin st
Ġper iod
er n
u b
Ġsk ills
Ġavail able
im ate
ress ion
Ġli k
Ġth ings
Ġh y
Ġsymp toms
j ects
Ġunderstand ing
Ġf low
o ts
Ġcur rent
or n
a f
at or
o te
w h
as ing
Ġproble ms
Ġrep ort
Ġe l
ĠP h
Ġqu ality
Ġcom e
ac es
Ġeff ic
a king
ill ion
Ġres ult
Ġeduc ation
Ġmain tain
Ġnec ess
Ġtyp es
Ġtem per
ten s
Ġincre ase
Ġar tic
Ġ2 00
Ġphys ical
Ġn et
Ġpl ants
Ġbuil ding
Ġresp ons
k en
us h
Ġass oci
Ġgovern ment
Ġdis t
Ġh ard
i ver
Ġre v
Ġiss ues
ro duc
on es
Ġo ld
ec k
Ġcol lec
iv ed
Ġcom b
l ing
Ġgrow th
Ġinter est
Ġma jor
Ġh ere
Ġs ens
Ġr un
ĠIn s
Ġte am
Ġproble m
Ġn on
Ġspec ies
il ar
ĠC an
Ġdif fic
Ġe y
Ġloc al
Ġinclu d
Ġfollow ing
Ġcommun ity
iss ion
g est
1 9
id ence
ĠâĢ Ķ
at ory
Ġde term
Ġam ong
pec ially
cr ib
ge ther
ĠD r
Ġar t
Ġa ch
id es
Ġhealth y
Ġchang es
es ts
am p
ĠP r
Ġpro ject
Ġtim es
le ep
Ġm ind
ie f
t as
Ġv ir
Ġw ays
Ġm il
Ġbenef its
Ġ 9
Ġw ar
Ġlangu age
vel y
at ors
Ġa ge
Ġre ce
am m
ri end
Ġmul ti
il s
et y
Ġb ir
Ġgrou p
Ġc ase
ĠL e
ac tion
Ġstr ateg
Ġc y
t ers
ir c
Ġb i
. .
Ġactiv ities
Ġf il
Ġprof ession
Ġan ti
fic ial
Ġac ross
ĠC omm
Ġhe ad
s y
Ġr ange
Ġadd ress
Ġst ress
Ġre le
en ding
is ed
Ġspec ial
Ġexper i
Ġm et
at ures
Ġhe art
Ġat t
ol ution
Ġd og
Ġcle ar
as ter
Ġmon th
ĠA I
ib ility
Ġwh y
Ġindivid ual
Ġcr uc
ĠA ll
Ġknow ledge
i res
Ġl ot
Ġal ways
Ġf ree
Ġcoun try
ĠO r
Ġth ink
Ġhelp s
ĠAmeric an
ob al
Ġeff ective
is tic
am es
Ġproduc ts
Ġn utr
ap er
t ar
iz ing
Ġ tas
Ġlik ely
Ġres ources
Ġman agement
Ġwor king
p or
Ġhigh er
Ġem ploy
u ment
ult ural
Ġwe e
Ġfac tors
Ġes pecially
Ġmed ical
an e
Ġstr ong
un e
i tor
Ġrep res
ĠC ol
Ġmaterial s
Ġs ince
Ġp oint
Ġeff ects
Ġproduc tion
tr ies
Ġs elf
ar ing
Ġs tor
m an
Ġcruc ial
g en
Ġo bs
Ġor ig
i ans
Ġres ults
Ġ er
Ġcell s
Ġopp ortun
f ace
u rop
ĠUn iversity
Ġav oid
Ġne ar
in a
Ġcon cer
omm end
op e
one y
Ġus ually
Ġb ro
it ing
ec ti
Ġsus tain
Ġperson al
Ġsp ace
av es
ff ic
Ġpr im
Ġsu re
Ġrel ations
Ġinf lu
Ġto day
Ġwor ks
ĠUn ited
Ġs ay
ed s
th ough
Ġd iet
Ġbr ain
o to
o ad
and s
r aph
Ġyou n
Ġl oss
Ġ turn
Ġdisc uss
ĠH is
Ġex c
em ber
anc ed
Ġv ol
Ġcomple x
Ġto gether
Ġchar acter
Ġmark et
Ġp aren
Ġadd ition
m b
ap s
Ġab ility
ys is
Ġ &
te gr
Ġcle an
Ġl ast
Ġg ive
Ġv iew
Ġsome thing
us try
Ġma kes
g ing
a x
ĠC ons
c om
el ves
Ġl ower
od e
id ent
Ġsec ond
Ġf urther
Ġsk in
Ġf ar
ward s
b on
Ġcl imate
r ing
Ġc ri
Ġal ong
Ġcour se
Ġsh ort
our s
in king
Ġserv ices
u ter
ic ations
Ġc irc
c k
Ġrec ogn
Ġrec ommend
er ap
Ġc ost
tu al
Ġem o
ten tion
Ġp ut
Ġcan cer
Ġ Z
Ġ ill
Ġch em
Ġn ame
Ġcoun tries
Ġc ases
oo king
Ġlit tle
urop e
Ġdire ct
Ġe le
Ġf und
. ,
ac c
Ġre ach
Ġam ount
Ġpat ients
u it
o x
truc tion
Ġen h
n s
Ġapp ear
Ġprac tic
ain ed
Ġs leep
Ġco ver
Ġprovid es
ch es
Ġf our
Ġen ti
n ot
Ġes tabl
Ġd ays
re t
ĠB l
Ġg e
an ta
Ġsit u
ac ks
Ġex erc
anc ial
Ġ tal
Ġpol ic
Ġs ing
Ġcom es
Ġf act
Ġso il
Ġs ays
Ġb al
Ġsim ilar
Ġbe gin
en ing
Ġen ough
e th
u le
ut es
ĠA f
Ġpress ure
ĠHe alth
Ġartic le
Ġnecess ary
oo ks
cep t
Ġm ental
ĠE urope
Ġsaf e
Ġab s
Ġind ustry
Ġreg ular
s c
Ġprot ect
Ġ20 2
u f
Ġval ue
er al
op h
Ġre fer
Ġe t
ĠG od
ag ed
Ġr ad
ĠH ere
o f
us e
Ġaw ay
ĠTh at
Ġs al
Ġne g
Ġm ach
o ot
Ġcon tr
r al
ne y
ĠSt ates
or th
Ġqu ick
Ġwh ether
p os
t ell
Ġpop ular
Ġsaf ety
Ġs ide
Ġp ay
Ġne xt
Ġf ish
Ġun til
Ġauth or
us ion
Ġc us
Ġm ic
Ġh ol
Ġtr aining
Ġcol l
s w
p r
Ġs un
s elf
um p
m in
Ġon line
Ġg iven
Ġrelations hip
Ġf ull
Ġle t
Ġha ving
Ġpol i
ren gth
Ġcond ition
ĠA c
Ġin j
Ġprac tice
Ġpre d
Ġassoci ated
Ġ1 5
Ġcont ent
ĠU S
Ġk ind
Ġactiv ity
ĠF r
am in
Ġun ique
is ten
re am
ĠY our
Ġmeas ure
Ġn ature
ĠAd d
Ġb ook
Ġper cent
b it
ĠD is
ith er
Ġpartic ip
Ġmod el
iv ely
Ġ term
ed i
ĠP e
Ġs ource
Ġallow s
ab ly
' t
Ġf ield
n ed
ĠD o
d r
ĠS ch
Ġeng ine
Ġelec tr
i pp
Ġenvironment al
Ġin iti
ĠE ar
g ress
Ġb ig
Ġas p
Ġgl obal
Ġg round
Ġex tr
ĠA cc
ĠM ed
Ġw r
Ġ ur
ĠN ational
Ġover all
Ġbu ild
sy ch
Ġwor ds
Ġgo ing
Ġde ta
p ort
y n
ĠA fter
Ġass ess
ear ch
ul es
ĠC ent
b ased
u tions
Ġyoun g
tim e
Ġl ay
ĠC omp
Ġtool s
Ġin tegr
Ġl ater
Ġl ives
Ġl ine
ĠN e
Ġfre qu
Ġth erap
Ġsec urity
er ed
ec tions
Ġle ast
Ġde ath
Ġwe ight
te ad
Ġme et
ac ts
Ġh arm
Ġrepres ent
Ġcomp any
Ġfin ancial
it es
Ġs ize
Ġperform ance
ĠAf ric
ul ations
Ġab ove
ire d
Ġincre ased
Ġs ound
read y
Ġhe at
in ing
Ġst rength
m it
i ency
Ġd et
Ġfe ed
id d
ĠM e
ly ing
Ġ z
Ġf riend
ĠM an
Ġgener al
c are
n ov
Ġl ive
Ġind ic
Ġcomp on
Ġdam age
tim es
as tic
Ġsc ience
ĠC O
a pp
Ġh ouse
Ġre ason
Ġcol or
on t
ven tion
Ġstud ies
Ġm illion
Ġpop ulation
Ġbehav ior
tu ally
Ġ tu
x im
ens ive
i ation
Ġdiffic ult
Ġincre asing
Ġsu m
Ġw ind
Ġrequire d
Ġsim ple
Ġcomp an
og raph
Ġ1 2
Ġques tions
os is
Ġstruc ture
Ġp ost
Ġse lec
Ġd one
Ġj our
Ġchallen ges
Ġ $
Ġconsider ed
Ġmethod s
Ġpat tern
Ġneed ed
Ġreg ion
Ġal ready
Ġre pl
iqu es
orm al
re l
ib r
Ġm oney
Ġvar iety
if ied
Ġe c
al u
Ġp aper
Ġg as
l ight
m ost
er ous
Ġaff ect
Ġre d
ac tions
ĠS e
i k
Ġs tory
Ġsur face
y le
ro ll
Ġimp lement
is ing
al ing
Ġcent ury
ĠM any
Ġdig ital
Ġc os
f tw
Ġ tar
Ġdes crib
Ġg ene
Ġpos itive
Ġtemper ature
re en
Ġta king
Ġs ense
ĠS tud
Ġeconom ic
Ġcontin u
Ġne ver
ail y
Ġf at
ftw are
ech an
ro om
ac ed
Ġv ers
Ġgre en
Ġse en
m ing
Ġhow ever
Ġev ent
Ġman uf
ĠD es
Ġpr iv
Ġanal ysis
Ġpar ts
Ġr ate
Ġeas y
Ġcon duc
Ġst at
g ed
Ġw in
Ġle ft
Ġde ep
Ġenc our
Ġelec tric
Ġdesign ed
Ġl iving
Ġar ch
Ġinv est
Ġques tion
Ġgrou ps
Ġdis ord
Ġm is
ad es
Ġdi agn
Ġpro te
Ġthrough out
Ġacc ording
Ġthe ms
Ġanim als
Ġc at
se qu
Ġthems elves
1 0
Ġdevelop ed
g s
ur s
em ic
Ġbel ow
cr ip
Ġp ast
Ġsing le
Ġdr ug
Ġpre c
Ġf lu
Ġhis tor
is es
b y
er ve
Ġmod ern
Ġc ut
Ġfood s
Ġf ail
Ġrel ated
Ġaw are
Ġtrad itional
Ġl if
Ġon ce
Ġf all
Ġeff ecti
rop ri
Ġchem ical
Ġcon te
Ġpro duce
Ġacc ur
iti z
Ġc ity
n ers
Ġem erg
Ġprovid ing
Ġ .
Ġdep end
Ġar r
Ġinclud es
Ġmin im
i ec
Ġr ather
Ġresearch ers
h ic
Ġcan not
Ġp ath
Ġpractic es
Ġeff ect
av ing
ful ly
Ġwas te
Ġan sw
Ġcre ated
ta b
oin ts
Ġch eck
ĠRes earch
Ġcar bon
ĠM ore
Ġtechn iques
Ġ [
Ġas k
al f
Ġresp on
Ġf ore
Ġat tention
Ġcaus es
le x
Ġfam il
a im
ĠC ar
l ish
Ġm ass
Ġapplic ations
is ions
Ġr a
u el
Ġdr aw
Ġo il
as c
Ġwh ite
Ġwho le
e ti
ist ance
Ġre ally
Ġmus ic
Ġb ar
c y
ĠM ar
ĠU s
Ġexpl ore
ĠG r
Ġc e
Ġcom pl
ĠP re
Ġcommun ication
Ġenti re
ir d
ti g
ul ate
I D
Ġs ources
Ġmem bers
Ġcri tical
T h
Ġidentif y
Ġo uts
Ġf ace
Ġgu id
ep end
Ġobs erv
Ġsoc iety
Ġproduc t
Ġde g
t in
Ġac tion
Ġf arm
Ġcreat ing
Ġso ftware
Ġtyp ically
Ġd aily
ĠB r
p ly
ĠP ar
Ġmean ing
Ġstud ent
ip s
Ġwrit ing
Ġach ieve
Ġe ither
ĠAs s
i ol
Ġdev ices
Ġg en
w w
âĢ ĵ
Ġwe bs
Ġl ist
Ġth reat
Ġbec ame
Ġsp read
Ġta ken
Ġcal c
ĠWor ld
Ġp o
Ġparen ts
Ġ19 9
Ġnet work
ver age
Ġparticular ly
Ġserv ice
Ġlead ing
it ation
a e
im e
Ġlong er
Ġpat ient
t ur
Ġg ard
Ġbr ing
it ch
ition ally
ĠRe g
h ib
Ġm echan
Ġste p
Ġcul ture
os ing
Ġb acter
an ti
Ġu til
Ġmonth s
ĠIn tern
ĠN o
ig r
Ġ1 7
Ġcaus ed
Ġev idence
Ġcomp uter
Ġprofession al
Ġph oto
Ġcompan ies
Ġref lec
j oy
is tics
Ġst ay
er y
Ġide a
Ġsub st
Ġind ustr
Ġad ap
Ġpr inc
ĠInd ia
Ġn ational
ĠB rit
at ives
Ġ ver
ell ing
Ġop tim
Ġa im
is ter
ĠF rom
5 0
Ġreg ard
N A
w ay
om an
ĠEng lish
iss ions
t t
Ġdevelop ing
is ting
p tion
g u
Ġp sych
Ġanal y
Ġsol ar
Ġr ights
p ose
ĠA pp
Ġsh are
en ed
b o
Ġbl ack
olog ies
ri ed
os p
Ġac tually
l er
Ġto wards
Ġan n
Ġsu ff
Ġl ab
Ġf ire
Ġcommun ities
Ġ3 0
ib er
. "
Ġv ide
Ġimport ance
Ġpr in
Ġrequ ires
Ġter ms
Ġint roduc
h er
Ġmulti ple
Ġe at
Ġ tell
ĠG erm
im in
Ġread ing
Ġwee k
Ġpro b
Ġcor re
Ġex tre
ĠU nd
Ġgrow ing
Ġh ours
ut ed
Ġe ver
iz ations
ill ed
ĠAcc ording
ĠA m
ther n
Ġprogram s
Ġf ive
enc ed
an n
Ġw ild
Ġst ates
Ġpoli tical
n al
Ġmon itor
Ġey e
Ġem p
Ġwor d
ĠT e
Ġin nov
ic tion
ĠK e
Ġw al
Ġus es
Ġinv es
ĠR ec
Ġbre ak
Ġdise ases
ĠA b
i enti
ĠS u
Ġre turn
Ġcontin ue
or ies
Ġapp ropri
Ġmed ia
is on
v iew
Ġrem ov
Ġev ents
re h
Ġprocess es
Ġeas ily
ĠM ost
e ed
Ġen joy
ĠS he
Ġcont act
Ġau tom
h y
i able
ĠC al
Ġrespon se
Ġfe atures
Ġte xt
Ġeffic ient
lu e
Ġs low
Ġits elf
ac tive
gr ic
Ġv it
Ġl ooking
Ġquick ly
iv il
le t
Ġsu per
Ġtr y
ivers e
Ġrel ig
m a
Ġ1 6
Ġte eth
Ġrec ent
Ġs at
Ġset ting
Ġmanuf act
Ġl ink
mb ol
l ike
Ġget ting
ĠO ur
ar ies
Ġc op
ĠW ar
ient ists
Ġs ite
Ġau d
ĠS oc
r up
Ġm atter
ĠP ol
Ġpos ition
ĠI mp
Ġexerc ise
Ġp or
ĠD ep
Ġpro gress
Ġinvol ves
Ġpr ior
Ġdisc over
Ġve hic
ip ment
Ġl ove
iv al
Ġiss ue
s h
Ġp iec
s p
g n
Ġv acc
or por
Ġhealth care
o very
ie ved
iz es
Ġthough t
Ġc ultural
Ġhe av
ĠAl though
Ġfin ding
Ġm ix
Ġ 0
h ood
m on
le y
Ġf ul
res h
ĠS outh
ĠS ec
Ġcomm it
is tr
Ġl o
Ġmove ment
Ġsome one
os ph
y l
ĠL ear
Ġ ir
ĠC oun
Ġlit er
Ġus ers
u th
Ġsur v
ĠO f
be ing
ore d
ab et
Ġ ten
Ġal tern
Ġm or
Ġse par
Ġinvol ved
ĠO ver
ĠI m
as ons
ĠE m
Ġtherap y
ĠR ep
Ġadv anta
Ġstrateg ies
g o
ow s
e ts
tend ed
Ġsustain able
ĠJ oh
Ġsupp ly
Ġta x
Ġshow s
Ġdeterm ine
o le
in ary
ĠG u
Ġan x
Ġdoes n
Ġinf l
Ġo x
gh t
Ġprovid ed
Ġyour self
erv ation
Ġprot ection
ĠS te
on ic
Ġcos ts
y ond
Ġal most
a i
oun ts
Ġoff ers
ĠF in
Ġapp l
Ġy et
al es
Ġop tions
Ġprev ious
Ġinst all
ienti fic
Ġdo ing
os ure
Ġmic ro
Ġfor ms
ĠEar th
Ġev alu
Ġw ood
Ġsub ject
Ġe th
Ġbre ath
Ġstand ard
Ġad j
k now
Ġb ab
Ġpre p
Ġl ed
ĠAmeric a
ish ing
ne w
row n
Ġgre ater
Ġpro ced
E R
Ġtrans port
Ġg ame
Ġet c
Ġdec ision
Ġl a
Ġser ious
Ġf er
end er
Ġup on
Ġpubl ished
Ġpre fer
Ġth ing
c tions
Ġcon c
ab les
Ġp an
A S
Ġw ide
am s
Ġprim ary
Ġs ent
p ut
Ġcomple te
ons tr
Ġschool s
Ġopportun ities
Ġbuil t
Ġs am
Ġadd itional
Ġcl ose
re g
Ġpro jects
Ġdis trib
Ġp ic
ig ure
Ġbl ock
y m
Ġpl at
Ġb ur
Ġ ul
av or
Ġb atter
ir m
Ġsim ply
ific ation
Ġta kes
Ġste ps
un g
Ġrec ord
ĠAdd itionally
Ġus er
Ġl ack
/ /
Ġins p
Ġsh own
Ġide as
it able
Ġouts ide
Ġequ ipment
ur ch
ĠN orth
Ġreduc ing
t ree
tiv ity
on om
Ġsy mbol
âĢ ¦
Ġl og
Ġd ang
Ġtra vel
Ġcho ose
Ġdis pl
Ġhigh ly
Ġtest ing
ar ily
at ively
Ġb ot
Ġf ores
Ġmeas ures
w e
z e
Ġele ments
Ġ1 00
Ġ tur
it ary
c ient
Ġcontrib ute
Ġtar get
Ġsp ir
ar r
Ġapplic ation
Ġp oor
Ġexperi ences
ur ies
Ġm ess
Ġris ks
W h
Ġk ids
Ġvir us
le br
ĠG e
Ġbas ic
ĠA ustr
b an
Ġsome times
or k
f ect
Ġdem and
Ġ tree
: //
Ġbal ance
Ġn ormal
Ġrev iew
Ġ1 1
Ġc ame
Ġde b
Ġtr ue
ic ine
Ġexp ress
Ġgener ally
un ch
Ġh ar
Ġdiffer ence
Ġappropri ate
Ġcomp reh
ĠM ay
Ġim age
ĠG o
art ment
Ġ X
Ġes tim
Ġc ard
Ġsol utions
ĠU se
Ġpro p
d om
Ġse x
3 0
Ġinf ection
p ite
Ġexper im
ti f
Ġr ich
ĠD uring
Ġhum ans
Ġcus tom
um e
Ġv iol
Ġh alf
Ġtrans form
abet es
idd le
Ġle aves
Ġcl aim
Ġleg al
Ġsug gest
ĠP er
ut ing
Ġlead ers
ab ilities
ĠC o
Ġcoll abor
Ġw arm
Ġdr y
Ġr out
Ġa verage
ĠIn c
Ġsol ution
Ġ1 4
ĠD ec
ol es
ĠF l
Ġdec re
Ġto tal
Ġcomp ared
or ing
Ġst ar
Ġbeh ind
Ġcre d
Ġdirect ly
Ġbel ieve
Ġsug ar
titu te
om ing
I n
Ġs ix
ap an
Ġval u
ĠA re
Ġdem onstr
Ġent er
Ġanim al
t iss
Ġeffecti vely
uc k
en gth
ĠWh y
if t
Ġha bit
Ġtre es
Ġspe ed
Ġgr ad
Ġon es
Ġgo als
Ġse em
Ġins ide
ĠCon t
Ġintern ational
Ġs n
Ġcompon ents
Ġac tive
h old
1 2
p ro
ĠAn other
ĠN ow
anc y
to c
Ġenh ance
Ġn ight
enti ally
Ġ tend
en n
yste m
ĠL et
Ġrespons ible
ul ated
Ġbehav i
Ġhy d
ĠM in
ĠF irst
m ber
Ġ tiss
Ġmach ine
Ġinflu ence
Ġp le
Ġbe gan
Ġ '
Ġma th
Ġimm edi
Ġ5 0
Ġdoc tor
Ġtechn ologies
Ġf em
ĠCan ad
Ġcl os
Ġcorre ct
ĠP res
Ġneg ative
Ġsy n
if y
ig ence
Ġind epend
ac ing
ĠSch ool
ou d
Ġeffic iency
ta ge
ic ate
c oh
cent r
Ġacc ount
Ġres t
Ġsu bs
Ġro ad
Ġlim ited
Ġj ob
Ġad op
Ġteach ers
u ary
Ġcap ac
ĠCh ina
Ġbacter ia
it er
Ġdec isions
coh ol
Ġh ot
Ġcons truction
Ġtoo k
Ġco ol
Ġpolic y
Ġlar ger
am ent
Ġf it
Ġanx iety
ul ture
Ġsign s
ol l
Ġins tead
te mp
rough t
Ġro om
Ġrequire ments
Ġpattern s
Ġse arch
Ġpur pose
w ater
r as
Ġp oints
Ġim pl
ug g
ĠE duc
Ġvis ual
Ġman age
Ġsever e
Ġe ating
Ġsignificant ly
Ġprote in
Ġeff orts
il ed
Ġout c
Ġwebs ite
u ly
Ġn or
anc ing
Ġgo al
Ġd om
ĠJ apan
ĠO ther
Ġsitu ation
Ġval ues
Ġstart ed
Ġbro ad
ap id
Ġdev ice
Ġs il
Ġbec omes
ĠOn ce
ĠT echn
Ġm om
ke ts
Ġf oot
ve y
Ġw all
Ġcons ist
Ġc amp
t ro
Ġe p
Ġsur round
Ġce lebr
is ms
Ġth inking
Ġproduc ed
ĠE ven
Ġorig in
o es
Ġbenef it
ell ow
Ġw id
y r
u ge
st ant
A T
Ġsc ientists
ic ated
Ġe g
ĠF e
ĠSt ate
A R
Ġa p
Ġmod els
Ġfor ce
Ġcol le
od ies
ĠCh ris
Ġh tt
Ġcl in
truc ture
Ġemo tional
e qu
ro gen
Ġp ack
Ġens uring
ubl ic
Ġint ell
Ġcon centr
Ġac id
Ġexp ect
ĠRe ad
Ġa gric
u its
Ġres ul
Ġsc ientific
Ġimm une
Ġbe yond
Ġpower ful
Ġcho ice
id ents
Ġorgan izations
ĠCh ild
min istr
Ġdoc ument
Ġvide o
Ġprom ot
ffic ient
ĠH igh
enc ies
à ¤
am ed
ound s
ĠG l
ic t
ĠS m
1 8
, "
ĠAustr al
l s
or g
Ġfe et
Ġf a
Ġuse ful
Ġnum bers
Ġadd ed
Ġb an
ĠB ec
E S
ĠA g
c les
ĠN ot
Ġre asons
is c
ta ke
ĠM on
ti an
Ġatt ack
Ġcommon ly
b re
Ġv ital
Ġproper ties
Ġh or
Ġey es
Ġc ode
Ġbusiness es
ak es
Ġgu ide
Ġsh ape
t ests
Ġwe b
Ġhand s
u ments
Ġear th
Ġallow ing
Ġac t
ed eral
Ġse ason
Ġevery one
Ġwrit ten
ron ic
ĠBrit ish
Ġinves tig
Ġopportun ity
es tern
Ġno te
b ack
ĠR em
Ġteach ing
Ġem issions
an a
Ġansw er
a ft
Ġdef in
Ġwork ers
as ting
Ġm ag
Ġb it
Ġc ross
Ġ tests
Ġwe ather
Ġ ing
Ġs qu
ter y
w are
le ar
Ġorgan ization
Ġrece ive
in ks
i ance
Ġb ad
Ġg ain
Ġproper ty
Ġfr ame
Ġsc r
Ġthere fore
Ġsta ge
Ġrem ember
Ġ1 3
Ġexp osure
Ġfamil ies
ill ing
Ġ Â
er t
Ġprom ote
Ġins titu
ĠR ed
Ġqu ite
Ġd est
Ġfriend s
ĠS ince
Ġal g
gr aph
Ġar m
tiv es
ers on
Ġcol d
ac king
ĠG ener
Ġmo b
Ġr apid
Ġf uel
ĠSc ience
Ġto oth
Ġb ooks
Ġf ight
am ic
Ġcon cept
Ġpur ch
Ġan cient
l ife
iel ds
Ġconsum ption
Ġstand ards
ess or
Ġex cess
d en
ĠS im
Ġexam ples
Ġh old
it is
Ġcent ral
Ġaff ected
Ġl ate
e ms
Ġtas ks
Ġat temp
Ġl abor
Ġd ark
Ġdog s
Ġloc ation
ĠAl so
Ġser ies
Ġat tr
Ġgard en
Ġrem ains
Ġd ou
ous ly
Ġwe ak
Ġr ates
ĠDe velop
Ġgene tic
ren ch
Ġland sc
t es
Ġad ults
Ġcon sequ
ten ance
Ġmem ory
Ġlim it
re c
Ġtal k
Ġspir it
Ġnew s
Ġv ary
Ġ19 8
âĢĿ .
Ġve ge
V ID
Ġinter p
ĠEurope an
ĠThe ir
Ġinc orpor
Ġsuccess ful
Ġdi abetes
er ation
ĠJ ew
Ġmin utes
wh ere
Ġcar ry
Ġstr ugg
a ks
Ġasp ects
ĠJoh n
Ġinclud ed
f l
Ġro ot
e es
i to
Ġper fect
ĠW ater
Ġcontain s
Ġorig inal
r or
Ġc ivil
Ġcol on
ĠO p
cl usion
Ġim ages
ĠPe ople
Ġsec tion
Ġpriv ate
g round
Ġsto p
l oad
os ter
Ġeas ier
Ġcon vers
ti fic
Ġjour ney
Ġrem ain
ir ing
i os
Ġeduc ational
id ge
Ġpl astic
ed ing
Ġestabl ished
Ġcon cep
wor ks
Ġth us
Ġac ad
Ġdel iver
Ġag ree
Ġs ou
o k
Ġis n
Ġevery thing
ĠD ay
Ġre ve
oc r
Ġex act
ĠBec ause
he ad
Ġw a
ĠE ach
ĠK ing
ĠR uss
Ġplan ning
Ġvalu able
Ġd iv
r ist
Ġta ble
ĠE s
for ce
Ġac tions
Ġth r
m ore
Ġso on
Ġsug ges
Ġreport ed
Ġsec ure
ĠC om
Ġal cohol
Ġcon ven
Ġins tr
land s
Ġcon stant
ĠBl ack
ĠS tr
Ġob tain
Ġ2 5
Ġcont roll
ut y
Ġarch it
Ġwee ks
Ġte x
Ġv ic
W e
Ġop tion
i ples
Ġlaw s
ph as
ĠE d
Ġcomp eti
Ġsh ap
Ġth ird
Ġeconom y
Ġha ir
Ġbir th
I S
v al
in t
ĠInd ian
oun tain
ĠThere fore
ĠUnd erstand
Ġpre gn
Ġbegin ning
Ġextr a
Ġb ase
Ġvis it
Ġfac tor
Ã ©
Ġear l
ĠM y
Ġp age
Ġcapac ity
ĠM us
Ġ19 7
Ġas se
m ission
Ġf ast
i ar
Ġth ous
Ġn ation
on ds
ĠâĢ ¢
Ġmus cle
Ġrecommend ed
Ġinfl amm
Ġcap ital
Ġpl aces
Ġdep ending
Ġl ength
os ition
ĠS w
Ġsmall er
ĠIn ter
ĠF urther
s et
Ġro b
Ġbab y
Ġrele v
o ke
ĠCO VID
Ġexper t
Ġins truc
Ġconf lic
Ġf resh
ĠTr ans
Ġh un
b or
Ġconcer ns
is try
d ed
l ation
op s
Ġspe ak
enc ing
ĠM od
ĠS y
Ġn av
Ġmaintain ing
Ġmen tion
Ġf ear
Ġse a
ce an
Ġreduc ed
Ġill ness
1 5
.. .
Ġvis ion
ur ance
Ġpres ence
ĠM o
Ġm outh
over n
Ġbir ds
Ġadv ance
Ġrem ove
Ġdire c
Ġconte xt
Ġrelationship s
i ers
Ġp et
Ġwr ite
Ġd at
p e
Ġma xim
Ġr ules
ĠY ork
um b
Ġinst ance
Ġc am
Ġh ope
Ġem phas
Ġr ise
ĠTh en
ĠAfric a
ar ian
Ġestabl ish
Ġstor age
Ġim ag
Ġthe ory
Ġg ives
Ġob jects
Ġconn ection
ogn itive
g al
Ġloc ated
Ġd yn
Ġmil itary
r ies
Ġful ly
Ġprob ably
el ess
Ġabs or
in o
ĠI I
Ġd iverse
Ġ19 6
Ġpers pec
Ġadv anced
Ġnutr ients
f ort
ĠAfric an
ĠH er
Ġs tim
ĠH ar
Ġoccur s
Ġhistor ical
ĠComm un
Ġ i
qu e
e at
Ġem b
Ġob j
Ġex isting
or ds
v est
Ġv ul
ĠE l
Ġex tens
Ġeff ort
rel ated
w ide
Ġf lex
Ġproper ly
Ġde al
il it
ger y
Ġcl oth
Ġl ines
Ġw ond
Ġtr ade
Ġfun ctions
Ġ4 0
b its
t ely
Ġpr ice
Ġm ill
P A
b al
ĠT w
ĠPro f
id ing
ĠA v
w ise
Ġwin ter
Ġb ul
Ġhel d
Ġf ix
ti ficial
Ġexp ected
Ġti ps
ĠT yp
Ġr ain
Ġb all
ĠD ata
Ġag o
Ġfin al
Ġqu al
Ġchallen ge
Ġclass room
mp or
crip tion
Ġdep ression
Ġsc ale
ul ty
Ġelectric ity
1 1
Ġw atch
Ġc ateg
Ġoper ations
Ġh ous
Ġsum mer
Ġl ost
Ġtre nd
Ġincre ases
Ġto x
Ġgo es
tabl es
Ġr are
Ġj ud
ĠB u
Ġnum erous
Ġa ut
Ġold er
pp er
Ġcomple tely
Ġl oad
ĠS ol
Ġit ems
Ġass ist
Ġmet al
Ġdiffer ences
or ith
y gen
ĠQ u
Ġres istance
au ti
ĠCh ar
Ġvar i
ras tructure
fer ence
Ġstruc tures
Ġextre m
h aps
Ġser ve
Ġdisord er
' re
Ġd ental
Ġg ames
Ġof ficial
ver t
Ġapp e
ĠCh in
Ġfr uit
ĠA ct
ĠW ill
Ġaware ness
Ġtas k
Ġtr ack
as ts
Ġd ed
Ġel se
Ġtr ig
Ġcompreh ensive
ĠEduc ation
Ġc itiz
Ġto uch
Ġconn ect
el ines
Ġ2 4
. )
Ġm at
Ġm al
Ġfer til
Ġev ol
Ġcaus ing
ĠUs ing
Ġtr ying
tern al
E D
Ġdisord ers
pp ed
Ġj oin
to p
ĠS erv
I N
Ġlar gest
Ġex ec
ib ly
Ġh osp
Ġde ad
pp ing
Ġexc ell
Ġexp and
Ġv o
Ġle ave
Ġl isten
Ġh orm
i tors
Ġwor th
id ed
Ġbas is
Ġhelp ing
Ġprocess ing
ĠIntern ational
o e
ĠIns titute
Ġw on
Ġapp ly
ĠF rench
Ġl at
Ġsee k
Ġal one
es is
Ġfr ont
Ġch ronic
es us
m osph
cep tion
Ġresp ond
Ġal though
Ġcomm erc
ĠH um
Ġany thing
Ġv ia
Ġinf ections
Ġd ie
Ġec os
Ġprofession als
ro ps
Ġdeg ree
Ġcollec tion
ĠUnderstand ing
Ġcurrent ly
Ġcent er
Ġbel ief
ĠTh rough
Ġtemper atures
Ġplan et
Ġtop ic
1 6
Ġup d
Ġintell igence
g i
Ġ19 4
Ġpl ays
Ġtrans fer
Ġimpro ved
Ġmain tenance
Ġfe ature
ĠCh rist
Ġrec y
Ġc ou
os es
Ġvul ner
Ġmonitor ing
Ġstor ies
ĠD on
Ġf air
Ġinvol ve
tr a
Ġ20 20
tic k
et ers
ĠU K
Ġsol d
Ġsm art
ens ion
ul a
i pl
Ġsa ve
Ġbec oming
Ġaltern ative
Ġdeta ils
Ġb rought
Ġst yle
ĠI ts
Ġpolic ies
od es
Ġgl ass
Ġmom ent
ĠCent er
Ġdrug s
c ious
lu tion
Ġto wn
Ġtr ust
Ġappl ied
Ġrelig ious
Ġmo lec
Ġg iving
al y
Ġcy cle
Ġindustr ial
Ġpl ans
Ġresp ect
Ġdispl ay
for ms
us tice
el i
if orn
n a
Ġlay er
Ġg ot
bl es
Ġalg orith
Ġb at
) :
Ġcharacter istics
Ġar g
Ġinc ome
Ġh omes
Ġm iss
Ġdec l
ĠE v
Ġrun ning
ĠChin ese
Ġcomb ination
Ġaccur ate
ĠT od
Ġre ality
Ġfor ward
Ġn uc
est yle
Ġb ed
Ġadj ust
Ġsitu ations
Ġrelev ant
Ġsta ff
Ġide al
Ġorgan ic
rom e
Ġrece ived
Ġass ign
Ġres ource
Ġown ers
A C
Ġteach er
ĠE very
Ġfeel ing
Ġanti b
Ġse eds
as k
Ġob ject
Ġbatter y
Ġg old
le v
Ġm igr
Ġb lue
Ġb odies
ĠS ur
ĠJ esus
Ġvit amin
ĠCal iforn
Ġpe ace
re es
ĠP at
p t
Ġtreat ments
Ġnav ig
Ġreg ions
Ġsit es
Ġtiss ue
Ġelectr ical
Ġtechn ique
h ouse
ed om
Ġac qu
1 7
ash ing
Ġmo ving
Ġresul ting
Ġd ate
Ġchang ing
en ous
Ġexperi enced
Ġinf rastructure
ĠCanad a
ul ating
A N
Ġf ile
Ġ ,
Ġh on
is ation
a id
Ġre new
Ġconn ected
Ġbe g
Ġimpro ving
us ed
Ġb ound
Ġqu anti
Ġex ist
ent y
Ġpol l
s es
Ġof fic
Ġne u
Ġsee ms
Ġimp acts
Ġch ance
Ġexper ts
Ġregular ly
Ġmanufact uring
Ġacad emic
am a
il os
ĠDep artment
ce ed
Ġsupp l
Ġox ygen
te e
Ġh yp
Ġmo ther
al ed
Ġstrateg y
pl ace
ĠC r
Ġex ch
Ġpart ners
Ġsa w
Ġemo tions
Ġfrequ ently
ĠS ep
Ġstat us
ĠAd v
Ġrepl ace
ĠJ an
il le
ĠS pec
Ġad ministr
Ġbu y
Ġhtt ps
Ġinvest ment
Ġprinc iples
Ġsto re
Ġtr ial
ĠEn vironment
Ġnear ly
Ġun s
Ġbo x
ĠCaliforn ia
Ġpred ic
Ġwid ely
on y
Ġem ail
ĠM ake
Ġat mosph
m ar
ĠF ood
Ġli qu
Ġsta b
Ġur ban
Ġmed icine
Ġgener ation
Ġdis p
Ġp ush
em at
ĠG overn
o bs
Ġsu itable
1 4
u de
ach es
pos es
ĠGerm an
Ġcontin ues
Ġcom ing
el t
Ġh und
Ġb one
Ġpiec e
I C
Ġallow ed
Ġsh all
Ġ ice
um s
Ġres tric
ĠC ur
if ically
Ġoutc omes
Ġmo tiv
Ġemploy ees
a res
Ġst ream
Ġw ent
Ġinc l
Ġdr ive
ti vely
ĠP ark
Ġinj ury
ograph y
Ġel imin
Ġread y
Ġhe ar
Ġk id
ĠH ol
ĠN or
Ġvege tables
Ġwh ose
oo th
Ġsc en
m ic
Ġmil k
ol ic
iv ity
Ġm iddle
ĠLear ning
Ġsch ed
Ġbene ficial
er o
Ġcons ult
ilos oph
c ome
ĠW est
Ġrev olution
I t
Ġencour age
Ġchallen ging
Ġref ers
ĠSoc ial
Ġcommerc ial
Ġc ities
ĠD i
Ġc ognitive
Ġch e
Ġpl aced
Ġ king
Ġstart ing
Ġidentif ied
know n
Ġintern et
c il
Ġto ward
Ġinflamm ation
ĠB ar
Ġrel atively
am ental
ang ing
Ġpol lution
Ġrec ently
Ġins ights
y ear
ĠAmeric ans
form ation
Ġhapp en
Ġb urn
h ab
ĠChild ren
Ġwe ar
Ġl ov
Ġheav y
Ġpot entially
ĠG et
Ġsus p
ĠA ug
ĠSu pp
Ġor al
ul um
ĠTod ay
Ġharm ful
Ġlandsc ape
Ġb illion
Ġprinc ip
ĠR o
viron ments
Ġconcep ts
Ġf avor
Ġr ule
Ġpre par
ĠAss oci
ur ally
Ġrele ase
Ġgr aph
Ġsec tor
Ġadap t
Ġp ip
Ġfollow ed
Ġexcell ent
a ff
Ġd ur
Ġne igh
Ġsp r
Ġc ore
ĠV al
Ġg ender
Ġmem ber
yste ms
Ġinterest ing
Ġem br
Ġeng age
Ġassess ment
Ġsur gery
i us
ough t
Ġe lement
Ġfor ces
Ġ /
Ġclin ical
Ġengine ering
Ġf ields
Ġconsequ ences
cl ing
Ġd er
or ation
ĠE g
Ġmed ications
Ġdescrib ed
Ġcap ture
h es
Ġro t
Ġkeep ing
Ġf ederal
Ġadvanta ge
Ġam ounts
Ġmajor ity
Ġmus cles
Ġb orn
Ġextrem ely
Ġintern al
Ġsw e
ĠKe ep
Ġprac tical
Ġall erg
Ġlif estyle
ti tud
as ion
Ġm id
Ġbuilding s
Ġcon clusion
Ġfac ilit
Ġex hib
an ks
Ġvehic le
tu m
us ive
Ġfeel ings
Ġlead s
ti t
an ch
Ġg ather
Ġ iron
Ġspe ech
Ġno tice
ens es
v ious
b ook
ĠV ir
Ġrec overy
Ġdire ction
Ġcons truc
Ġing red
Ġmo tor
Ġask ed
i ate
Ġro ck
Ġan g
Ġen vironments
ĠS k
Ġno thing
ĠHis tory
Ġcare er
Ġul tim
Ġfinding s
Ġto ld
Ġs av
Ġdist ance
au gh
Ġcomm and
ĠPro gram
in ated
ch ar
Ġdang erous
ies t
Ġearl ier
Ġsol id
Ġse qu
Ġaff ects
Ġh ost
Ġocc up
ĠT reat
Ġac cep
aren t
Ġsh ared
Ġfem ale
Ġcons ervation
Ġback ground
Ġimmedi ately
Ġun it
oc ks
is f
ac ting
z ing
Ġbel ieved
Ġbe auti
er a
Ġtre ated
ĠR iver
ĠOr gan
ven ess
for table
Ġbu d
Ġla unch
O R
t ent
Ġdiscover ed
Ġ =
un ction
Ġw el
g ers
ĠStud ents
Ġco ast
ĠR el
Ġf aster
Ġm agn
air s
Ġund ers
Ġchemical s
O N
er ate
Ġc and
Ġa id
ĠWh ether
ĠC our
Ġm atch
ĠC or
Ġindustr ies
Ġun c
Ġn ative
âĢĿ ,
Ġdiagn osis
1 3
Ġw oman
ĠM arch
Ġdec ades
Ġm aster
ĠChris tian
Ġparticip ants
Ġsugges ts
Ġdig es
Ġhapp ens
Ġbo ard
Ġha z
Ġj oint
Ġh uge
Ġ6 0
xim ately
Ġfr uits
Ġpur poses
a ul
Ġreg ulations
ĠB o
Ġcomp ar
Ġcre ation
Ġp ow
ĠEx pl
ie ties
Ġp u
ree k
m en
u k
Ġf oster
ĠD if
Ġthough ts
re te
Th is
Ġd en
Ġidenti ty
Ġta il
Ġcol ors
Ġlink ed
ĠD NA
E M
Ġeg gs
am b
Ġcontinu ed
Ġsp ot
Ġr at
Ġchang ed
Ġp and
Ġcitiz ens
Ġcomp ut
ĠFurther more
ĠAustral ia
Ġexpl ain
Ġill ustr
t les
Ġg ir
Ġatt acks
Ġcred it
ar a
gr ad
Ġregard ing
Ġge ts
a ign
Ġhe aring
ff ee
Ġwr ong
b es
ric ulum
Ġincreasing ly
Ġsp ring
ĠP art
Ġvehic les
om a
ibr ary
iti g
Ġdist in
ĠG reat
ib ilities
Ġadv ice
Ġun f
the tic
Ġhelp ful
Ġdet ect
i ences
v ity
Ġpic ture
Ġres il
Ġemerg ency
Ġpro s
Ġf igure
r ig
Ġcus to
Ġdistrib ution
ĠBe fore
ĠTh us
Ġiniti al
Ġthous ands
re w
Ġcompon ent
ĠL aw
I T
Ġal ign
ol s
Ġfail ure
Ġcr is
ro te
ĠDes pite
og le
bo ard
Ġto ur
Ġess ay
Ġconduc ted
row s
Ġhigh est
Ġtra ffic
Ġvers ion
oc al
Ġph en
ag er
Ġplat form
E N
Ġev olution
Ġth erm
Ġsl ight
Ġsp end
res p
Ġtechn ical
Ġsc reen
Ġany one
Ġinstitu tions
p ris
m ed
Ġme at
ath y
z z
ĠI r
Ġwal k
ĠE lec
Ġin tens
r ich
Ġcut ting
b all
ĠIs ra
Ġout d
Ġasp ect
e per
ent ed
Ġ2 1
P S
ww w
Ġinform ed
Ġphoto graph
Ġproced ure
Ġm er
go ing
an ish
ĠB oth
at ically
id ity
ĠH y
ĠJ une
il ing
to s
Ġevent ually
ach ing
Ġequ al
Ġcoun ter
Ġth ick
b ing
Ġdr iving
mit ted
Ġ â
Ġdepend s
ĠR oman
ĠL ike
Ġbir d
ec ture
ĠH el
i ant
Ġgood s
act ed
Ġfocus ed
Ġg am
Ġsens itive
u ed
ĠT est
Ġspec ifically
ĠDevelop ment
Ġacc oun
c op
ĠEx am
Ġbar ri
Ġrout ine
Ġdef ined
Ġ #
at ers
Ġsignific ance
Ġre in
Ġp ul
Ġc ats
ĠS ee
Ġfre edom
ortun ately
pr il
ĠC ity
l im
ĠA ir
ĠJ ust
Ġoff ice
Ġn amed
Ġph ase
Ġexp osed
Ġd ivid
ap ter
ĠIns tead
ers e
g ment
ĠG reen
Ġdest ro
Ġplay ing
Ġwork ed
Ġsepar ate
Ġex ternal
ĠEng land
Ġm ap
ter ed
Ġintroduc ed
Ġvir tual
ĠPl an
Ġgener ate
Ġ202 1
Ġrep orts
Ġmed ication
Ġnet works
Ġfl ood
re p
Ġdid n
D A
Ġoper ation
Ġbeauti ful
I V
Ġph ilosoph
isten ce
Ġm ission
O S
Ġform ed
Ġsurround ing
Ġmanufact ur
Ġpur s
Ġoffer ing
Ġro ots
Ġpop ulations
Ġfarm ers
ĠB i
Ġsex ual
Ġcho ices
as te
ĠM ain
ig enous
c o
ĠMore over
Ġse ven
Ġm el
Ġm ut
Ġflow ers
Ġf ib
Ġcirc um
Ġbre ast
ch ain
Ġfore ign
ĠU N
in ating
Ġmention ed
Ġm ys
Ġreduc tion
Ġp ick
ex ic
l or
Ġdis rup
Ġfam ous
Ġrel ax
Ġlearn ed
Ġcreat ive
Ġadvanta ges
Ġar tificial
Ġfores t
Ġoper ating
Ġund erg
ure d
ĠIn f
ĠO c
a ight
Ġha bits
Ġ201 9
Ġguid ance
Ġperform ed
Ġshow ed
ĠS af
u ght
Ġ ign
Ġrespons ibility
Ġgr ass
Ġdat ab
Ġhigh light
Ġv ast
2 00
Ġun ivers
Ġn ames
Ġy ellow
t un
Ġsp orts
Ġprim arily
Ġhim self
Ġrec ords
Ġcar ried
Ġc ook
ĠPres ident
ur g
Ġf ab
Ġrefer red
Ġdis s
Ġop in
Ġfund amental
ie ving
m y
Ġjour nal
ĠCons ider
Ġcustom ers
Ġconcer n
Ġinterest ed
ĠPh ys
Ġs ac
Ġste el
Ġobserv ed
mpor ary
ar an
Ġ tin
Ġde fic
ĠB el
Ġproced ures
el ine
Ġbl og
Ġse ed
Ġpromot ing
re et
2 5
Ġd ent
Ġguid elines
Ġman aging
o on
Ġappear ance
te en
Ġpass ed
b ed
Ġprep ared
Ġpiec es
ipp ed
tric t
Ġn orth
Ġv ess
ĠD av
Ġad ding
b i
ĠK now
Ġextre me
tab ility
Ġp al
Ġen able
Ġapp rec
Ġviol ence
Ġbo ost
Ġinnov ation
E C
ĠTechn ology
Ġco ord
Ġch ain
te mber
Ġs and
Ġs end
Ġm ale
ĠEn ergy
Ġd iversity
ĠE ast
Ġperiod s
f ree
Ġspirit ual
Ġen ab
ĠM exic
f low
is ture
e ff
Ġexperim ent
Ġfor mer
Ġnot es
Ġno vel
Wh at
Ġbot tom
ĠS T
Ġinj uries
Ġstate ment
Ġapproach es
ĠC ong
ne tic
d es
omes tic
Ġens ures
Ġdr inking
Ġis ol
Ġatt ach
Ġtop ics
Ġfil m
c el
i am
Ġs outh
ĠA pril
e v
Ġvacc ine
o ff
Ġes c
ĠGo ogle
Ġtrans l
ord er
Ġrel iable
Ġf asc
ĠComm on
Ġmess age
Ġd ied
Ġpand emic
Ġr ac
bl ing
Ġstr aight
ĠAug ust
ys t
Ġrecogn ize
e f
olog ist
Ġindepend ent
Ġ x
ĠS ystem
Ġcl oud
Ġhe ight
Ġconflic t
Ġsat isf
Ġsk ill
Ġin ten
Ġcover ed
Ġhand le
Ġwe alth
Ġac tual
Ġcris is
Ġexact ly
to ber
Ġappro ximately
Ġin tr
ĠF ol
ĠCh urch
Ġbel ong
Ġcamp aign
Ġmob ile
Ġme tab
Ġcon ver
Ġclass es
Ġtr uth
d own
m aking
Ġv ill
um in
il es
Ġg ar
Ġfound ation
S A
il ding
Ġvol ume
Ġcour t
Ġcard i
ĠF ound
Ġad ult
ĠJ our
ĠM ic
Ġmil es
ĠB re
ang es
Ġso ft
ĠWor k
ĠF re
Ġm ountain
Ġter ri
Ġfa ith
Ġout put
Ġo cean
Ġplay ers
ĠHum an
Ġperspec tive
ĠT ake
Ġf ine
Ġconsist ent
al k
Ġcusto mer
at ural
Ġtu m
Ġmove ments
g l
Ġrele ased
Ġdeta iled
Ġeng aging
em y
h a
Ġliter ature
Ġclean ing
Ġw rote
it age
o king
nd rome
Ġpol y
Ġsound s
ĠJ uly
ud d
Ġper haps
a uty
Ġbr ight
ĠT ur
Ġlangu ages
Ġr iver
Ġn arr
Ġare n
Ġf ather
Ġsign al
ĠO ff
Ġtox ic
Ġhelp ed
hip s
Ġtr ib
Ġsh ar
Ġappear s
Ġ201 8
Ġatmosph ere
Ġsam ple
titu tion
Ġfac ilities
Ġn erv
Ġph one
Ġinterp ret
k y
Ġtra um
ĠEg yp
Ġsur vey
ĠJapan ese
Ġsee king
r ain
Ġlat est
i as
ĠAb out
ĠGerm any
Ġpresent ed
id ential
Ġleg is
Ġj obs
Ġb ank
Ġcl im
ĠM c
f aces
ĠPro v
Ġpain ting
u x
Ġsim pl
ĠM al
Ġclear ly
ĠJan uary
Ġworld wide
Ġto r
Ġp ump
Ġs tu
Ġli ver
Ġre action
Ġco ffee
ĠIntern et
ad s
Ġmain ly
Ġbehavi ors
Ġmin or
Ġchar ge
ant ed
Ġcr yp
Ġfrequ ency
Ġwas h
ĠSep tember
tens ion
Ġ :
Ġaccess ible
Ġvic tim
Ġcommun icate
Ġcul tiv
Ġdeg rees
Ġmo isture
Ġbreath ing
Ġprevent ing
ĠCl ass
ĠUn ion
ĠGener al
Ġf iber
Ġdep th
Ġsetting s
ĠMan agement
ĠT H
ĠRem ember
ing er
ĠA D
asc ular
Ġman ner
Ġtransport ation
Ġmost ly
ch ing
Ġin take
Ġcolle ge
Ġliqu id
Ġunder lying
Ġtr ain
ĠAr ch
Ġp en
Ġplay ed
ĠE ff
Ġpro mp
ic y
Ġpartic les
Ġcollabor ation
Ġsupport ing
Ġpregn ancy
Ġnutr ition
l i
Ġvo ice
le ments
Ġl ic
ĠW estern
ro id
im es
6 0
vers e
ĠS an
Ġm itig
Ġcent uries
ail s
Ġg ave
ĠW ashing
Ġremov ed
Ġat trib
Ġindic ate
Ġscen ar
A M
Ġexerc ises
un c
ĠFin ally
Ġcreat es
Ġs on
Ġdr ink
riend ly
Ġch urch
ren cy
er als
r im
Ġsustain ability
ĠDes ign
ĠM a
ash ion
Ġsw itch
ĠDis c
ĠOc tober
Ġad equ
ĠU p
Ġgovern ments
Ġmeet ing
ĠM ich
Ġfeed back
Ġf ig
ind er
ĠP al
Ġmath emat
Ġv ibr
ond on
Ġam b
Ġs ong
Ġfamil iar
or ough
s te
m at
ĠC are
Ġmach ines
ĠIsra el
Ġcontr ast
t rop
Ġpart y
ell s
Ġflu id
Ġcur riculum
ĠH ouse
Ġl ose
Ġ8 0
Ġagric ultural
Ġin tended
it ness
Ġtrans ition
Ġreduc es
ur t
Ġro ll
Ġw et
Ġplat forms
ber t
Ġor d
Ġsch ol
Ġnat urally
Ġexch ange
ĠEx per
Ġsp aces
if ying
ain t
ĠAn y
Ġ202 2
Ġple ase
Ġa qu
ĠI P
ĠP ower
ol ds
ĠCh o
Ġinter ests
Ġexp ensive
Ġform ation
Ġframe work
ke y
olog ists
Ġrad iation
Ġtr ou
Ġoptim al
ĠPr ac
Ġaff ord
Ġexp ression
ĠV is
p ing
ĠS al
Ġ201 7
el ing
Ġdecre ase
ap ers
ĠB as
Ġconn ections
Ġsm ooth
Ġde eper
ĠL at
Ġinstr ument
Ġnuc lear
Ġ201 5
E T
ove mber
t ank
tain ing
Ġsta ges
Ġcon v
Ġtrig ger
in ations
br uary
Ġon to
ing ly
om b
Ġphen omen
t led
ĠSec ond
ĠS us
Ġestim ated
Ġconsum ers
Ġprep are
Ġprevious ly
2 2
Ġhy per
Ġrepres ents
Ġagric ulture
Ġ201 6
l in
Ġrenew able
Ġu pper
ĠAssoci ation
Ġsuff er
ĠN et
Ġprote ins
Ġhabit at
Ġprot ected
Ġpre vention
Ġcul tures
Ġaccur acy
au d
ag r
4 0
ĠCol le
en tic
s ide
ĠWashing ton
ĠJew ish
ge ts
ĠFr ance
r ors
u ps
ĠP C
Ġl ooks
ec tor
Ġdescrib e
Ġhosp ital
ĠD ig
act ers
Ġhar vest
ĠPro t
A L
ĠDec ember
Ġless ons
Ġac cept
Ġcare fully
ĠM ark
Â °
ist ant
Ġdeterm ined
ess ions
Ġadv oc
Ġar gu
Ġw ire
Ġpr ices
Ġresp ir
Ġbe auty
Ġf oss
Ġun its
Ġbeg ins
Ġinter actions
Ġinnov ative
ic ious
Ġdiscuss ion
Ġon going
Ġconf idence
Ġconf irm
Ġdes pite
Ġform at
Ġcour ses
ĠReg ular
ĠAr t
Ġle tter
ĠY es
og en
ĠI d
Ġsh aring
Ġc rops
Ġrefer ence
Ġsu fficient
C h
Ġro of
Ġthreat s
ress ed
Ġd omestic
Ġwond er
ĠWh ere
ĠCh eck
ĠS un
Ġsubst ance
Ġ tank
Ġab use
Ġra ise
ag ers
Ġe ight
f ord
Ġserv es
ĠDo es
ĠC ap
Ġcomb ined
ĠL ondon
Ġgl ob
Ġcircum st
ĠSp anish
Ġth in
ti al
A D
Ġcer tific
Ġb ow
Ġwild life
Ġp ig
Ġrad io
Ġwant ed
Ġreg ul
ir us
Ġst ret
Ġve ter
el es
Ġcom fortable
o ors
um n
ĠDe f
Ġclos ely
os a
P T
ting u
Ġin her
ĠD ire
Ġann ual
Ġ2 2
Ġke pt
A s
Ġd ens
Ġass istance
Ġhe ard
it ude
Ġaud ience
ĠN ovember
S D
Ġphys ic
Ġcomple ted
Ġper man
Ġr ace
Ġin put
ĠLear n
Ġartic les
ĠS ign
ĠGovern ment
Ġc ere
Ġrapid ly
y e
Ġele v
Ġrep e
Ġen ables
Ġmaxim um
Ġtrans p
Ġm ood
Ġd im
Ġleaders hip
Ġbal anced
Ġins urance
io tics
Ġexcess ive
8 0
ĠL ife
Ġn orm
Ġcap abilities
f its
ĠD em
ĠFe bruary
Ġelectr onic
Ġh it
ĠW ell
Ġmed ium
ay ing
Ġrec ip
Ġdestro y
er ies
Ġyou th
Ġpar ties
o om
Ġwall s
Ġfil es
b u
Ġr ound
ĠSc ot
ul in
os en
Ġmo tion
Ġo d
y th
Ġread ers
Ġoffer ed
ĠP ublic
Ġer a
Ġcontroll ed
Ġkind s
Ġs ort
ĠAs ia
Ġchar acters
Ġn it
Ġswe et
ĠL ord
Ġalgorith ms
ores t
ch ool
Ġfac ts
Ġingred ients
ĠPh il
am ins
Ġauth ors
c an
Ġus age
tic ip
Ġvol un
ti tion
Ġse ts
ĠAv oid
Ġc atch
Ġp ort
qu ality
Ġn urs
Ġb io
le ase
Ġmor ning
im ent
Ġj ustice
Ġcons cious
Ġsupport ed
or ge
ul f
Ġsto red
over ty
Ġdistin ct
ĠEng ine
i j
Ġreflec t
Ġdem ocr
Ġsupp lement
Ġg ut
id a
Ġr aw
p an
ti le
Ġgrow n
Ġk n
Ġh our
Ġcoun t
i at
ĠE mp
tif ied
ul s
ĠD ise
Ġded icated
ĠRe v
az ing
Ġsuff ering
Ġch ann
Ġaim s
Ġb iod
Ġ *
Ġk ill
Ġeth ical
Ġturn ed
Ġrep roduc
Ġfl oor
Ġ202 3
Ġpan els
Ġsh ift
Ġprogram ming
Ġcl ick
Ġins ects
Ġb ag
Ġslight ly
Ġsupp orts
Ġth orough
ĠSoc iety
Ġimprove ment
Ġconsider ing
oy al
ter ing
Ġno ise
ĠJour nal
ĠL a
ĠT ex
Ġbud get
ĠM or
Ġd ro
Ġcons ists
Ġstab ility
Ġpres erv
f riendly
Ġcollec ted
tom ach
Ġsal t
Ġ9 0
ĠFol low
ĠC le
ĠCoun cil
Ġimm un
Ġimplement ation
Ġcri tic
Ġl ived
ĠB al
ĠM r
ĠC er
Ġconcentr ation
ter ol
Ġtas te
y a
Ġd ream
ĠH ave
Ġst one
ĠCont rol
o ti
Ġtrend s
oss ible
ĠD el
Ġeffecti veness
ĠC reat
Ġcar s
Ġstrugg le
Ġmo ved
Ġsp ent
ĠTw o
Ġab ilities
ĠM use
Ġsu d
ĠColle ge
Ġpurch ase
Ġserv ed
Ġsay ing
ĠCoun ty
ĠMed ical
Ġfund ing
ĠB et
Ġd ial
Ġcor por
ĠT em
Ġstar ts
Ġdefin ition
Ġco op
Ġcap able
ec tives
Ġdesign s
ĠWh ite
Ġmin erals
Ġultim ately
le ts
p re
ac ture
Ġbr ush
Ġnot ed
ĠF ac
Ġle aving
Ġrecogn ition
Ġf ro
Ġh op
Ġout l
Ġtyp ical
Ġb le
ĠIs l
Ġsurv ival
Ġsol ve
Ġour s
Ġinstruc tions
iz on
Ġis land
Ġres idents
ay er
Ġst ro
S T
ĠM ary
Ġs ter
Ġval id
Ġ7 0
Ġstand s
ĠA p
Ġvulner able
Ġarchit ecture
ĠG reek
Ġh om
Ġbehavi our
Ġauthor ity
Ġextens ive
ist an
as er
ĠB ene
Ġrecogn ized
ĠS uch
oles terol
Ġ2 3
Ġte a
ĠS ou
Ġrequ est
om pl
Ġvis ible
ĠW omen
Ġhe aling
2 3
Ġacc el
ĠA C
a j
Ġconc rete
Ġparen t
Ġf irm
ĠAr ab
os ite
Ġgr ade
Ġpsych ological
Ġsub jects
Ġdeta il
Ġsubst ances
ĠY ear
Ġg od
Ġhapp y
on ics
Ġch ick
idd en
Ġdiffic ulty
Ġselec t
ĠS ub
Ġdou ble
ĠWe b
Ġacc ounts
Ġach ieved
rou p
Ġob vious
Ġr ul
Ġfeed ing
ĠB ra
n am
Ġgener ated
Ġres ol
at t
âĢĻ .
ograph ic
Ġinter vention
Ġm ild
Ġsc re
ven tions
Ġres erv
ĠG ood
ĠW ind
Ġprov ider
Ġbi ological
ĠV it
Ġpro toc
ox id
Ġasse ts
g a
ad y
Ġless on
Ġ19 3
M S
ap y
ĠF am
ĠEnvironment al
row ing
Ġsign als
Ġproduc ing
Ġcommit ment
to ck
Ġsun light
Ġcircumst ances
ĠS tand
Ġpre m
Ġshow ing
Ġf ill
Ġexpl ains
Ġrec over
n ic
ĠSp ace
and om
Ġbat tle
Ġre ly
Ġro les
Ġta ught
n el
rol og
ful ness
Ġtrans mission
Ġrep air
Ġto ler
Ġproduc tivity
Ġwh e
Ġdoc uments
Ġra ised
as ive
Ġhor se
ĠC ath
ĠSt art
Ġmill ions
Ġs en
ĠB us
Ġdes ired
Ġdel i
Ġacc ompl
Ġsubst anti
Ġ201 4
cr aft
hold ers
l ong
Ġtr uly
em e
ĠPro ject
Ġm ort
ipp ing
ars h
Ġgener ations
m ark
Ġwor s
Ġex tent
Ġimmedi ate
Ġb rown
Ġinter view
Ġexperi encing
Ġmechan isms
Ġcy ber
Ġcomput ers
ĠO ut
ex p
Ġconduc t
ri age
Ġl un
Ġinter action
Ġpar am
f all
Ġco al
Ġa th
- -
Ġanaly ze
Ġc rop
ĠV e
st ream
Ġb ones
Ġste m
re ds
R E
ĠImp ro
Ġn ar
Ġd oll
Ġdec ided
Ġr ough
Ġelec tro
Ġf ashion
Ġdeli very
Ġr ural
iz er
ĠStud ies
Ġrem ote
Ġs now
ĠTh ose
Ġsam ples
Ġrecord ed
end ed
Ġs tomach
Ġhyd rogen
Ġrelig ion
ĠE th
c ar
Ġmy th
Ġfab ric
Ġa er
Ġinf ected
Ġpriv acy
ĠP ress
h i
g ely
g reg
Ġconc lu
Ġn ations
ĠCent ral
to re
Ġincre d
Ġac know
Ġtest ed
y les
Ġdet ection
id ay
Ġd rop
Ġpart ner
Ġ19 5
Ġminim um
? âĢĿ
to od
R I
Ġ tun
el lec
Ġw ish
C O
on al
ĠSte p
Ġrem ark
Ġsh or
Ġother wise
Ġsuccess fully
Ġac ids
Ġsto ck
Ġle af
iti vity
ter ies
Ġattemp t
ĠS et
ic a
Ġfl at
Ġb ill
Ġlead er
Ġevery day
un k
ad ing
Ġs ick
Ġsud den
Ġl inks
Ġreach ed
Ġcontinu ous
in ter
Ġac ts
ĠâĢ ¦
Ġidentif ying
ĠCour t
Ġme ant
t ural
Ġex istence
Ġprovid ers
Ġprop osed
Ġag es
Ġloc ations
Ġagree ment
Ġprof essor
Ġexpert ise
ĠS am
Ġfollow s
Ġcreat ivity
Ġaddress ing
Ġdyn amic
Ġsta ke
Ġser ver
2 4
ĠMic ro
Ġenc oun
Ġauth entic
ĠC re
oin ted
ĠI S
in ate
Ġintroduc tion
Ġlar gely
Ġcertain ly
Ġsh ip
Ġdiscuss ed
Ġmar ine
in ding
c ing
as p
Ġf elt
Ġbr ief
2 1
Ġful f
all ed
Ġw aters
Ġcor resp
Ġat titud
Ġir rit
ĠN AS
od ing
Ġprincip le
Ġsp l
ĠServ ice
n es
Ġrespons es
an tic
Ġun l
Ġstudy ing
Ġoper ate
Ġbatter ies
Ġecos ystem
Ġp up
om as
Ġhol ds
Ġdisc ipl
ĠDif fer
Ġlov ed
u ate
ter ior
Ġwal king
ĠMuse um
Ġne utr
ĠRuss ia
Ġgu aran
Ġspe aking
Ġtal king
Ġteam s
Ġresil ience
Ġbr and
ĠGl obal
ĠJ ames
al le
Ġsqu are
Ġp overty
Ġtr ained
and er
ĠG re
ap es
ec urity
Ġsw im
m as
P I
Ġd u
Ġrespir atory
Ġvit amins
Ġtrad ition
Ġsy ndrome
Ġexpl oring
Ġfor ced
w ood
Ġph r
Ġin ches
Ġj u
Ġ2 7
Ġpor tion
c oin
ĠQ ues
Ġselec tion
Ġper ce
b ody
ti ble
Ġdatab ase
Ġbelief s
Ġs in
' ll
Ġconcer ned
Ġintegr ation
Ġconsum er
Ġconsum e
Ġfund s
ĠCon f
Ġgen es
a ult
Ġre actions
Ġ +
ĠC B
ĠL ong
ro ad
ĠE conom
Ġgreen house
i king
Ġsched ule
Ġdec line
Ġk il
Ġminim ize
Ġhe ating
ĠSome times
in ant
ĠB en
Ġw itness
ĠOp en
Ġdown load
Ġin ner
Ġsub sequ
oun ced
Ġocc asion
p ower
Ġgreat ly
av ity
Ġparticip ate
anc er
Ġp aid
ven ue
Ġinter act
Ġcom fort
ĠSim ilar
E L
Ġcont amin
Ġcalc ium
ell ed
Ġfocus es
Ġmass ive
Ġ2 8
Ġset tle
Ġfoss il
Ġch olesterol
Ġdec ide
Ġnutr ient
ig ue
Ġcirc uit
ad o
Ġdoc tors
c ol
um es
Ġo bl
C C
Ġwind ow
Ġtin y
Ġ201 0
Ġmin ing
x ide
Ġsur pris
Ġim per
ro duce
Ġmeasure d
Ġacc um
an es
Ġpar k
Ġin tric
an tum
Ġours elves
Ġ2 6
Ġst ation
n ormal
Ġrel ief
Ġp ool
al ysis
Ġfunction al
Ġblock chain
Ġsur faces
Ġart ists
mp h
c ks
tr um
Ġsurv ive
Ġfin ally
Ġnavig ate
ĠEs s
Ġdivid ed
Ġme al
Ġf u
as ure
Ġemp ower
Ġsh r
ĠWh o
Ġadd iction
Ġdraw ing
Ġexpl ained
Ġhy gi
ĠT ime
ĠPro duc
Ġsta ble
Ġn ine
g ression
ĠDav id
Ġsecond ary
Ġadequ ate
ĠRep ublic
Ġrecommend ations
Ġl ies
ĠO b
Ġdisc overy
z a
Ġn erve
Ġlearn ers
cer tain
Ġto w
Ġover l
ister ed
Ġhouse hold
Ġrel ative
Ġa head
w ord
Ġfores ts
Ġfarm ing
ĠCl imate
Ġcompl ications
Ġman aged
Ġex tended
Ġr ou
Ġs tick
Ġimpl ications
Ġcomp ounds
or gan
Ġposs ess
Ġcho osing
ĠIn formation
Ġimplement ing
Ġb ath
Ġgir ls
ron t
Ġlay ers
Ġview s
Ġp ages
Ġpol ice
ĠP sych
Ġclos er
ĠY et
force ment
D C
Ġk illed
Ġb and
u tive
Ġproduc es
Ġcl ar
Ġwor se
Ġselec ted
Ġv ot
Ġprotect ing
ĠS ever
Ġvol tage
Ġeng agement
Ġconstant ly
Ġwor ry
m ary
Ġflex ibility
Ġ201 3
ĠProf essor
Ġp il
Ġcomp osition
ĠFound ation
id ers
th us
ĠW rit
Ġsat ell
Ġauthor ities
Ġhund reds
P R
Ġtechn ological
ĠAc ad
Ġed ge
ĠEar ly
ĠK ore
Ġpres crib
Ġform al
u ing
Ġas tr
Ġr ub
Ġf le
Ġde ploy
Ġcar b
g ans
Ġevalu ation
og a
ak ers
ĠM ac
ta il
Ġevalu ate
Ġd ust
es tiv
O T
Ġprior itiz
Ġres tor
ĠCong ress
ov ascular
Ġsens ors
Ġacc omp
ĠIs land
if f
Ġmechan ism
Ġdam aged
oid s
Ġw aves
ĠTh ough
Ġinstr uments
ĠE as
Ġc ash
Ġhous ing
Ġdr ain
um ps
f it
u gh
ĠMexic o
Ġprin ting
Ġfrequ ent
ĠImp ort
am ps
Ġcall s
Ġentire ly
ĠTe ach
Ġcand id
Ġap art
pr ise
ate ver
ĠC y
Ġen z
Ġs ed
ĠH ome
angu age
I I
ĠV ol
ag ue
Ġimp ossible
ĠGe orge
c ons
Ġsc an
Ġexpl an
ĠNAS A
Ġf illed
Ġbr ings
Ġclaim s
Ġ est
t ons
er b
ĠM il
Ġm ir
Ġexp ans
Ġc ooking
ĠRes p
9 0
Ġr hy
Ġ201 2
Ġbre ed
Ġnec k
Ġer ror
ĠL ab
Ġexpl oration
ĠS l
Ġs ides
v ent
Ġab und
Ġlot tery
ĠEx p
Ġdeath s
âĢ ľ
o tic
Ġconven tional
Ġme als
tr act
Ġstud ied
Ġtr ip
ĠWill iam
Ġlet ters
Ġlim its
Ġenab ling
Ġcou ple
ĠPl ant
Ġpl enty
ĠB udd
ĠA uth
Ġdr am
ĠL ast
Ð µ
th eless
ĠO ld
Ġhapp ened
Ġv oc
c ast
Ġvess els
Ġch ances
o ch
Ġs od
Ġprev al
Ġwh om
Ġcloth ing
Ġsh op
Ġover come
Ġm old
Ġthr ive
Ġslow ly
ress ive
Ġefficient ly
Ġwe ap
eli hood
ĠTreat ment
Ġregion al
ĠSec urity
ĠN atural
Ġbig gest
Ġs ell
Ġdis tingu
es tic
pos al
ĠKe y
ĠM em
le vel
Ġhyp oth
ĠB er
ĠAn g
Ġsee ing
ĠUnd er
Ġcontrib uting
Ġag encies
Ġp ull
ĠM ath
n y
is k
Ġfew er
Ġshap es
ĠAc cess
se e
Ġl ots
Ġmar kets
Ġv s
f ish
ĠS um
Ġansw ers
Ġdiges tive
ĠE U
ĠRuss ian
Ġposs ibility
Ġdis app
Ġrecy cling
Ġsp ending
t one
ĠMus lim
g ent
ic ks
ist ent
Ġre ward
7 0
ol ving
Ġint ellec
h am
Ġw ave
Ġcomp uting
Ġchild hood
ed ia
ĠBus iness
I f
Ġbound aries
ĠComm ission
Ġmechan ical
in ent
Ġfix ed
c ope
Ġfil ter
ĠBene fits
Ġcomp et
ĠH ear
um ber
av a
ĠB C
Ġr andom
ul ties
Ġdou b
Ġgl uc
ach e
mb ly
ĠId enti
p read
Ġsupp lements
Ġpl as
Ġgreat est
Ġpro por
Ġmus e
Ġopen ing
Ġspecial ized
Ġfl ight
ot al
ĠTex as
Ġch osen
Ġkid ney
ir ation
ĠP aul
Ġnor thern
Ġdisc om
ĠInc re
ol f
Ġw ants
Ġemploy ment
Ġgr and
Ġcontain ing
ĠH IV
Ġunders tood
ĠM ul
ac ific
Ġcl osed
u tic
m i
Ġtrad itions
Ġg ap
t ech
augh ter
Ġman ip
Ġcare ful
Ġex h
Ġpl ate
ĠMed icine
ay ed
ĠSaf ety
Ġoccur red
Ġimm igr
Ġl ights
Ġau to
c tic
ĠC op
Ġfac ing
Ġobj ectives
Ġprof ound
Ġdirec tor
ĠS en
Ġinter active
Ã ¡
Ġfig ures
Ġfac ed
Ġleg s
Ġcol our
Ġlight ing
Ġ201 1
Ġbe ar
Ġbro ken
ides pread
Ġcorrect ly
Ġer rors
ĠJ os
ĠSe a
Ġintegr ated
fic ation
Ġsuggest ed
Ġsou thern
Ġgrad ually
Ġf urn
Ġ- -
Ġobtain ed
rit is
s tand
em ical
erson al
ĠA u
Ġabs ol
ĠOn ly
Ġdevelop ers
ĠPro per
cr yp
Ġz ero
Ġindic ates
Ġtiss ues
Ġperman ent
A P
Ġinstall ed
ĠP lease
Ġdiet ary
ol i
Ġd ys
Ġtraum a
Ġiniti atives
Ġsp o
ĠC ivil
ĠP ers
ĠFl or
Ġmolec ules
Ġcr iter
cl us
ĠW ild
Ġo vers
Ġinflu enced
l ar
ĠT er
Ġanti oxid
io xide
ne e
Ġph arm
Ġsur ve
ic it
ĠP ost
it z
we ight
ĠN av
ĠN ature
Ġdiscom fort
Ġdeb t
Ġtreat ing
ĠS at
le g
he alth
end s
ri ver
ad v
t ack
Ġac tively
ĠQ ue
Ġmed ic
Ġdes ire
com ing
Ġun able
Ġdens ity
Ġcomp rom
Ġexpl o
b and
Ġc row
Ġfasc inating
Ġneigh b
ĠDise ase
Ġher itage
im inal
Ġst ated
Ġcompeti tion
Ġsal es
Ġmor al
âĢĻ ,
Ġsp ort
toc ur
Ġrob ust
ain ts
ĠB ible
Ġrem ained
Ġnorm ally
Ġr ig
Ġwar ning
Ġwebs ites
Ġarg ument
w ell
ad d
ĠUn f
Ġmarket ing
Ġreve aled
ag o
Ġ ic
h av
Ġcoun s
og s
Ġprec ise
tor ial
ar i
Ġcharacter ized
Ġhealth ier
Ġr ail
k in
Ġsh if
y roid
Ġsm oking
Ġmis ta
Ġshar p
ĠB it
Ġcool ing
Ġtrans actions
am ics
Ġmo v
er ic
Ġadministr ation
ĠA N
ĠU r
ĠSus tain
Ġve get
ĠD oc
ĠM iddle
Ġadop ted
Ġecos ystems
ĠCon n
Ġcollec t
ur ation
Ġrat io
te in
Ġ ton
lec t
Ġp ure
ĠR ich
ar ter
Ġw idespread
Ġdem ands
tic le
n ame
Ġst ars
Ġimplement ed
" .
ame ter
ĠLat in
Ġlook ed
Ġwork place
ep h
og ue
Ġfunction ing
Ġc ast
omm od
al se
Ġenh ancing
Ġpre t
Ġprot ective
im al
ren e
Ġbl ocks
Ġbut ter
Ġdr ag
Ġmanufactur ers
Ġco vers
Ġman if
Ġexam ine
rop h
Ġremov al
Ġdemonstr ate
Ġ Ã
Ġexc iting
Ġtw ice
Ġte en
Ġair craft
Ġ2 000
ĠSy mp
Ġobj ective
ap ed
A I
Ġdo or
ĠM iss
Ġtur ning
Ġhand ling
ĠAn ti
th ritis
ass es
Ġrepe ated
ors es
ĠF orm
ĠHis tor
Ġmark ed
Ġneu ro
Ġre tain
Ġconvers ation
l ers
ĠIn t
Ġhygi ene
Ġsuppl ies
yth on
Ġm ac
Ġso le
ĠBrit ain
Ġad ds
Ġg all
Ġw is
e tic
Ġcommit ted
Ġwill ing
Ġmix ed
ĠCl in
Ġaffect ing
Ġprepar ation
Ġorgan ized
ĠNew s
Ġtr ied
e al
ĠBu ilding
he im
ĠSupp ort
Ġsk y
Ġcam era
Ġapp s
Ġschol ars
on ding
Ġcomp ost
ĠWith out
Ġp un
ag ues
Ġde aling
Ġins ulin
ĠL ake
Ġs ti
Ġlisten ing
t all
Ġd ioxide
Ġdep os
ĠG roup
Ġhorm one
ĠP an
Ġfocus ing
ĠG en
ĠH en
wh ich
Ġelimin ate
ĠS ing
Ġoutd oor
il t
Ġg ained
ĠU l
Ġmess ages
H D
Ġplant ing
Ġor gans
Ġmetab ol
ĠDire c
ĠT ry
Ġlab el
Ġopin ion
ĠP or
Ġch ec
Ġindepend ence
ĠH aving
Ġcontr act
Ġ trop
Ġfl avor
Ġdiagn osed
oc king
ĠJew s
Ġpan el
ĠDig ital
ĠPh oto
Ġhard ware
oh y
ish ment
ĠMe an
Ġinter ventions
Ġrem aining
Ġstruc tural
Ġcl ients
Ġsm oke
Ġcomb at
Ġhous es
Ġexperim ents
Ġpret ty
ĠVit amin
Ġen thus
ĠR ights
Ġvis itors
Ġe ase
Ġeg g
Ġcom ment
Ġbiod iversity
Ġach ieving
Ġavail ability
Ġstrong er
wh el
Ġa x
wh at
ĠUnf ortunately
Ġfor get
Ġris ing
Ġstro ke
us es
ac tor
Ġmag netic
ĠV ic
ĠI T
Ġofficial s
ĠM ass
Ġvide os
Ġs izes
Ġcardi ovascular
f r
con t
Ġparticip ation
Ġst yles
Ġ3 5
air y
Ġs essions
Ġput ting
Ġfavor ite
Ġr ice
Ġdescrib es
Ġflex ible
ĠVir gin
Ġ19 0
Ġlist ed
ur d
ĠAt l
Ġobl ig
Ġg um
Ġl ibrary
ĠB lue
l ights
Ġanal ys
Ġf ly
Ġnerv ous
Ġdef ine
Ġc ards
Ġnutr itional
ĠUn like
Ġprin t
Ġfl ag
Ġch apter
Ġun iverse
Ġm amm
Ġind ex
oc ation
Ġmo on
sc ale
Ġsc ar
Ġnecess arily
pr int
Ġlimit ations
Ġinten se
ohy dr
Ġpres ident
Ġsaf ely
ĠT op
Ġbarri ers
es ity
Ġcal ories
Ġown er
Ġcreat ures
ab ul
2 6
onom y
Ġhyd ro
i i
ĠAs k
igh ter
k a
or a
Ġstrateg ic
Ġstand ing
Ġbr idge
Ġpe ts
Ġfr ag
Ġsent ence
at o
Ġcent ers
ĠL ow
tr ation
Ġar ms
Ġdist ur
ĠD ue
ific ations
Ġdiffic ulties
and a
c ers
Ġwarm ing
ĠT or
Ġhaz ard
Ġp ed
ĠN ations
Ġdec ade
Ġb ond
Ġprocess ed
Ġhol ding
ĠF ree
Ġadv ent
ĠR ad
Ġread er
ĠK en
Ġ tes
dr aw
Ġti tle
Ġmeaning ful
io tic
res t
char ge
S S
tim ate
Ġfat igue
Ġmeasure ment
Ġinvol ving
' ve
m es
Ġgr id
ĠB ook
Ġad vert
Ġacc ommod
ĠF igure
Ġexpect ations
Ġdec or
s on
ĠL ou
v is
ĠH ind
ĠCol l
ta g
Ġvirus es
Ġremark able
Ġm and
ĠM ach
Ġp in
Ġcontrol s
Ġs ight
Th ere
Ġf av
Ġover whel
Ġcor on
Ġeduc ators
Ġknow ing
t ang
Ġyoun ger
ĠN ative
Ġres olution
ĠAm ong
Ġvolun te
Ġcateg ories
i ability
Ġtherm al
ĠCol or
Ġf if
Ġob esity
Ġn ose
p oint
B C
Ġpro ven
en g
Ġadvance ments
Ġgluc ose
ĠOver all
st ate
Ġrece iving
Ġplay er
H ow
Ġta p
Ġengine ers
Ġg un
Ġdent ist
Ġpercent age
Ġarr ange
ĠSol ar
ĠM at
am ing
b orn
Ġv ac
ap ing
Ġf ats
Ġarm y
Ġpers ons
ĠTr ad
Ġ tall
ĠL im
Ġreg ulation
Ġw est
Ġemploy ed
ĠP acific
Ġvers at
Ġconsider ation
an ches
Ġr ab
Ġintegr ity
Ġun w
Ġmat ters
ĠN ote
Ġn an
Ġvar ieties
2 8
ĠL u
rim ination
Ġstim ul
Ġposs ibly
Ġban ks
Ġremov ing
th ma
Ġpopular ity
Ġun known
ĠE nd
Ġopen ed
ĠC am
ĠI N
Ġthan ks
Ġdisc rimination
Ġn est
Ġun less
Ġex ten
wor ds
Ġpic tures
Ġapp oint
Ġregard less
ĠEn s
Ġder ived
os qu
. âĢĻ
Ġaccep ted
Ġpr ison
ĠG old
ir ds
Ġy ield
Ġun certain
ual ity
Ġent ry
Ġwhere as
ĠB ack
ĠR ob
cep tions
Ġmod e
Ġtell s
ĠE qu
Ġnar row
Ġshe et
Ġexam ination
r ay
Ġb or
Ġfe ver
Ġturn s
Ġcl ient
R O
Ġeng aged
ot yp
u ous
Ġoutc ome
Ġan ces
Ġprefer ences
l a
gu ard
ou ts
h ere
Ġins ight
Ġexpans ion
Ġcriter ia
or ous
Ġorgan isms
Ġpos itions
Ġmic ros
th esis
Ġlabor atory
os ion
Ġbre eding
Ġrepl aced
ber g
Ġcontrib utes
ĠWh ich
Ġwa it
) ;
ĠG ard
f ield
z en
ĠCur rent
ens us
Ġfacilit ate
v an
c our
au th
Ġ200 9
Ġappe ared
ire ct
ĠB ay
Ġ tro
Ġsec ret
gress ive
Ġ2 9
ĠF ind
Ġsus cep
Ġtar gets
Ġincorpor ating
Ġsav ings
Ġaccur ately
ĠFr anc
ast ers
ĠBe ing
Ġbur ning
ang ed
th es
Ġsc ore
abul ary
Ġw ife
Ġ200 8
Ġin hib
Ġequ ival
Ġprof it
y me
2 7
Ġhtt p
Ġpr on
Ġbring ing
Ġapp arent
Ġdang er
Ġun iversity
ra ft
Ġmet ers
Ġvacc ines
ĠFlor ida
Ġrem ed
Ġprec ision
adv anta
t ac
Ġpres ents
Ġp as
lu ding
Ġcompar ison
Ġw estern
e k
ak er
Ġdom ain
Ġpregn ant
Ġopp osite
H O
ĠL anguage
ĠPro cess
Ġpromot es
Ġl ung
Ġphenomen on
Ġdis trict
Ġe ld
Ġind oor
h and
Ġp ests
Ġins truction
s pec
Ġstr ain
Ġnear by
z ed
tor ies
Ġserv ing
ĠSymp toms
fl amm
ĠAustral ian
Ġneigh bor
w ar
Ġab normal
ou l
v ol
Ġfac ility
ĠM ag
Ġexpress ed
Ġat tend
Ġcop per
Ġeth nic
o T
en a
Ġun us
yr ight
Ġen ds
g ener
it ure
ĠL and
Ġsold iers
ĠTh omas
os ts
Ġro w
ĠN utr
ĠT able
Ġworks h
ĠA lex
Ġg al
Ġhund red
ĠC at
n ab
ĠTH E
5 00
Ġreturn ed
ĠNe xt
Ġweak ness
Ġdis abilities
a el
ell a
Ġposs ibilities
ir s
Ġag ency
al ian
d ep
w in
Ġdeb ate
Ġk new
Ġsens itivity
Ġtrial s
Ġcontain er
Ġinstall ation
Ġobs erve
it ely
Ġpo ison
ĠP ot
ren ce
Ġme th
ĠW r
all ow
Ġqu antum
Ġr id
ĠCommun ity
Ġorigin ally
Ġbab ies
Ġen cryp
Ġcr af
Ġz one
Ġpass ion
y mph
Ġfu els
ĠS ov
Ġcop y
_ _
dr ation
bl ed
Ġstake holders
Ġflow er
Ġv ent
w est
Ġh oney
Ġwind ows
Ġs ession
Ġemerg ing
Ġcr ime
Ġfoster ing
Ġsac r
enti ve
edi at
Ġdistrib uted
Ġmem br
Ġcover age
Ġcompl iance
Ġh idden
Ġ5 00
Ġex tend
Ġautom atically
Ġwrit er
IN G
Ġh ole
Ġcompl icated
ĠSpec ial
ass ion
Ġstr ict
g ar
er ge
ĠU V
Ġmar riage
tic es
3 5
ĠSt at
Ġbre ad
ĠL ight
if ies
Ġadv is
Ġevol ved
Ġconte mporary
ĠEgyp t
ĠL ook
Ġaud io
Ġc lu
Ġrhy th
ĠB ro
ig ent
Ġ ille
Ġavoid ing
Ġg ear
Ġc up
Ġfriend ly
Ġpain t
Ġ tack
Ġvill age
Ġin hab
Ġfat ty
Ġd in
Ġmiss ing
Ġc ot
Ġattach ed
I ON
Ġfin ance
1 00
Ġsec tions
Ġtarget ed
Ġsubstanti al
Ġbel ie
Ġapp lying
ĠExam ples
2 9
Ġland s
ĠCl ick
ĠT ra
au ght
aw s
Ġpersonal ized
I P
ad der
Ġre b
Ġb en
Ġreg ulate
o ta
ĠServ ices
Ġdeterm ining
D F
Ġpow der
ro at
ip h
Ġp air
Ġcomp ens
ĠCh ange
à ¥
ĠN ever
ĠW ood
Ġcompeti tive
us ing
Ġin test
ĠHel p
all s
Ġcal m
er ape
ĠF ederal
Ġun n
Ġb rows
Ġincorpor ate
Ġas king
B T
ĠPar is
roduc tion
Ġcomp are
Ġp H
Ġrepresent ation
ĠDiffer ent
Ġmeasure ments
ect ing
Ġfight ing
ĠChrist mas
os tic
% .
ig er
ĠBit coin
Ġcomplex ity
Ġj ump
Ġlaunch ed
ip e
ĠResearch ers
Ġpromp t
Ġintens ity
Ġl aser
Ġhabit ats
ĠInd igenous
R C
ol a
Ġbe es
Ġhorm ones
Ġarchit ect
ir cle
Ġnarr ative
Ġstrength en
s u
ac les
iti ous
ĠW al
ĠSever al
Ġacc ident
Ġcolle agues
Ġfl our
ol ar
Ġpe ak
Ġsh ut
ĠPhys ical
Ġcryp tocur
Ġch est
Ġmus ical
Ġmed itation
Ġdr ivers
Ġl on
Ġpay ment
iz z
Ġsur ge
o tion
ĠOff ice
Ġhol es
ĠK h
Ġti ght
ĠImp act
Ġsens or
Ġin equ
O C
Ġsh el
if orm
Ġintric ate
Ġrem ind
ĠCle an
ĠCath olic
Ġ4 5
osqu ito
al a
l ines
ĠAr my
ĠTyp e
Ġfl av
ĠCanad ian
Ġdef ense
g ical
Ġpred ict
Ġvar iable
ĠCon tin
ĠRe view
ĠV ar
Ġl iber
Ġany where
Ġphilosoph y
Ġfit ness
z il
Ġsp in
Ġcor n
Ġsc ene
ĠGu ide
p at
Ġind eed
Ġhum idity
ress ing
s is
am ine
Ġhapp ening
Ġspec trum
Ġreport ing
s uch
w ith
Ġmet als
Ġint roduce
ut ation
ĠCar ol
Ġ18 6
ĠIm m
Ġterri tory
ĠOn line
ĠS il
ĠC ancer
Ġpack aging
Ġme ta
Ġdep artment
enti a
Ġdemonstr ated
Ġcr iminal
Ġstr ing
pl ant
th rop
onom ic
S E
Ġd river
ĠRe f
it als
Ġa es
ĠStr ateg
ĠB ur
ist ed
ĠB ank
ti ans
on ia
Ġtur b
ĠB ab
ĠMod ern
Ġscr ip
Ġ199 0
Ġpoli tics
Ġsto res
ic ide
Ġfall s
Ġneg oti
Ġdoub t
ĠH aw
Ġparam eters
k er
Ġform ula
ĠA ge
Ġcateg ory
ad a
Ġref uge
Ġperspec tives
Ġout bre
Ġreach ing
li ament
Ġf alse
Ġmem or
it ting
Ġpro ve
n o
at om
Ġencour ages
Ġgr ains
Ġinterp re
ne ys
i ated
Ġresul ted
Ġpar as
Ġbr anches
Ġshow c
Ġf inger
Ġexp enses
Ġj oy
Ġg one
ĠL abor
Ġlegis lation
Ġex ists
Ġrepresent ed
Ġrun s
Ġmeas uring
Ä ģ
L A
Ġfail ed
Ġaut ism
ĠD own
a very
Ġpow ers
ĠRed uc
Ġdeep ly
est ed
in ity
Ġd ance
Ġreal ize
P U
Ġ ...
ĠAd ministr
ion e
4 5
Ġvari ables
Ġliter acy
Ġimpro ves
Ġwe igh
Ġtrou ble
a ired
ĠTyp es
Ġar ts
Ġj oints
Ġmanuf acture
ol ate
Ġsec tors
teen th
Ġdel ve
ĠO cean
he ets
Ġheav ily
ĠB ig
ĠJ ud
ĠDe v
un ic
ec ess
Ġminim al
D P
Ġep is
Ġregul atory
ĠComm it
ĠA gric
es ides
ĠA ff
ĠN on
Ġmin eral
ĠF ace
Ġsequ ence
Ġe ast
ord ers
am ination
acc o
wor ld
Ġemploy ee
Ġknow s
Ġrou te
Ġre n
Ġpre y
Ġpres erve
a it
ult ane
ĠF und
Ġex cept
Ġaim ed
Ġpar alle
A n
Ġtr acking
ed ge
ĠComp any
wh ile
Ġwh atever
Ġr ivers
Ġenh anced
Ġper ception
Ġstor m
m ade
Ġl atter
Ġsever ity
Ġcarb ohydr
heim er
D S
Ġfish ing
ĠRev olution
Ġvari ations
ĠD an
ĠRep ort
um ing
Ġnit rogen
Ġarr ay
Ġdur ation
ĠStud y
Ġsh ed
Ġsp ots
Ġb order
ph one
Ġperson ality
l og
ĠP ain
Ġhard er
Ġwhe el
Ġpresent ation
Ġcomp ound
Ġcontrib utions
Ġw ine
Ġart ist
Ġc oc
Ġ3 00
Ġf estiv
ist ers
az on
Ġgrow s
Ġh orses
Ġperform ing
Ġcollec tive
w een
Ġwas n
Ġprom inent
Ġintellec tual
Ġconsum ed
ĠU k
Ġaltern atives
Ġappro ved
ĠAss ess
ĠWor ks
Ġgu ard
ĠLe ad
lec tion
bers ecurity
Ġin duc
tain ment
Ġw ider
Ġdecre ased
aff e
ĠFam ily
Ġg ro
ir t
other apy
Ġc u
Ġloss es
ath ers
ĠO x
ient ist
ĠP ython
Ġinves tors
o ys
Ġa ward
Ġcelebr ate
Ġdeliver ed
ĠIn iti
Ġch ief
Ġdist inc
Ġinter face
Ġencour aged
ĠAuth or
Ġbroad er
Ġvoc abulary
Ġad oles
Ġinvest ments
ĠI ll
9 9
Ġtex ts
Ġbi om
Ġaccoun ting
Ġimprove ments
Ġincl usive
Ġh us
Ġf ur
Ġdr iven
av irus
Ġbr anch
Ġidenti fication
Ġb low
Ġre cep
ĠW ord
Ġul tr
Ġs ought
r ac
br id
Ġacc idents
ĠSp e
ĠM et
ar ium
Ġallerg ies
ĠP ubl
Ġre venue
Ġn one
Ġang le
Ġim aging
Ġroad s
Ġmo ves
ĠB est
Ġbl ind
ĠF ish
Ġrec ording
al ities
Ġkeep s
ĠM ental
Ġm aps
Ġtransform ation
ĠMe thod
ĠD iv
E O
ĠSov iet
un ning
em ia
Ġabsor b
ĠOr ig
Ġcon vey
Ġemerg ed
Ġch lor
ĠM art
ĠTh erap
Ġemo tion
Ġequival ent
ecti vely
tic ally
ag raph
Ġobserv ations
Ġdis tr
ĠP ak
Wh en
Ġp estic
Ġdes cription
d o
to x
Ġaddress ed
Ġvictim s
Ġag ents
ĠCh allen
ĠBra zil
Ġr it
Ġphys ically
Ġtex ture
Ġwis dom
ens ions
I M
Ġpro of
con n
Ġn uts
ro vers
Ġhistor ic
ĠF uture
Ġec o
ĠB at
Ġbig ger
| |
Ġar ise
Ġexh aus
Ġvibr ant
a uc
Ġsh ot
Ġp ose
Ġp apers
v ille
Ġphys ics
Ġd ose
Ġor ient
ot es
Ġsuc ceed
re land
Ġwe aring
Ġre nd
Ġas thma
Ġbehavior al
ĠR ome
ĠIt aly
Ġte le
Ġad min
Y ou
Ġdiscuss ions
Ġenc omp
Ġr ing
ot ed
Ġpass ing
ĠG ene
en ess
ĠE r
ĠProt ection
ĠBo ard
Ġstate ments
ac le
ĠM en
ĠP op
Ġtu be
Ġhun ting
Ġsil ver
re ed
Ġdepend ent
ut ch
Ġat ten
ĠO F
7 5
Ġal ter
ĠUS A
Ġdraw n
Ġequ ally
ak ed
ap se
Ġf ell
ar ia
c omp
Ġadop tion
Ġp iv
Ġillness es
Ġec ological
let es
ĠAl z
ĠM ind
Ġfound ed
Ġsubsequ ent
Ġsc ope
Ġfin ish
e y
Ġequ ipped
ĠPre vention
ĠChar les
Ġam azing
Ġag ing
Ġthem e
ĠNet work
gr ade
Ġman ual
Ġscenar ios
ĠEngine ering
Ġch art
Ġmar ks
Ġ tension
Ġmotiv ation
ĠS elf
Ġiss ued
ĠI reland
Ġst reet
Ġantib iotics
Ġdes truction
erape utic
Ġiniti ally
w ing
in i
Ġtax es
Ġupd ated
Ġthere by
Ġs aving
Ġsec onds
Ġl ens
ĠWind ows
Ġcarry ing
Ġ200 7
Ġd ates
Ġcoast al
ĠSh ould
ĠNor thern
Ġstat istics
Ġesc ape
op er
ĠTr aining
c ies
Ġdep ic
Ġdis aster
i en
ĠUk rain
Ġsum mary
Ġbre aks
Ã Ń
Ġconsider ations
Ġbre aking
br is
Ġ tac
Ġgre w
Ġdis ability
ĠL ED
Ġ tons
ĠRead ing
Ġr anging
Ġfe els
ĠAs ian
Ġhe m
e fficient
wor king
n et
ĠSimilar ly
Ġinsp ired
ĠL ar
Ġrac ial
ec tors
ĠInd ivid
Ġutil ized
Ġbacter ial
ĠI C
Ġtra its
Ġse am
ĠF ire
Ġloc k
on ym
et ary
ir ty
Ġmod erate
Ġne ur
it tle
Ġcomp osed
Ġconsum ing
ĠM ad
Ġbe ings
Ġin ven
Ġcur rency
Ġrel ation
Ġfor g
" ,
f ers
Ġmitig ate
Ġsit ting
u a
Ġk m
Ġph osph
em a
M L
Ġassoci ation
is tical
Ġencour aging
op les
Ġunivers al
b ox
and on
Ġrespons ibilities
Ġlun gs
ĠHen ry
ch ed
c alled
Ġsen ior
ĠT V
Ġw ound
Ġafford able
Ġthe ories
de f
Ġhaz ards
ul p
ĠApp lic
Ġte mporary
Ġscre ening
Ġ197 0
Ġg ases
E P
m ia
et ing
Ġam pl
Ġk itch
Ġm ur
ĠRo bert
Ġprior ity
Ġter r
Ġpup ils
aren ts
Ġhigh lights
iz ers
Ġmista kes
ĠVirgin ia
ie val
ĠM ars
Ġcirc ulation
es ium
Ġemphas is
Ġch am
Ġdefic iency
ĠLou is
ĠQues tions
Ġalong side
ĠCons titution
it ter
Ġal lev
Ġch rom
ĠAlz heimer
Ġg ent
Ġutil ize
ĠSm ith
Ġind igenous
Ġur ine
Ġwith draw
Ġsec re
tr ans
Ġbe ans
T S
Ġsim ultane
ĠPak istan
ĠSp ain
ĠOf ten
Ġdis advanta
ĠLe g
d isc
Ġsw elling
Ġnew sp
Ġabs ence
ĠO bs
Ġs oph
as ant
Ġadv erse
Ġestim ate
Ġneutr al
Ġmaintain ed
Ġan ticip
ĠC amp
Ġbut ton
ĠO per
ĠSou thern
Ġdiffer enti
c ul
Ġd il
elf are
Ġob st
Ġo v
Ġinflu ences
ĠFr ank
ĠL ibrary
Ġn ur
Ġmuse um
ĠP rom
ĠT re
Ġenh ances
ĠS leep
Ġaddress es
Ġimag ine
Ġcent re
Ġit em
Ġdestroy ed
ĠEmp ire
less ly
Ġconf ig
Ġcons tr
Ġo uter
he a
eff ective
ĠR ight
Ġs ke
Ġres tore
Ġbarri er
Ġsymbol s
Ġint ers
Ġm es
ĠIdenti f
Ġintegr al
Ġowners hip
Ġs tain
3 3
Ġdyn amics
Ġd airy
h ow
ĠL ess
Ġform ing
Ġmob ility
Ġhuman ity
f ol
Ġthe ore
Ġbu ying
Ġcontrib uted
Ġestim ates
Ġess entially
Ġattr act
ĠS ystems
Ġ198 0
Ġpu zz
p roduc
Ġsm ell
ĠAn alysis
Ġdi am
im m
ĠRes ources
oun ce
ĠCho ose
Ġiniti ative
Ġdef end
Ġhon or
Ġc ab
ĠIn tegr
Ġthous and
Ġsh ips
Ġ à¤
so ft
Ġencoun ter
N C
ĠIn tell
it a
Ġarch ae
Ġsur gical
Ġc as
Ġchick en
Ġro cks
ri or
ins on
Ġj us
Ġo ils
Ġunderg o
unic ip
Ġdis h
Ġart istic
Ġm ice
am il
Ġcol umn
Ġfall ing
l ings
Ġenthus i
ĠLe vel
ĠAm azon
Ġto ys
aren cy
ĠFollow ing
Ġa ids
Ġbi ology
Ġprev ents
Ġdec ay
Ġsp ect
I s
Ġreal m
i h
Ġdr inks
Ġquanti ty
Ġreve al
ic ating
ĠCol umb
ug s
Ġcontain ed
ĠVal ley
ur a
Ġsatell ite
ĠEas tern
Ġconstruc ted
Ġ7 5
Ġcontain ers
ĠIt alian
Ġh al
w rit
Ġres id
Ġapprec iate
Ġexhib it
Ġshap ing
Ġjoin ed
Ġcons erv
Ġinvest ing
ĠBudd h
Ġv ote
] .
Ġunus ual
ĠVic tor
Ġflow s
Ġst ones
Ġreplace ment
ir ms
ĠV er
ri er
Ġtem ple
Ġeng ines
Ġmix ture
i ang
Ġdoll ars
ap or
ĠAcad emy
Ġpsych ology
ĠKing dom
Ġrad ical
Ġcon j
Ġ202 4
Ġpain ful
Ġpro hib
Ġo l
Ġattemp ts
ĠB ased
Ġaccomp an
Ġir rig
Ġcomp ris
Ġsu it
ĠCre ate
Ġanaly zing
Ġshap ed
Ġ Î
at ial
ĠM ah
Ġconflic ts
Ġequ ality
Ġplan ned
Ġvar ies
Ġphoto s
Ġdi agr
Ġto ugh
Ġm osquito
Ġinterpret ation
Ġsc al
Ġprac tition
ĠL in
ĠT ips
ĠY oun
ym es
Ġconvers ations
Ġsuscep tible
Ġcont rovers
Ġm as
Ġmathemat ical
c end
on n
ĠCh at
Ġann ounced
ian ces
ĠSt reet
Ġcontroll ing
Ġgard ens
Ġc ure
Ġcelebr ated
y al
ĠPrac tice
c led
Ġprepar ing
Ġille gal
Ġal umin
ĠSm all
Ġqual ities
t ong
h olds
Ġprefer red
Ġ196 0
Ġde bris
ass ium
Ġalgorith m
Ġhapp iness
it arian
k ers
Ġtr act
ĠCom ple
Ġra ising
Ġc ough
Ġcover ing
Ġmetabol ism
Ġinst ant
Ġarr ived
Ġcoop eration
te m
Ġl osing
U S
Ġfin ished
ĠE c
Ġear s
Ġpass age
Ġcloth es
eed ing
Ġher b
Ġrestric tions
ur ric
Ġcapture d
Ġprogram me
Ġass ump
Ġdevelop ments
Ġent ering
ĠPl ay
ĠI oT
Ġpro to
Ġinvestig ation
Ġconven ient
Ġpay ing
I A
Ġear n
p art
Ġprescrib ed
et te
Ġp ounds
ĠM aterial
Ġ15 0
Ġ tone
Ġman agers
ĠSu per
Ġoptim ize
Ġr an
Ġf ed
Ġscenar io
Ġfl ash
Ġcot ton
Ġb onds
Ġexplan ation
Ġstrugg ling
Ġtrans mit
is ations
Ġs an
Ġus ual
Ġconte x
Ġsupp osed
Ġsoph istic
L E
Ġphys i
Ġl ing
ĠBe hav
the ast
Ġtrad ing
Ġper m
oc olate
ĠJos eph
Ġ tech
Ġspecial ist
ĠM ountain
Ġsens ory
R A
Ġth erapeutic
Ġacknow led
Ġlif es
Ġneighbor hood
Ġag gressive
Ġsafe guard
v a
ĠTh ree
typ e
9 5
it an
ĠCent re
Ġble eding
b ial
Ġpr one
ĠPe ter
ta ur
Ġcom ments
Ġtrop ical
Ġman ager
Ġfac es
Ġd rought
Ġhor izon
ĠH and
ĠHear t
ĠS er
ĠS up
ĠEx erc
Ġ200 5
Ġbi as
gr y
Ġweap ons
ĠCommit tee
ĠT ool
Ġstrong ly
us ter
Ġorig ins
ĠDirec tor
Ġdifferent ly
tr ate
qu ir
Ġconcer ning
isten cy
ro c
ĠAg ency
ĠWrit ing
Ġmathemat ics
Ġthem es
Ġox id
Ġfoot print
Ġrese m
Ġsh ock
Ġag reed
ĠM el
Ġoper ational
Ġst ations
Ġfar ms
Ġac ute
Ġstay ing
Ġfor th
ĠO h
Ġmind s
Ġgr ain
Ġcontrib ution
ĠBl ood
Ġbr ains
Ġto mat
Ġth read
Ġv enti
Ġin n
Ġrequ iring
Ġlik elihood
ĠAr ticle
Ġarg ue
Ġlegis l
am ple
Ġad m
ĠSustain able
Ġoccur ring
Ġassess ments
Ġcere mon
us ting
Ġfem ales
Ġgr amm
Ġdiv ision
Ġ tens
er ts
Ġf o
Ġrare ly
av ed
Ġdem entia
Ġhol iday
oc y
Ġun p
t an
ĠHe ad
ĠJoh ns
Ġdec ent
Ġfr ustr
ĠR oyal
Ġappe al
ab s
Ġparalle l
Ġprop ag
u ation
or ph
S C
Ġmay be
a que
ĠOrgan ization
ĠM ill
ment ation
ĠScot t
Ġ200 6
Ġl asting
ĠG al
Ġgr ant
ear ing
oc c
Ġ3 1
uc ks
Ġsupp or
p ers
Ġcons titu
ĠD u
Ġen rich
ĠC ard
Ġmer ely
un t
Ġ tong
Ġfunction ality
Ġestabl ishing
iet al
ediat ric
Ġin fer
Ġsoc ieties
Ġwrit ers
h el
th rough
Ġdet ected
Ġmigr ation
Ġend ed
Ġabsor ption
Ġsuper ior
Ġno tic
P C
tab ly
me ga
Ġrough ly
Ġval ve
ĠMo on
Ġglob e
s olving
ast ro
ĠAD HD
i tory
Ġex ception
A r
ur ated
Ġ3 6
ĠElec tr
Ġfl o
Ġrequire ment
Ġd aughter
Ġgam bling
Ġprom ise
ĠE p
k i
auth or
Ġcolon ial
b urg
Ġprioritiz e
Ġtail ored
ĠS ource
Ġmolec ular
op l
Ġpred ators
Ġselec ting
Ġcor rel
Ġass et
k et
r u
b ur
H A
ĠF our
Ġm ales
ber ry
ĠA R
Ġconsist ently
Ġ18 8
Ġshor ter
in y
Ġprin ted
Ġde grad
Ġch at
Ġleg acy
Ġwin ning
Ġne ural
Ġp ace
pl ing
Ġpro long
ĠFre qu
ĠH osp
an i
Ġg ums
Ġsleep ing
Ġemp athy
Ġwa iting
Ġre ti
Ġdo ors
Ġmort ality
p uts
Ġre tr
Ġguaran tee
Ġre form
he et
Ġcap tiv
ĠT im
Ġcomm ission
Ġver tical
Ġl ap
Ġtrans lation
Ġab andon
re ct
ĠMon itor
Ġf ires
Ġcan nab
Ġmar g
Ġeld er
Ġsyn thetic
aus es
Ġp est
Ġc ircle
ĠH ence
Ġconfirm ed
Ġres on
Ġy oga
ĠMul ti
Ġla id
ĠK ar
ĠD id
Ġdi arr
Ġpar agraph
Ġp el
Ġco ating
Ġcan al
Ġjud ge
tif y
Ġindic ated
Ġrel iability
Ġta bles
ĠCont act
Ġvege table
O U
an o
Ġchar ging
flamm atory
Ġprof ile
3 6
Ġover view
Ġqu iet
T P
ĠDem ocr
Ã ¶
Ġphysic ian
Ġsp inal
Ġk it
ĠGe org
ĠAn n
rep rene
Ġnew ly
Ġfair ly
Ġcon vert
Ġl ymph
ĠBet ween
Ġpropor tion
Ġrec re
Ġmanufactur er
ĠTh anks
Ġcomple ment
Ġp ill
ep ing
Ġins ulation
ĠF er
Ġlab our
iv a
ĠMus ic
Ġrestor ation
Ġvers ions
iti vely
row th
Ġth yroid
Ġa tom
Ġchann el
ĠSc iences
Ġsh ell
arm ing
Ġeas tern
le te
Ġtr ick
ĠV iet
Ġag ent
N S
ĠDep ending
ĠIr ish
Ġre verse
Ġfertil izer
Ġswim ming
ber ries
Ġclass ified
ial s
tit utes
Ġc aught
Ġth roat
Ġh ence
Ġdesign ing
ren cies
Ġaccel er
um ed
ĠM ont
ĠHol y
ĠK ids
room s
B S
Ġvol can
Ã ³
ĠCons ervation
aw are
Ġge ome
Ġconsider able
Ġupd ates
Ġemb ed
cl usive
Ġopin ions
Ġcomp at
Ġsa fer
er as
Ġtro ops
Ġdesign ers
Ġmin ute
Ġpl us
Ġal ike
Ġent reprene
Ġath letes
Ġimp air
ain e
ĠC ode
r ight
Ġbl oom
Ġunivers ities
Ġcharacter istic
Ġsh ad
c a
Ġlo an
ĠAdministr ation
Ġembr ace
Ġmanif est
Ġdefin itely
Ġpiv otal
Ġg aps
Ġchem istry
Ġprotoc ols
r am
Ġre t
Ġb ite
Ġdi ameter
Ġcomp os
ĠR isk
Ġdecl ared
Ġres istant
dr iven
Ġsign ed
Ġrep eti
ĠB rown
Ġproduc tive
Ġphr ase
Ġen orm
u be
Ġkitch en
Ġm erc
Ġfind s
ut en
Ġprom ising
Ġm ask
ĠF il
Ġobserv ation
Ġfil ters
ec tivity
Ġextr act
Ġass ume
H e
Ġent ered
ograph ical
3 8
Ġvary ing
m m
r ad
ĠFace book
Ġr u
p et
ecti ous
Ġutil izing
Ġimm ers
Ġdisc our
ĠJ er
Ġc m
health y
Ġcalc ulate
Ġreflec ts
Ġsol ving
Ġhouse holds
Ġenvironment ally
Ġhol istic
Ġadap ted
ris on
ĠAg ain
crip tions
ĠSw ed
ĠSt ar
n ight
roll ed
ĠEn cour
4 8
Ġsc ientist
Ġnuc le
th al
Ġc a
st one
ut ely
Ġinter ior
lev ision
Ġveter in
Ġveget ation
H S
Ġent r
m et
ang er
Ġdis hes
Ġar thritis
I G
ĠH T
ĠQ uality
Ġpublic ation
Ġthorough ly
Ġres idential
Ġti p
ĠP ur
Ġreal istic
ĠP enn
Ġtw enty
Ġresearch er
uc cess
app ing
Ġinvestig ate
ĠCh ic
Ġl ake
Ġdevelop s
im p
ĠEn h
ĠAl tern
Ġhead s
ol ding
Ġw ww
exp ected
Ġrep utation
Ġbro ther
Ġc ord
Ġpe er
Ġconnect ing
Ġre tail
ĠNe ed
Ġautom ation
ĠD iet
Ġdie ts
Ġelec tion
Ġclass ic
Ġtherap ies
Ġcre w
d d
Ġess ence
Ġcat al
ĠH or
Ġstu ff
Ġunc over
ecess ary
Ġl uck
i kes
b ar
Ġsou l
Ã ¼
Ġsod ium
ĠTherap y
b ut
Ġgent le
Ġwatch ing
Ġkil om
Ġdemocr acy
Ġex tin
Ġadop t
Ġ6 5
Ġsl avery
M A
at oes
ĠMicro soft
ĠG ar
uc tu
Ġl ie
ĠIsl am
or ms
Ġmind fulness
Ġwor st
Ġsome what
R e
F T
ov es
Ġcan cers
Ġinst ances
Ġ tic
Ġcirc ular
Ġvar ied
Ġag ed
Ġinfl ation
ard ed
Ġperce ived
Ġemp ty
Ġdev ast
Ġind irect
Ġh arsh
ĠR oad
Ġcoord ination
Ġdiges tion
Ġevol ving
Ġcy bersecurity
ĠSp ir
Ġpay ments
Ġcorpor ate
Ġch ew
ĠCh apter
ĠD ou
Ġexpand ed
in ery
ĠPl ace
ree ts
Ġassign ed
Ġpl ain
Ġinc ident
Ġasse m
ĠM S
Ġdrain age
te em
pl ay
Ġor ange
ĠPro ble
Ġsp an
Ġest ate
as ty
Ġc odes
o tional
Ġk nee
Ġp ene
arch y
Ġtour ism
Ġs ad
in f
r ane
Ġdistinc tive
Ġro se
ĠS ar
Ġold est
Ġtr av
ĠC ross
Ġexam ined
Ġisol ation
al d
ish es
u an
ang ered
Ġste am
ig are
ĠMich ael
ap t
ĠPer haps
wor th
ĠM aster
Ġutil ity
Ġne ither
ta king
Ġvir al
P h
ic king
Ġmod ified
ĠR ole
Ġdiagn ostic
s m
u h
Ġy e
Ġattr active
F or
ĠSc ientists
ĠB ill
Ġpass word
ĠRe al
Ġpractic ing
ĠSt ress
Ġh ack
A meric
az ine
Ġep ide
Ġres taur
Ġscr atch
Ġhosp itals
Ġhus band
Ġ tick
ob ile
Ġhar ness
Ġconscious ness
Ġachieve ment
Ġallerg ic
Ġin tention
Ġmedic ines
Ġclin ic
ject ed
Ġpol ar
Ġmar ried
Ġearth qu
Ġun expected
ĠP en
Ġd uty
Ġsp ine
ĠCarol ina
ĠEx cel
Ġfour th
Ġgam ing
Ġwater ing
um an
Ġmo ist
I L
ĠViet nam
ĠD en
Ġreturn s
Ġn u
c ell
Ġbur den
Ġinstitu tion
n ia
Ġchann els
Ġno table
Ġtre m
Ġse at
ĠInd ustr
Ġsuff ered
Ġan ger
Ġl ip
ĠAl ways
Ġsymp tom
power ed
Ġoffic ers
Ġcollabor ative
Ġcontinu ously
Ġsh oes
Ġv ig
b ooks
Ġpoll ut
Ġinvolve ment
ear s
Ġsuper v
3 2
ex ample
h ar
affe ine
Ġin h
ĠProf ession
Ġopp osed
Ġm ature
Ġaccess ibility
oot ing
Ġw elfare
Ġrob ots
C D
Ġcomp assion
Ġle c
Ġwh eat
ploy ment
ĠPol icy
bor ne
ĠT imes
Ġsatisf action
Ġgal ax
Ġpl ot
Ġha ven
us al
Ġpartners hip
ĠM aking
Ġre hab
Ġsent ences
Ġcont amination
Ġappoint ment
Ġsimultane ously
Ġinhab it
ĠP ersonal
Ġlog ic
Ġpe ers
Ġl ibr
Ġd ies
ĠEconom ic
ĠIsl amic
Ġchar ged
Ġv om
f unction
ĠC ov
Ġincred ibly
ĠKore a
Ġlic ens
Ġadv ances
ĠSup re
Ġearl iest
Ġlife time
Ġm m
Ġtransp arency
Ġsh ade
Ġun iform
Ġc able
A l
ĠIntell igence
Ġ4 00
il itation
Ġf lying
Ġis lands
Ġreason able
Ġto ile
Ġvar iation
Ġspe eds
Ġten ds
Ġattitud e
Ġb oy
Ġg iant
tre ated
ĠT om
un a
Ġro bo
es ter
il i
ĠD C
ig an
Ġsc ulp
Ġbo ys
Ġtr ace
Ġisol ated
Ġsuppor tive
Ġpos ts
Ġsh ares
Ġreproduc tive
Ġincl usion
ro g
ur is
Ġrecy cled
ĠZ eal
Ġpe oples
ec raft
Ġapp eti
m al
ĠAtl antic
Ġrelax ation
ĠYoun g
ne a
B A
b a
Ġreach es
Ġref rig
ĠIn nov
tific ation
Ġview ed
or tion
Ġcall ing
Ġcalc ulated
Ġintell igent
Ġassign ment
ĠS n
Ġresp ectively
e try
Ġdiscipl ine
oun ted
Ġtum or
Ġcon ce
onom ous
ĠB ul
Ġpros per
Ġev il
Ġpip e
Ġbl ess
it ate
Ġfib ers
Ġp od
Ġcr aft
ĠTh ink
ook ed
m edi
Ġexp ort
ens tr
ill a
Ġpar ad
og ens
Ġstab il
truc tive
Ġtrans mitted
Ġglob ally
is ely
c ience
Ġcy cles
th at
ĠWith in
ĠS ta
Ġa f
Ġgr anted
Ġsong s
Ġperson nel
Ġreflec tion
Ġed itor
ĠI de
Ġbag s
il st
Ġcre am
Ġfl uctu
Ġirrig ation
Ġj ew
Ġfav our
ros ion
ĠSm art
Ġc ater
Ġdest ination
te br
u ro
y er
rolog ical
Ġexpl icit
Ġ ut
own ers
Ġdel icate
ĠS ection
ĠN iger
Ġinv asive
Ġaccompan ied
Ġh all
Ġc oding
Ġcons ent
ios ity
ĠF orest
in flammatory
Ġcarbohydr ates
Ġstrength s
Ġbe e
ac ies
Ġspread ing
Ġinsp ire
4 4
Ġim bal
Ġd ive
ĠST EM
qu ate
Ġor bit
P s
ĠPart y
Ġju ice
Ġwors hip
ir th
Ġexperim ental
k ins
Ġsoc ietal
Ġasse mbly
ĠWor king
Ġsophistic ated
Ġwonder ful
Ġsk illed
ĠHy d
ĠMin ister
Ġs anc
Ġantioxid ants
P D
ĠZeal and
b acco
Ġimag ination
Ġprotoc ol
ĠT aking
ĠH a
ĠG iven
Ġversat ile
Ġanaly tics
Ġtrig gers
Ġprov ision
Ġcommun ications
Ġle ak
ĠSupre me
Ġvis its
ension al
is tor
3 7
Ġtr ail
Ġcomb ine
Ġac ting
ĠCommun ication
Ġen forcement
Ġwell ness
Ġdis posal
Ġwel ding
ĠS till
ou red
Ġdim ensions
g ov
ĠE V
Ġinsp iration
ĠGener ally
Ġdep art
Ġdire ctions
Ġnurs ing
ol y
Ġlifes pan
Ġr ating
Ġpip es
sh aped
Ġacqu ired
Ġal ive
Ġsc ores
res ent
ash es
Ġplan e
Ġen emy
ĠI D
Ġpo em
Ġcorresp onding
Ġcl ock
ac ent
Ġb ills
ĠL iter
O L
Ġwell being
Ġ200 4
inc luding
Ġpass en
t une
Ġdis charge
Ġadoles c
Ġincred ible
ov ing
Ġestablish ment
av en
Ġtong ue
Ġpro ceed
Ġfr aud
ĠW atch
ĠR am
ĠL ocal
ĠFin ancial
Ġline ar
Ġal ph
Ġstr ike
ĠC us
rup t
Ġch ocolate
ĠD ental
Ġadapt ation
Ġenz ymes
Ġto bacco
Ġmembr ane
Ġm unicip
cl ass
Ġdiagn ose
Ġargu ments
ro t
Ġequ ity
Ġpu pp
ĠN az
ph ones
ĠImport ance
Ġevol ve
ĠI V
Ġclass ical
ĠDis trict
ĠR ock
r d
Ġpot assium
Ġhy brid
I R
ĠHealth y
Ġf ellow
Ġo ste
ĠP ut
to wn
Ġres c
Ġcor ner
ec e
ĠEns ure
Ġte mp
ig ible
Ġprincip al
O n
ĠBel ow
Ġground s
E x
Ġtown s
Ġspl it
oo ts
P N
ĠMart in
ĠPr iv
Ġvis iting
Ġliter ary
Ġ >
Ġplant ed
ĠMach ine
ĠChic ago
ik ely
spec ific
Ġaccompl ish
Ġconvers ion
Ġking dom
d f
ac tors
Ġp itch
Ġmetab olic
Ġconduc ting
ag on
Ġquanti ties
au tions
Ġprov ed
ĠP u
Ġseem ed
Ġrepresent ing
Ġpurs ue
ĠP ay
Ġse al
ĠII I
ĠPr im
Ġparticip ating
b acks
Ġexpand ing
Ġwhen ever
reg ular
ĠScot land
Ġc ope
ĠElec tric
Ġenjoy ed
g g
af e
ĠA th
ĠIr an
ĠH all
Ġdom inant
ĠInd eed
Ġextens ion
ĠAr tificial
Ġv el
Ġleg i
ul ates
Ġ18 5
Ġindic ators
Ġautom ated
Ġcl ay
Ġexec utive
Ġ tang
ĠHind u
Ġhon est
Ġf et
b ow
Ġmountain s
Ġ3 2
Ġg ly
Ġpers istent
Ġev ident
c in
Ġenorm ous
Ġorgan isations
Ġconf ident
Ġimp ressive
Ġal ert
Ġsepar ated
Ġstructure d
ĠBl ock
ĠB ang
Ġbo at
Ġte mpor
Ġmem ories
Ġrad i
Ġconf usion
on ents
Ġf ing
ce ans
Ġpreval ent
f ast
Ġperfect ly
Ġroom s
Ġco at
Ġbelie ves
Q L
p ass
Ġ19 50
Ġg ate
rane an
Ġclaim ed
Ġdirec ted
Ġ200 3
ĠApp ro
j ection
Ġrec ons
Ġpres ervation
Ġer osion
Ġord inary
E E
Ġqual ified
ĠS S
ne um
ĠGr and
3 4
Ġ18 9
Ġord ers
Ġhe al
ĠCreat ing
Ġde hy
Ġexten ds
Ġcontr acts
form ance
Ġcoron avirus
Ġd ivers
Ġallev iate
Ġbot tle
Ġmagn esium
Ġp it
ĠS und
tic les
Ġnotic ed
h ire
Ġst reets
Ġmod ule
Ġte levision
Ġregard ed
Ġgovern ance
Ġconclu ded
tim ately
Ġcell ular
Ġtox ins
Ġcap s
Ġqu arter
Ġaes thetic
ĠC ond
per or
ĠStand ard
Ġcon qu
Ġcare g
Ġsp ark
Ġre act
L S
Ġwash ing
u um
it r
Ġg if
pl ate
iven ess
Ġf an
Ġste ms
ĠÂ ·
un ting
Ġalumin um
Ġreg istered
Ġmeet ings
Ġhazard ous
it ative
Ġam ino
ĠRich ard
Ġgener ating
Ġthreat ened
ĠAN D
Ġenter tainment
Ġspo ken
ĠCer tain
ĠT en
Ġsch eme
Ġgr avity
cop y
ĠS ens
Ġo w
ĠC all
ĠA S
ment ed
Ġter ror
ĠM ax
Ġfertil ity
Ġn odes
Ġen cl
Ġmom ents
Ġf ant
Ġsp ac
til ity
ĠA ut
Ġem it
Ġvacc ination
f ront
Ġadjust ments
Ġz ones
j ust
ĠP T
Ġster e
Ġpestic ides
Ġle an
ĠV iew
Ġattitud es
u table
ĠF ore
Ø §
Ġupd ate
Ġmo thers
Ġimmun ity
Ġsurround ings
Ġdi pl
Ġsole ly
Ġme ets
Ġappl ies
Ġdistur b
Ġop tical
ffic iency
ĠA ction
Ġs elling
ĠQue en
ĠRec ogn
Ġcontinu ing
ec onomic
Ġlives tock
Ġro d
ĠM ove
crib e
Ġresol ve
ĠH ard
Ġgard ening
om al
ian ts
ĠAu tom
Ġs ale
Ġread ily
Ġg aining
Ġlog ical
Ġc ow
Ġshould er
ĠD ar
Ġpro active
Ġassoci ate
ĠCo ast
Ġwork er
Ġr ational
O M
7 8
Ġrece ives
Ġp p
Ġspec ified
am i
Ġreg ener
Ġpurch asing
ĠS and
ĠB esides
Ġsoc io
Ġr anges
pl ed
Ġch ains
Ġtransp arent
Ġabund ant
Ġpreserv ing
Ġsum mar
Ġlo ose
Ġex em
ush ing
Ġg ift
Ġjud gment
S h
ĠMod el
Ġbu gs
Ġann ually
ĠF ort
Ġeven ing
ĠInter est
id ges
er ted
Ġj aw
Ġfurn iture
C l
ri an
Ġcour ts
Ġpor tr
Ġpl acing
ĠComp uter
Ġinter conn
Ġmur der
ogen ic
Ġclar ity
Ġcam eras
ch ange
ĠBe yond
ĠIm ple
Ġultim ate
Ġm g
Ġde ter
en ic
Ġtrans action
Ġelectr onics
7 6
r h
Ġdesign ated
Ġp ione
ĠP ass
Ġpack age
Ġarchitect ural
Ġsepar ation
Ġcollec ting
C A
Ġreve als
ĠSpir it
Ġgr ades
ĠA M
Ġdel ay
ec tic
Ġpro gression
Ġappeti te
Ġcat tle
Ġrub ber
Ġl es
at al
Ġc av
e an
Ġle ver
Ġcr ack
Ġtoler ance
Ġlo ans
Ġun like
ĠM uch
ĠL o
Ġpil ot
Ġdiarr hea
ater al
Ġorgan isation
ĠHosp ital
ĠTr ust
Ġextr action
Ġdis m
Ġdang ers
Ġpen al
oc ated
Ġstim ulate
rou d
Ġrec ur
ĠF ar
Ġoutd oors
Ġcryp to
te x
v ard
Ġto t
ĠApp le
Ġper mission
Ġinnov ations
Ġfac ial
ĠD utch
Ġthe sis
Ġcur ve
ĠChris tians
Ġche ese
E F
a o
Ġun ion
Ġtell ing
ĠD am
m ers
Ġan t
Ġph ones
ith ium
uc t
Ġrein for
E n
Ġl oud
ĠSh ort
ĠT O
ĠDe ep
Ġsto pped
Ġshel ter
Ġb ike
Ġgir l
Ġ200 1
Ġsav ed
tric ts
Ġgu ess
ps y
pos ition
Ġins ect
Ġm ine
Ġs ending
ĠR h
Ġconcentr ations
Ġveterin arian
Ġd ried
or rect
Ġr ays
b ec
c ut
Ġserious ly
Ġconver ted
Ġs ulf
Ġso ils
Ġro yal
el or
Ġde er
Ġlandsc apes
r ics
Ġdial ogue
ĠH u
disc ipl
Ġhead aches
Ġsettle ment
ĠG h
Ġstret ch
Ġreflec ted
rup tion
Ġunderg round
Ġp ink
Ġcr yst
Ġsac red
on a
Ġstr iking
on in
Ġoverwhel ming
ĠAr ctic
ĠA PI
Ġwood en
d ate
Ġw ings
Ġv en
Ġelec t
f ac
ri x
o tive
Ġke ys
G PT
Ġmodel ing
Ġdispl ays
t uring
Ġc uts
br idge
Ġmaxim ize
Ġcy l
ĠRe qu
Ġd ense
Ġh am
Ġmov ie
ĠIn vest
Ġexplore d
ti les
ĠMed ia
Ġanaly zed
i ors
ĠH ill
Ġbl end
ĠJ ustice
p iec
Ġbas ics
ĠInd epend
ĠJ ul
Ġelev ated
Ġstat istical
Ġwould n
om s
Ġemploy ers
k ind
Ġpriv ile
Ġdr ives
ĠIm ag
Ġengine er
ĠIm age
Ġflu ids
ous es
ĠJohns on
ĠO l
Ġk illing
ĠBehav ior
ĠP os
Ġpres cription
ic on
Ġn om
b age
Ġobst acles
th s
ĠInd ones
Ġprec isely
ĠW all
Ġbu ff
Ġdiv ine
ĠAgric ulture
Ġaccording ly
if ier
Ġsp atial
ĠR ather
or us
Ġd imin
Ġrob ot
ĠS ir
er ry
ĠM D
Ġunn ecessary
Ġexpl ores
3 9
Ġdram atic
Ġvess el
ĠC ultural
ir able
ĠO thers
Ġmind set
Ġlow est
ag en
Ġte ens
Ġs our
% ,
ĠP o
Ġventi lation
Ġpainting s
Ġdevelopment al
Ġdisplay ed
Ġd ress
Ġp ointed
ab eth
Ġwor n
Ġall ergy
Ġcons istency
ask a
Ġimpact ed
Ġcandid ates
Ġappl iances
ĠE ating
ĠP arents
l en
Ġnor ms
Ġpubl ish
Ġv an
Ġmus h
ĠA ud
ĠPr inc
Ġtransform ed
Ġacqu ire
s tr
ĠAn sw
ic ing
Ġhy dr
Ġw ake
ĠMin istry
Ġwrit es
bes tos
ĠW ay
Ġvom iting
Ġproduc ers
Ġcon ference
Ġserv ers
Â ®
titud e
Ġpr a
ĠC T
Ġplas tics
ad ed
pec tive
Ġsched ul
ĠJ ac
ĠP ort
Ġcoun ty
clus ions
Ġh ip
Ġbas ically
in ts
ob ic
Ġinc enti
Ġfe es
Ġ20 30
Ġtherap ist
ĠA z
Ġl ists
ĠCov id
ĠL G
ĠPal est
ĠP ic
ĠExerc ise
Ġtack le
Ġevery where
Ġmach inery
cent ury
Ġpo etry
ĠEm erg
is to
Ġsur prise
Ġclass ification
T H
F i
Ġcont ents
Ġb are
ĠTrad itional
Ġrep eat
ĠSt ay
Ġprot ects
Ġpl ug
Ġchec king
Ġp uts
ĠC red
Ġrain fall
Ġvis ited
Ġinj ection
for ward
Ġrel ieve
Ġcateg or
be an
Ġinf ectious
tor al
Ġear ning
se m
Ġbus y
Ġcampaign s
ov ed
ĠEl iz
Ġwith stand
Ġintroduc ing
Ġplan ets
ĠAc tiv
end ment
ta ges
Ġh ier
te es
Ġcertific ation
Ġse gment
Ġoutbre ak
Ġ200 2
Ġcelebr ation
Ġprob ability
at i
Ġdef ault
Ġwork force
Ġoffic er
u bs
L C
Ġingred ient
Ġcontamin ated
ib eral
Ġin ev
Ġd rops
Ġsn ake
art ers
Ġrhyth m
Ġextra ord
Ġling u
ĠR om
Ġdocument ation
tr ial
! âĢĿ
l o
ades h
Ġown ed
Ġgene tics
ĠUkrain e
Ġgather ed
ou ds
pro of
Ġunl ikely
Ġinf est
ge vity
em or
inc ome
Ġse iz
Ġbene ath
ĠD ogs
Ġch ap
ĠWr ite
Ġse w
pro fit
Ġelder ly
ĠT al
ar ks
ail able
Ġd oses
Ġc affeine
Ġpre ced
a ver
ĠTh ings
Ġintegr ate
I F
Ġtheore tical
Ġreason ing
ch o
Ġdistingu ish
ow ers
Ġpollut ants
Ġcost ly
Ġapprec iation
Ġgramm ar
cep tional
d y
e ven
Ġpos ture
t eles
k l
' m
ĠFac tors
ĠHaw ai
Ġprolong ed
iter ranean
Ġdist ress
s or
Ġl oyal
Ġche ap
ian a
Ġshop ping
ĠSp ring
Ġmonth ly
Ġattrib uted
Ġg erm
Ġm enstr
Ġincorpor ated
Ġgen u
Ġso y
7 7
e ign
Ġcontex ts
Ġj uris
Ġindepend ently
aw n
Ġbr ands
U N
ac erb
tell ing
Ġpass es
k al
Ġelec ted
âĢ ĺ
Ġv ine
Ġmamm als
4 6
Ġer up
Ġch air
Ġp anc
Ġencryp tion
P E
o ven
t anks
t m
Ġacknow ledge
ĠF DA
Ġvers us
Ġ4 8
3 1
A A
Ġcomp ress
ĠChristian ity
d im
Ġcap ability
m od
Ġacc ord
Ġabund ance
ĠAn aly
ic ity
Ġrout es
d is
Ġsc ales
Ġh urt
Ġreal ized
Ġop ens
Ġm uc
Ġgr ams
oth ing
Ġrecogn izing
ill ance
ow ing
Ġ till
ĠWild life
Ġsugges tions
ĠTeach ers
end ar
Ġstr ip
g ments
Ġ teles
ĠF low
Ġnerv es
Ġneur ons
Ġsudden ly
Ġen de
Ġvir tu
ur ches
olog ically
Ġele ph
Ġresil ient
f ly
im en
Ġstr aw
Ġmind ful
ĠGeorg ia
Ġset t
ĠD ie
ĠK r
Ġvir tually
Ġabsol ute
Ġdur able
ign ed
ĠNever theless
Ġ tanks
Ġpl aque
Ġa toms
Ġexam s
Ġinf ants
Ġout line
Ġbur ied
Ġorder ed
um er
Ġd a
Ġaccept ance
ĠO S
ch emical
f e
Ġbre eds
Ġpurch ased
Ġminim izing
Ġdist ances
Ġv ag
ĠReg ion
Ġpr ayer
ĠBr ain
red ic
Ġfing ers
Ġalg ae
omm on
Ġcryptocur rency
ĠCar bon
ĠCB D
v in
Ġsu icide
ĠThrough out
Ġcar ries
ĠPol i
Ġbrows er
Ġed ges
Ġpath ways
Ġdiss ol
Ġspecial ists
Ġher bs
ĠP rop
Ġcop ing
Ġf illing
ly mp
ropri ate
Ġex acerb
Ġattrib utes
ĠÂ £
it us
Ġm im
Ġpoli tic
ph en
Ġneg atively
ĠAssess ment
Ġshe ets
ĠIs s
Ġeconom ies
Ã ¤
Ġin ver
ĠColl abor
Ġspr ay
Ġsystem atic
Ġadvert ising
Ġlab els
ĠA ch
Ġdecent ral
Ġelectr ons
et ed
Ġreview s
ĠAdv anced
Ġcolon ies
Ġthick ness
qu is
Ġpar ti
Ġre vers
br a
O W
Ġtransfer red
bre w
ĠD et
Ġmotiv ated
ĠMich igan
Ġa mp
ĠMed iterranean
Ġstream s
ĠTest ing
ag netic
ĠW ik
Ġ ion
ment al
Ġpar ks
Ġcandid ate
u ity
Ġin tu
Ġtrib es
Ã ¢
ĠM er
ul ous
ĠP DF
Ġenti ties
dom inal
Ġgrad uate
ĠSk ills
ph al
ĠMean while
Ġfund ed
Ġeduc ate
Ġsal mon
ĠEff ective
ĠPl ants
i encies
im ental
Ġdes k
Ġcor ners
Ġembed ded
ĠTem ple
ĠGard en
M I
Ġrefer ences
Ġc ath
ĠP aper
Ġpreval ence
Ġcop yright
te or
am el
o a
ĠLin ux
ause a
Ġo ceans
ĠL og
r id
ĠS aint
ar n
ro ts
O ur
ĠF ocus
U n
ĠO cc
g reen
erm at
Ġbox es
ĠA br
Ġ <
ĠS ug
Ġinflamm atory
Ġargu ed
Ġmar king
ĠS yn
Ġse mi
Ġrel ate
ĠP rior
Ġlibr aries
Ġwire less
ĠC ost
er ries
ĠC irc
form ed
Ġexp ed
Ġp umps
tain ed
Ġir regular
ĠL ittle
ĠHar vard
Ġem erge
E A
Ġex ceed
ĠCh ronic
Ġelse where
ĠV en
ĠColumb ia
Ġre ef
Ġaqu atic
Ġb orders
Ġbr on
ĠT ree
Ġworks heets
ĠExam ple
ĠJ ava
Ġamong st
ĠChat GPT
Ġdur ability
Ġen ding
ĠC orn
ĠH im
f ire
Ġdis par
Ġantib odies
Ġviol ent
Ġrestric ted
Ġdeliver ing
st ers
ree ment
Ġpot atoes
Ġdel icious
ĠF arm
ĠFor ce
un ing
Ġcur ious
ĠH ab
ost on
c ular
Ġas h
EN T
Ġlim iting
R L
Ġd ict
Ġdis tricts
ter one
Ġcor rosion
Ġ5 5
Ġflu or
p erson
Ġspeak ers
Ġtim ing
ol n
6 5
P V
in ance
C T
Ġ18 0
Ġl akes
Ġdemocr atic
ib l
Ġanal og
Ġabs tract
Ġsc iences
Ġaccep table
Ġu pl
ĠM ount
Ġpl ates
Ġz inc
greg ation
ĠColor ado
oc ity
Ġbe at
Ġsl ave
ĠR et
Ġadministr ative
Ġinj ured
Ġed ition
Ġun cle
Ġprec ious
Ġrac ism
Ġdiscuss ing
Ġshould n
Ġseason al
it ches
Ġembr y
Ġr ib
Ġto m
Ġgu ides
ĠBe gin
ot ing
Ġdisc l
Ġvis ually
Ġuncertain ty
Ġdu ties
Ġelectr on
w a
Ġcannab is
as al
Ġrem inder
ĠAl ong
ul ator
ĠO lymp
Ġbelong ing
Ĥ ¬
Ġcur iosity
ay a
Ġdiv ide
Ġflood ing
Ġbl adder
Ġrefrig er
4 7
Ġend angered
Ġassess ing
omm un
ĠInc orpor
y ard
Ġspeak er
ti p
ĠAr ts
Ġas ide
Ġbe ars
ĠAn cient
el ly
ĠEliz abeth
tom y
Ġgr at
Ġtim ely
Ġfil ms
Ġnutr itious
Ġexec ution
Ġsl aves
Ġar tw
Ġaqu arium
Ġte ar
Ġfulf ill
Ġdam aging
Ġexc av
, âĢĻ
Ġti re
es teem
Ġteach es
or al
Ġsurve ys
Ġexpress ions
Ġher o
az z
Ġper mit
ĠB ody
ot t
Ġrepresent ative
O s
O D
cop ic
ĠPat ients
Ġsubs id
ĠHer itage
4 9
ĠPar liament
ĠN ame
Ġfre ely
C S
Ġr ank
Ġf irms
Ġtum ors
Ġr he
f rom
Ġavoid ed
Ġinequ ality
ĠL ater
ĠGre ece
Ġdis asters
Ġr ide
ĠR ab
Ġsub tle
e lec
Ġinter medi
Ġopp osition
ra id
Ġabsol utely
Ġgather ing
in n
ĠMuslim s
Ġgr ace
8 8
Ġbu b
Ġg astro
it ar
Ġprim e
ĠE PA
Ġbreath e
Ġterm in
Ġprev entive
ĠEss ay
Ġn ice
Ġdep r
Ġdecre ases
Ġse es
ĠB h
Ġsub mit
oun ting
ol id
Ġtu torial
Ġpro l
ĠD om
ĠC ut
isc o
Ġd os
Ġdemonstr ates
r an
Ġpath ogens
if ice
ĠNutr ition
Ġf ought
ĠPhil ipp
ĠS tor
Ġastr onom
Ġenab led
lu de
C o
ĠC ri
Ġin vention
ab led
Ġgr asp
Ġadop ting
Ġp ond
Ġm ere
ð Ł
Ġex ceptional
end a
az e
ĠIncre ased
Ġdef ects
Ġcomb us
ome ter
ĠDi agn
est one
Ġfac tory
ĠInt roduction
ĠL i
Ġh ide
ĠSec ret
Ġrel ies
ĠTe aching
Ġmarg inal
Ġlic ense
ĠSchool s
Ġdream s
Ġp airs
Ġr h
ĠP et
crip t
Ġappro val
enti als
m o
ĠReg ard
Ġno tion
ĠC DC
ide o
Ġp roud
ĠN ep
Ġprec autions
ĠO t
is p
ec utive
ĠL ine
Ġimportant ly
im ination
ĠComp an
ĠSc ientific
Ġcontin ent
ĠDisc over
ĠM id
Ġc rown
Ġdes ert
Ġmeta ph
ch ron
bu ilding
Ġdec omp
ĠPh D
ĠT ar
Ġbe et
ĠEn ter
ver ages
ĠD yn
Ġste ady
on to
Ġreg ister
z er
j ud
m atic
Ġsh ipping
Ġevalu ating
Ġmys elf
Ġpers u
Ġhighlight ed
Ġadd ic
Ġimm ense
Ġabsor bed
Ġin ch
istr ation
Ġagree ments
Ġphotograph y
ol ine
Ġgr an
ĠC auses
ian o
ĠC D
ĠProfession al
Ġti red
ĠOh io
rou s
Ġindic ating
Ġv ocal
Ġun com
Ġon set
Ġphotograph s
i op
Ġpractition ers
Ġdatab ases
Ġcomm od
Ġsti ff
van ia
Ġgod s
Ġ Ð
Ġac tors
Ġcould n
ĠC e
p es
ie v
ĠInd ians
ine a
Ġm ouse
iz ational
Ġcomb ining
Ġconfig uration
usal em
ĠF lu
ĠPar ticip
ĠIndivid uals
Ġaut onomous
R S
Ġassign ments
Ġsusp ect
Ġjuris d
Ġcook ed
ĠPor tu
Ġcraf ts
Ġmut ual
Ġde terior
Ġprov ince
Ġmicro bi
Ġemphas izes
ade quate
Ġdram atically
Ġre tention
ĠIndustr ial
ak a
ĠCon sequ
te xt
ĠB oston
Ġind oors
Ġcomm ands
Ġd irt
Americ an
ĠWe ek
iss ance
% )
an as
g y
ul ent
Ġy es
ĠChallen ges
ĠTh ird
Ġphr ases
Ġbow el
Ġlon gevity
Ġrepl acing
it ations
ĠL inc
Ġun healthy
ak h
Ġvic tory
ĠMed ic
Ġpreserv ed
f eeding
ĠCom b
Ġreg ime
ĠA bs
Ġrec all
Ġpred om
ĠC ulture
Ġpar tial
Ġarm ed
Ġcitiz en
erm an
Ġpartic le
ĠM os
Ġcomp aring
Ġremed ies
Ġtrans plant
Ġcalc ulations
Ġpos itively
Ġelimin ating
em istry
Ġcour age
qu es
ĠC old
ĠGet ting
Ġdist ant
Ġprogress ive
Ġhome work
ĠUl timately
Ġinc idents
N ew
organ isms
Ġinsp ection
Ġac res
ys tal
Ġeat en
Ġdeterm ines
Ġcompens ation
en tical
Ġcr imes
Ġma pping
Ġcham ber
ĠMark et
Ġvac uum
Ġharm on
Ġstress ed
ĠTur key
Ġpro test
ane ous
Ġoper ators
b our
Ġpres chool
Ġal le
orest ation
Ġinven tory
Ġcommit tee
Ġch ose
fl ies
Ġper f
st all
Ġpharm ace
Ġdiagr am
Ġvulner abilities
Ġliter ally
ĠD og
am ents
ĠL iving
Ġoccasion ally
Ġfun g
ĠS D
Ġpath s
sy l
Ġwind s
Ġdis tor
Ġequ ation
c al
ĠDisc uss
Ġse asons
Ġp neum
Ġbe ach
Ġautom atic
or ig
Ġca ution
b urn
ĠVis ual
Ġdegrad ation
Ġapplic able
Ġre now
Ġfr on
Ġ3 8
Ġun ity
ĠAs se
Ġhypoth esis
ĠMa jor
Ġland f
.. ..
et ts
Ġdocument ed
Ġve t
dim ensional
Ġbo ards
Ġb inding
ul ting
Ġsurpris ing
d i
Ġlo op
Ġde tr
Ġconsult ation
Ġlaw n
Ġcy cl
Ġfat al
ĠS qu
Ġs le
Ġpat ent
tr ics
Ġscre ens
in er
ĠJer usalem
Ġharm ony
Ġexist ed
Ġbackground s
w all
ĠPre vent
Ġchar ges
Ġexam ining
Ġthan k
ach us
Ġd ating
tur ning
ĠE at
Ġu ter
z one
ĠAre a
ĠJ eff
Ġweek ly
Ġth row
or ie
A nd
ĠF ull
Ġenti ty
ĠCurrent ly
Ġth resh
od ed
ĠD O
Ġorient ation
em ed
Ġshe ep
Ġprec ip
Ġhun ger
Ġwel come
ĠC orpor
Ġnurs es
Ġpush ing
Ġins u
ĠStud ent
Ġcer tified
Ġir re
Ġdel iber
ĠC ell
Ġbeg un
as ures
Ġco ins
Ġworksh ops
Ġspread s
Ġg ains
Ġb lu
Ġ199 9
Ġenjoy able
Ġlif t
Ù Ħ
Ġdis in
Ġconn ectivity
ĠIs lands
Ġdepos its
Ġsurround ed
ĠO ffic
Ġaf raid
Ġbor row
ĠLG BT
ĠCl oud
Ġcomple tion
ĠJ oin
Ġed iting
test inal
c oun
Ġg au
tr al
Ġun em
Ġadv ers
Ġcomple ting
Ġw ars
ĠT urn
Ġeffic acy
Ġh ob
Ġrev ol
Ġorgan ize
ĠB an
Ġh ers
Ġsu cc
Ġenz yme
M P
f oot
Ġextraord inary
ĠMaterial s
Ġv iable
ĠImport ant
ĠG ive
Ġb ull
Ġsyn thesis
Ġ3 3
ĠPr ince
Ġstraight forward
oc ial
Ġtravel ing
Ġeth ics
ĠTyp ically
ah am
ac tivity
Ġpredic tions
s ized
ĠW i
B y
Ġsto od
Ġances tors
ĠS ud
Ġassist ant
P ro
ver eign
Ġevalu ated
y es
Ġcompreh ension
Ġess ays
Ġpsych iat
Ġtr iang
Ġp ediatric
Ġleg end
ĠExpl ore
Ġsp oke
fic iency
Ġ9 5
or ient
ĠPenn syl
x y
i ology
Ġbreak down
Ġso ap
Ġembr acing
Ġmed ieval
Ġminor ity
Ġp ine
Ġan atom
ĠUs ually
th ood
res istant
Ġtrust ed
Ġpro sp
Ġtend ency
ĠDr aw
Ġpredic ted
ĠCon vers
Ġpos es
Ġachieve ments
Ġ19 30
Ġoffic es
Ġstr ains
ĠT ax
Ġchec ks
ĠL ee
ĠPr in
Ġguid ed
ur ities
Ġsuggest ing
Ġcoll apse
um ns
w an
ĠDr ug
Ġvo ices
T o
ĠB ooks
Ġl enses
ibl ical
re al
Ġfe as
ia h
Ġsw allow
ĠTo gether
ĠCon vention
Ġphenomen a
Ġsim ulation
Ġpower ed
L P
ĠVir tual
ĠL oss
Ġimmigr ants
or row
ĠC R
Ġcar ing
ĠS tory
ĠR NA
Ġgrad u
Ġrec on
ĠS uccess
ĠHe brew
Ġexc ited
Ġadvance ment
Ġinf ant
Ġcivil ization
â Ħ
discipl inary
Ġrecommend s
u ble
Ġsc atter
Ġass umed
ay ers
Ġprof its
b ul
ater nal
ĠSo ftware
Ġvolunte ers
Ġpro ph
Ġapp ointed
B e
Ġenthusi asts
Ġdef ines
m n
ĠDi abetes
ĠF A
Ġmut ations
Ġstim ulation
Ġconstruc t
fer ences
ch e
ĠLinc oln
Ġtreat s
Ġstere otyp
quir y
Ġple asure
Ġbo il
Ġmag ic
ĠSur vey
Ġsurv iv
Ġbrush ing
ĠB io
Ġm ent
Ġmis take
Ġspac ecraft
uf act
ab etic
ĠL ower
Ġra ises
ee k
el ve
ĠM ess
vel ength
Ġhop es
ĠWe ight
Ġsc rew
u tical
ĠC ub
Ġst unning
ĠMexic an
Ġsh ore
Ġgener ator
ĠC H
ĠEs tabl
um bers
b el
Ġstrugg les
Ġconsequ ence
Ġid entical
Ġb in
ĠProv ide
ad ic
Ġcolon y
ĠA T
ĠAn imal
Ġtot ally
ĠE S
Ġrenow ned
Ġfac ulty
ost ers
Ġcare ers
Ġbe am
ĠN ov
Ġgold en
to red
ĠArch it
Ġinflu ential
Ġinc orrect
o ir
ĠUn ivers
ĠPennsyl vania
ĠO il
par ts
8 5
ĠMon th
Ġcomp ression
ĠÂ ©
Ġchrom os
cl aim
C P
Ġbuild s
j ective
Ġ3 7
Ġso vereign
ĠSaf e
Ġdisrup t
Ġ rom
Ġta b
ĠC A
Ġconv inc
Ġmolec ule
unc ture
Ġinter f
Ġauthentic ation
Ġsearch ing
Ġconven ience
ĠF ig
en za
B I
Ġclassroom s
Ġcount less
ell er
ĠO pp
Ġmis con
ĠH ot
Ġ1 20
Ġhorizon tal
ast rop
Ġmean ings
Ġgr ay
Ġdis ag
ĠY ellow
ĠEm ploy
Ġdevast ating
ĠBat tle
Ġpr ide
Ġa rom
Ġem ission
Ġeconom ics
Ġph ases
ĠDep ression
ĠA y
ĠF ed
oin ting
Ġy ard
Ġban king
ĠEv alu
Ġs enti
ĠV R
ĠP V
Ġf iction
ĠEgyp tian
Ġun treated
Ġ19 20
Ġcon clusions
Ġo mega
Ġb eds
Ġop io
Ġnewsp aper
bre aking
ĠAs h
Ġsee ks
Ġmeth ane
ish op
ste p
Ġsug ars
ĠI ron
Ġy ields
ĠLabor atory
dep th
D L
6 6
u ff
Ġelectro ly
Ġ ty
Ġch urches
ĠClin ical
e te
Ġindic ator
Ġl iv
ĠCh ief
Ġarr ival
Ġdeterm ination
Ġmer ch
Ġjew el
Ġic onic
Ġoper ates
Ġheav en
u v
d ess
Ġnavig ation
ĠR os
Ġbul lying
Ġm issions
Ġcertific ate
os ity
Ġpeace ful
Ġschol ar
F A
Ġh atch
Ġrot ation
gh an
f ound
ĠC lear
ĠCh emical
Ġconstr aints
Ġinhabit ants
ĠCal c
sy n
Ġoper ated
Ġsn akes
per ature
j a
Ġmas ks
achus etts
Ġsustain ed
Ġge ographical
ĠC ase
Ġvulner ability
p ed
Ġme ter
ĠLar ge
Ġelec tions
ĠN ear
Ġglass es
ĠAlex ander
ta h
u tor
Ġta g
y ou
end ers
Ġwaste water
Ġcollec tions
ĠImpro ve
Ġresp ective
Ġcamp us
ĠM ond
ĠF air
Ġirrit ation
Ġpoll en
ti er
ip edia
The y
19 9
Ġfestiv al
ĠSo il
Ġsurve illance
Ġcor al
x iety
Ġhighlight ing
Ġl ac
trib ution
Ġanalys es
ĠCho osing
Ġdistin ction
Ġfro zen
Ġ( âĢľ
Ġassess ed
pl as
D o
AR S
iti ves
Ġrevolution ary
ĠG as
Ġmal icious
Ġbot tles
Ġstor ing
M C
ar ity
Ġear ned
Ġset tled
Ġmulti pl
Ġan ch
Ġs ore
Ġel abor
Ġta pe
Ġun in
Ġworksh op
Ġrehab ilitation
ĠF ortunately
Ġatmosph eric
j i
ac tures
Ġpro posal
Ġs tic
Ġc avity
Ġcl ouds
ol ph
Ġtrad itionally
ĠPlan ning
Ġloc ally
Ġphysic ians
Ġnur se
Ġaccommod ate
Ġsens es
Ġl ob
Ġinterconn ected
ĠOrig in
ĠSund ay
Ġmen u
Ġwid th
Ġneu rological
ĠC S
Ġorigin ated
Ġprevent ed
Ġhers elf
Ġmod ules
ĠNe g
ĠTh ank
ĠOx ford
Ġc erv
Ġsm ile
Ġplace ment
ĠHe at
Ġphysi ological
Ġb ind
Ġas bestos
Ġshif ts
Ġoccur rence
Ġd ying
ĠDiv ision
ĠKore an
Ġcorre c
Ġfun gi
Ġantioxid ant
h tm
Ġinv ented
Ġdi ver
ĠL os
ĠTw itter
Ġl ithium
ry p
ĠMass achusetts
Ġsome where
es tr
ĠEff ects
Ġstu ck
ĠSt an
Ġkid neys
Ġ ×
Ġsed iment
ven ues
ta x
Ġw ing
Ġalign ment
Ġacqu is
ĠH am
in testinal
Ġc ables
Ġdro pped
Ġsu ited
Ġgraph ics
ĠSign s
oc ate
ĠImag ine
sc reen
ĠEd ward
ĠKnow ledge
Ġelect rom
4 2
ĠC a
Ġch ips
Ġb ought
em es
Ġg ently
Ġto dd
ĠB ot
Ġcar p
Ġsto ps
ĠC os
Ġmin i
Ġtu bes
Ġimpl ies
Ġshall ow
Ġpat ience
s s
Ġstr ange
ent er
Ġw ise
Ġuncom fortable
Ġtoile t
Ġgl ac
ĠP ath
ce eding
ĠFrequ ently
Ġpun ishment
ĠF unction
Ġasp ir
ĠInd ustry
r ant
Ġdepart ments
Ġsp erm
Ġinher ent
m ond
Ġhear ts
Ġdis k
Ġpal m
Ġh ind
Ġcons titution
Ġkilom eters
Ġre ign
Ġrequ ests
ĠPl us
Ġtrou bles
b ell
ĠHistor ical
Ġcultiv ation
ce eds
Ġn ausea
pre ced
Ġmir ror
Ġal tered
Ġcomb ines
Ġrecip es
Ġcal endar
ĠBet ter
Ġver b
Ġf ans
Ġload s
a fter
Ġadolesc ents
Ġcirc uits
Ġparti ally
Ġadvoc ate
Ġab dominal
5 5
ĠN orm
Ġdif f
ĠG all
ĠIn ves
Ġh os
ou b
Ġentreprene urs
Ġfem in
Ġc igare
Ġtow er
Ġfore ver
M D
Ġcons isting
alu able
Ġunw anted
Ġm arch
Ġmethod ology
iction ary
Ġst atic
st on
Ġgen ome
Ġpan ic
Ġrefuge es
Ġur gent
Ġland ing
ĠC ast
Ġs tig
ĠF ather
v asive
Ġmys tery
re qu
ĠT alk
Ġrel ating
Ġvill ages
im ents
Ġc ro
ĠStand ards
preced ented
Ġconcentr ated
im a
b one
Ġvol umes
v i
Ġdiscover ies
Ġarr ive
m akers
Ġver ify
ad el
C E
Ġl ig
Ġmix ing
rel s
Ġtr us
Ġaward ed
ĠTrans port
B ut
as ions
Ġrecep tors
Ġnecess ity
Ġorgan ism
Ġimper ative
Ġw ires
Ġadv ised
U T
ĠA qu
Ġh es
ĠTe am
Ġre turning
ĠEncour age
ok ed
Ġinv asion
ĠTr ump
Ġburn ed
Ġsystem ic
ad or
ĠW HO
ĠM ap
r ays
ĠC PU
ĠMonitor ing
de velop
ĠD ry
Ġde als
Ġemerg ence
Ġvel ocity
onym ous
A t
ch ild
Ġwh ilst
ĠN one
ag an
Ġantib iotic
Ġdr ying
ĠImple ment
ĠSol utions
Ġframe works
Ġfeature d
U R
Ġstrength ening
Ġenter prise
Ġn am
Ġlot teries
Ġre wards
ass ment
Ġ1 000
Ġclean er
Ġ199 8
Ġrein force
Ġperce ive
Ġinstall ing
Ġadmin istered
Ġlay out
Ã ±
re y
Ġtrem end
Ġstret ching
ĠAl cohol
in ator
Ġch ip
ĠV an
ĠW il
Ġoccup ied
Ġprov isions
imm une
Ġrit uals
Ġaccoun tability
Ġar tif
on ing
Ġelement ary
Ġod ds
Ġfear s
Ġassoci ations
Ġcaptiv ating
Ġb om
Ġ2 50
Ġincenti ves
ĠH app
ĠP oor
Ġti ed
Ġevolution ary
Ġinterview s
Ġpass words
h igh
Ġplas ma
Ġwa velength
izon a
Ġcontamin ants
ĠP oint
Ġc ub
4 3
Ġdead ly
Ġgraph ic
ĠSet ting
Ġoffic ially
Ġw age
ĠN umber
k ay
Ġcook ies
erg ar
Ġport fol
Ġreg ulated
th ew
lu ded
Ġgl and
ĠSk in
Ġw ax
Ġche aper
Ġgr av
ox ide
ĠSe lect
Ġwar mer
al i
form ing
Ġpain ted
as ound
app ropriate
ĠGu id
Ġanx ious
Ġrele ases
ĠCon tr
Ġcol umns
ĠFin ding
Ġpur ple
Ġin puts
Ġel igible
b ot
Ġsubs titute
Ġsuppl iers
ĠL ist
Ġcus toms
ĠEm br
Ġpurs uit
Ġpass ive
Ġexhib ition
Ġrout ines
ĠPrim ary
Ġmanufacture d
i age
ĠNiger ia
Ġvol at
Ġbul bs
p tic
Ġentr ance
Ġb es
Ġbe aring
ra ul
ĠB a
Ġaccum ulation
Ġintr ig
Ġcons ensus
ure au
ĠRel ations
ir al
ĠPol y
Ġ )
Ġintens ive
Ġnum er
Ġdef ining
tar ctic
ĠTr ade
ust ers
ĠFr iday
Ġle verage
O ne
Ġarrange ment
ĠC ats
Ġvalu ed
al so
Ġillustr ate
Ġcol ored
el a
con f
Ġconf used
ĠâĢ Ŀ
piec e
ĠEv ent
ĠLead ers
ĠV PN
ot echn
Ġreflec ting
Ġcop ies
Ġdel ight
ĠS anta
ĠNav y
Ġintegr ating
il a
ĠS to
Ġl ighter
Ġal arm
ĠPC B
I nd
Ġdam ages
ĠL uc
ĠFood s
ĠM ur
ac on
ĠTur k
om er
Ġfif th
Ġstr ive
Ġbl ank
in ch
ĠS C
Ġcorresp ond
yr am
tor ney
ator ies
ĠG ulf
Ġw ages
ĠLast ly
s ec
Ġcy cling
ĠA P
ĠL iber
ĠRe tr
Ġl ux
Ġded ication
Ġassump tions
ĠAnd rew
ĠR a
ĠI ra
re ment
Ġc ock
ĠD aily
Ġapp le
Ġax is
Ġdipl om
Ġbe er
ĠDown load
Ġgener ates
ĠPer iod
ash ed
ans as
Ġmov ies
Ġcollabor ate
Ġmicro organisms
ation ally
Ġpush ed
ĠMan ufact
Ġabandon ed
Ġbas ket
Ġappe aling
Ġn ick
c asting
ĠHy per
Ġun precedented
Ġtransform ative
ĠV o
ĠI B
ĠN G
Ġfe at
Ġexp ense
c ure
ĠTest ament
Ġce ment
Ġten der
Ġcombus tion
to se
Ġterri tories
ĠS a
Ġfund ament
7 9
âĦ ¢
igh th
Ġsp ons
ĠF at
p ur
Ġcomp act
ĠMar ine
Ġenti tled
Ġemphas ize
Ġtest ament
T r
ĠE ye
if er
clus ively
F C
ers ion
R NA
Ġre ver
ĠDef in
Ġrul ed
Ġpat ches
Ġrepresent atives
Ġattr acted
Ġmor ph
ĠPe ace
p age
Ġcolle ges
Ġb ark
ach ed
ren ts
4 1
Ġdoc tr
Ġcompan ion
ĠG rowth
Ġtr acks
Ġreproduc tion
ĠIndones ia
ĠM oses
to gether
ĠS av
Ġimp ression
ĠM es
Ġde ple
Ġmal ware
Ġunder water
ris k
Ġfa ult
ĠB ad
Ġimpl ant
Ġscen es
Ġmon ument
amb oo
ĠCent ers
ĠCred it
Ġoblig ations
Ġbul k
ĠVar ious
ĠAr izona
Ġexp end
Ġb old
Ġharvest ing
Ġol ive
ĠCon ference
Ġreview ed
Ġmod ifications
Ġdescrib ing
et t
Ġencomp asses
Ġinc idence
Ġflav ors
Ġad hes
ĠCont ents
an z
u ana
Ġcardi ac
Ġc ave
Ġlicens ed
t ative
S p
o is
Ġbr idges
Ġcam ps
ĠQ ur
ĠF ield
Ġad ul
ĠAn im
em ies
op athy
ĠH em
Ġfoot ball
the tics
Ġsam pling
Ġb aking
Ġtransl ated
Ġ8 5
ĠT own
ĠW ales
Ġh at
ĠC lu
Ġeduc ated
Ġneed le
Ġtraum atic
Ġpro pos
Ġprogram mes
ĠM erc
ĠS on
Ġag greg
Ġfl oss
Ġcomp elling
Ġl ining
Ġp ale
on ent
Ġf usion
Ġfail ures
Ġpress ures
Ġcouns eling
Ġb od
Ġan es
Ġsymbol ic
Ġdr astic
Ġcondition ing
Ġtomat oes
Ġpress ing
ĠN ether
as y
ĠFranc isco
Ġmagn itude
el ong
L L
Ġobserv ing
Ġan k
Ġmod ify
Ġv ice
Ġl u
ĠH ous
ĠQues tion
ĠN OT
Ġmain stream
Ġchick ens
Ġground water
ĠN ic
Ġwithdraw al
Ġorgan izational
ĠDan iel
Ġye ast
Ġmechan ics
Ġvot ing
ĠA ware
ang ers
Ġsens ation
Ġcomprom ise
Ġpoison ing
ac kets
Ġf osters
Ġemb ark
Ġqu ar
ti b
ĠEduc ational
ergar ten
is ons
v als
Ġinv aluable
Ġcol ours
io let
ĠAn tarctic
Ġn ode
Ġd ual
Ġextin ction
l ock
Ġan ten
S t
c asts
ĠKeep ing
ĠSh are
Ġn ic
v ae
un s
Ġbe t
ĠAsse mbly
Ġbel t
Ġinterf ere
pp ers
Ġstor ms
ĠHealth care
ĠM and
as is
me tic
Ġslow er
ĠAsk ed
Ġbl o
Ġtable ts
Ġdr aft
Ġunc ons
Ġre cess
Ġautom otive
Ġacid ic
Ġhe ated
Ġdeg ener
Ġdim ension
Ġlingu istic
ĠG DP
Ġcoop er
Ġy og
Ġsatell ites
Ġdes cend
Ġattemp ting
Ġcritic ism
E G
reg on
id al
ĠVis it
Ġh orn
ed ding
Ġdemand ing
Ġk ne
ĠResp ons
ur red
Ġsacr ific
th reat
Ġappropri ately
Ġar c
Ġreward ing
ĠS ix
v y
Ġb uck
e ter
ĠL if
Ġdiscipl ines
ito red
ri ers
Ġin adequate
Ġ6 00
at us
enn ial
Ġnam ely
Ġfound er
ock et
ĠN C
Ġign ore
Ġsever ely
ch er
ino is
Ġcorrel ation
Ġpresent ing
ĠOr der
ĠP H
Ġstory telling
ag le
Ġhol y
Ġan throp
Ġal kal
ĠCh anges
Ġpig s
ĠH it
ĠR ub
ad ays
Ġfail s
Ġaccomp any
Ġ ðŁ
Ġop t
Ġencomp ass
Ġag gression
Ġent ers
ĠIdentif y
Ġloc ate
ĠU til
ĠIra q
ĠL ooking
Ġpredom inant
Ġaccompl ished
Ġdin osa
ĠF un
ĠAdd itional
Ġcritic ally
Ġdefin itions
in tens
sp ring
T ube
uls ion
ĠKnow ing
Ġreserv es
Ġsing ing
Ġaccord ance
Ġtransform ing
ĠL isten
ag us
ĠU C
Ġflow ing
le tter
ĠChar acter
Ġdec e
Ġpoor ly
Ġresc ue
ĠCompan ies
ap ore
Ġinstitu tional
in th
ĠS earch
Ġ ?
ĠM echan
âĢĿ )
osp el
Ġhyper tension
o z
Ġsp elling
8 9
Ġcl uster
Ġox ide
ĠL ew
ĠT es
ĠH an
Ġfe e
Ġ3 4
Ġemploy er
bit r
r uit
tand ing
yl on
Ġs ister
og ene
Ġgro cer
Ġb icy
Ġend uring
ĠMain taining
Ġf les
Ġhun t
man n
Ġor n
Ġdiam ond
v ation
8 6
tu ary
Ġimag ery
ĠV ideo
Ġcolor ful
Ġmon etary
Ġsubsequ ently
l ist
ĠF red
Ġgenu ine
ĠP M
ĠSecret ary
Ġ194 0
Ġjoin ing
Ġprefer ence
Ġarr anged
Ġfr action
ĠNe u
v as
ĠCont ent
Ġsacr ifice
ĠThe ory
Ġco in
Ġval ves
Ġcompan ions
Ġweap on
Ġaud iences
r in
Ġf allen
tt es
ush ed
Ġfresh water
Ġbound ary
Ġexpl aining
Ġtr ap
ĠObs erv
Ġl unch
Ġfor t
Ġattemp ted
Ġdeploy ment
Ġpr ize
Ġconn ects
ĠUr ban
Ġac ne
ĠP as
Ġref used
ĠE ll
Ġhorm onal
Ġgr ants
Ġun author
Ġaff airs
Ġgar lic
ĠS M
ĠTool s
Ġteach ings
ik a
Ġadj acent
ĠCar ib
Ġang les
Ġver bal
Ġgl ands
ĠO regon
Ġemp ire
Ġlegi timate
Ġcareg ivers
Ġdisadvanta ges
ĠEm otional
Ġprem ature
R es
ĠG ame
Ġgl oves
ĠIn stall
k h
Ġmon itored
Ġmitig ation
on ut
Ġprosper ity
ĠAg reement
Ġvis ibility
Ġsto cks
Ġgif ts
Ġexec uted
Ġpath way
Ġrein forcement
Ġdecentral ized
itz er
Ġatten ding
ĠN O
Ġcat astrop
oul try
ĠIns p
Ġar res
ĠEvery one
Ġb omb
ĠN ob
Ġfr iction
ĠAf ghan
ag ic
Ġdin ner
Ġ199 7
ĠUn it
Ġcirc les
Ġsurpris ed
Ġearthqu ake
Ġpor tra
lec ting
Ġutil ization
ot ten
Ġreg ulating
Ġcorpor ations
Ġhistor ically
to ps
Ġdrag on
ĠDe term
Ġbr ill
P l
Ġtrigger ed
Ġm ol
Ġconf idential
ph ere
Ġdecre asing
Ġcontr ary
s ome
Ġf its
Ġinvestig ated
ĠBas ic
Ġtal ks
Ġgr ab
ĠRel ig
Ġinsu fficient
ĠApplic ations
Ġcomp ly
ĠCam bridge
ĠAp art
Ġfound ations
ĠN i
ĠPre p
in ates
r ia
Ġbreak through
ur able
tip ation
Ġse af
Ġbe verages
Ġc ult
ĠArab ic
r ise
Ġchar ts
tar io
rop ol
Ġcond ens
Ġpor table
ĠM A
Ġb erries
F S
ĠRec ommend
Ġdoll ar
Ġcomp ete
ĠBer lin
ig s
raul ic
at in
Ġr iding
Ġcontrovers ial
0 5
Ġprompt ly
or i
ĠNether lands
Ġoff set
ar ms
br ush
Ġpack ed
in ely
Ġtr uck
Ġadvent ure
ĠMove ment
Ġsh ield
Ġin k
Ġemail s
Ġtechn ic
Ġab road
Ġcheck ed
h tt
Ġoutl ined
hold er
ĠR ail
Ġseem ingly
ĠCol on
ter ious
Ġgu itar
i rop
Ġtr im
C H
Ġweakness es
ĠW el
Ġrepeated ly
