{"<|start_of_text|>":0,"<pad>":1,"<|end_of_text|>":2,"<unk>":3,"<mask>":4,"!":5,"\"":6,"#":7,"$":8,"%":9,"&":10,"'":11,"(":12,")":13,"*":14,"+":15,",":16,"-":17,".":18,"/":19,"0":20,"1":21,"2":22,"3":23,"4":24,"5":25,"6":26,"7":27,"8":28,"9":29,":":30,";":31,"<":32,"=":33,">":34,"?":35,"@":36,"A":37,"B":38,"C":39,"D":40,"E":41,"F":42,"G":43,"H":44,"I":45,"J":46,"K":47,"L":48,"M":49,"N":50,"O":51,"P":52,"Q":53,"R":54,"S":55,"T":56,"U":57,"V":58,"W":59,"X":60,"Y":61,"Z":62,"[":63,"\\":64,"]":65,"^":66,"_":67,"`":68,"a":69,"b":70,"c":71,"d":72,"e":73,"f":74,"g":75,"h":76,"i":77,"j":78,"k":79,"l":80,"m":81,"n":82,"o":83,"p":84,"q":85,"r":86,"s":87,"t":88,"u":89,"v":90,"w":91,"x":92,"y":93,"z":94,"{":95,"|":96,"}":97,"~":98,"¡":99,"¢":100,"£":101,"¤":102,"¥":103,"¦":104,"§":105,"¨":106,"©":107,"ª":108,"«":109,"¬":110,"®":111,"¯":112,"°":113,"±":114,"²":115,"³":116,"´":117,"µ":118,"¶":119,"·":120,"¸":121,"¹":122,"º":123,"»":124,"¼":125,"½":126,"¾":127,"¿":128,"À":129,"Á":130,"Â":131,"Ã":132,"Ä":133,"Å":134,"Æ":135,"Ç":136,"È":137,"É":138,"Ê":139,"Ë":140,"Ì":141,"Í":142,"Î":143,"Ï":144,"Ð":145,"Ñ":146,"Ò":147,"Ó":148,"Ô":149,"Õ":150,"Ö":151,"×":152,"Ø":153,"Ù":154,"Ú":155,"Û":156,"Ü":157,"Ý":158,"Þ":159,"ß":160,"à":161,"á":162,"â":163,"ã":164,"ä":165,"å":166,"æ":167,"ç":168,"è":169,"é":170,"ê":171,"ë":172,"ì":173,"í":174,"î":175,"ï":176,"ð":177,"ñ":178,"ò":179,"ó":180,"ô":181,"õ":182,"ö":183,"÷":184,"ø":185,"ù":186,"ú":187,"û":188,"ü":189,"ý":190,"þ":191,"ÿ":192,"Ā":193,"ā":194,"Ă":195,"ă":196,"Ą":197,"ą":198,"Ć":199,"ć":200,"Ĉ":201,"ĉ":202,"Ċ":203,"ċ":204,"Č":205,"č":206,"Ď":207,"ď":208,"Đ":209,"đ":210,"Ē":211,"ē":212,"Ĕ":213,"ĕ":214,"Ė":215,"ė":216,"Ę":217,"ę":218,"Ě":219,"ě":220,"Ĝ":221,"ĝ":222,"Ğ":223,"ğ":224,"Ġ":225,"ġ":226,"Ģ":227,"ģ":228,"Ĥ":229,"ĥ":230,"Ħ":231,"ħ":232,"Ĩ":233,"ĩ":234,"Ī":235,"ī":236,"Ĭ":237,"ĭ":238,"Į":239,"į":240,"İ":241,"ı":242,"Ĳ":243,"ĳ":244,"Ĵ":245,"ĵ":246,"Ķ":247,"ķ":248,"ĸ":249,"Ĺ":250,"ĺ":251,"Ļ":252,"ļ":253,"Ľ":254,"ľ":255,"Ŀ":256,"ŀ":257,"Ł":258,"ł":259,"Ń":260,"Ġa":261,"th":262,"in":263,"Ġth":264,"er":265,"on":266,"re":267,"Ġthe":268,"Ġs":269,"en":270,"at":271,"Ġo":272,"Ġc":273,"es":274,"nd":275,"Ġw":276,"is":277,"to":278,"Ġp":279,"al":280,"ing":281,"an":282,"or":283,"Ġf":284,"Ġb":285,"ed":286,"ti":287,"Ġin":288,"Ġof":289,"ou":290,"Ġand":291,"Ġto":292,"Ġm":293,"ar":294,"Ġd":295,"Ġh":296,"it":297,"le":298,"ro":299,"ic":300,"as":301,"ent":302,"Ġe":303,"Ġre":304,"ion":305,"el":306,"ĠT":307,"Ġl":308,"il":309,"us":310,"om":311,"ec":312,"ac":313,"Ġn":314,"âĢ":315,"Ġis":316,"ve":317,"ation":318,"Ġg":319,"ol":320,"ĠTh":321,"tr":322,"id":323,"ur":324,"ly":325,"Ġy":326,"Ġbe":327,"tion":328,"ow":329,"ĠA":330,"Ġfor":331,"ers":332,"ig":333,"ĠI":334,"os":335,"Ġthat":336,"Ġyou":337,"ir":338,"ce":339,"ts":340,"Ġon":341,"Ġwh":342,"ĠS":343,"im":344,"ter":345,"ul":346,"Ġpro":347,"am":348,"ith":349,"ay":350,"ĠC":351,"Ġas":352,"Ġcon":353,"ad":354,"ch":355,"Ġare":356,"ver":357,"ta":358,"te":359,"Ġwith":360,"Ġor":361,"Ġit":362,"Ġan":363,"et":364,"ĠThe":365,"Ġal":366,"ment":367,"ess":368,"ge":369,"od":370,"ut":371,"âĢĻ":372,"if":373,"un":374,"Ġcan":375,"ot":376,"Ġex":377,"Ġcom":378,"res":379,"ity":380,"ate":381,"ĠP":382,"ĠM":383,"Ġr":384,"Ġv":385,"Ġde":386,"ere":387,"ĠW":388,"op":389,"Ġsu":390,"ĠB":391,"Ġch":392,"Ġha":393,"ke":394,"qu":395,"igh":396,"ab":397,"pp":398,"ill":399,"tu":400,"se":401,"ĠH":402,"Ġen":403,"ore":404,"uc":405,"iv":406,"Ġus":407,"um":408,"rom":409,"tic":410,"ther":411,"ain":412,"ĠD":413,"ld":414,"oc":415,"ĠE":416,"Ġle":417,"ĠF":418,"Ġby":419,"ĠâĢ":420,"Ġ(":421,"Ġsh":422,"ies":423,"Ġyour":424,"Ġ-":425,"Ġac":426,"Ġfrom":427,"Ġne":428,"ap":429,"Ġat":430,"Ġhe":431,"Ġtr":432,"Ġ1":433,"ĠR":434,"Ġim":435,"ome":436,"Ġhave":437,"ant":438,"ial":439,"Ġsp":440,"tor":441,"ort":442,"est":443,"Ġtheir":444,"Ġwe":445,"og":446,"Ġse":447,"Ġu":448,"ib":449,"ĠIn":450,"Ġwor":451,"Ġpl":452,"all":453,"Ġwas":454,"our":455,"Ġthis":456,"ff":457,"ĠL":458,"Ġab":459,"Ġdis":460,"ĠG":461,"Ġnot":462,"rou":463,"ive":464,"ĠN":465,"ical":466,"ell":467,"per":468,"ure":469,"are":470,"Ġst":471,"gh":472,"tim":473,"Ġres":474,"ine":475,"pl":476,"ich":477,"Ġad":478,"Ġme":479,"ĠO":480,"and":481,"iz":482,"ys":483,"ag":484,"ard":485,"ight":486,"ould":487,"ated":488,"vel":489,"Ġinc":490,"out":491,"ach":492,"ect":493,"Ġcomp":494,"age":495,"ide":496,"Ġ2":497,"Ġimp":498,"ous":499,"ations":500,"iti":501,"Ġthey":502,"st":503,"ans":504,"king":505,"ten":506,"ms":507,"tions":508,"ood":509,"so":510,"ost":511,"Ġmore":512,"Ġwill":513,"ence":514,"ance":515,"Ġall":516,"ip":517,"Ġwhich":518,"lu":519,"Ġk":520,"ear":521,"ĠU":522,"ally":523,"ater":524,"Ġalso":525,"ding":526,"Ġma":527,"Ġhas":528,"fer":529,"ks":530,"art":531,"Ġman":532,"ign":533,"duc":534,"ong":535,"orm":536,"âĢĿ":537,"ĠâĢľ":538,"em":539,"ĠThis":540,"able":541,"ting":542,"Ġun":543,"tw":544,"ie":545,"ents":546,"ĠWh":547,"av":548,"Ġpr":549,"ress":550,"Ġcl":551,"oun":552,"ĠIt":553,"reat":554,"cess":555,"ary":556,"ish":557,"Ġapp":558,"ep":559,"enti":560,"Ġpre":561,"ty":562,"ia":563,"ition":564,"Ġdo":565,"Ġbut":566,"tud":567,"Ġte":568,"ire":569,"ace":570,"aus":571,"tain":572,"Ġcons":573,"Ġper":574,"ase":575,"Ġso":576,"Ġj":577,"ind":578,"Ġsome":579,"Ġcomm":580,"alth":581,"Ġinf":582,"ack":583,"Ġtim":584,"ild":585,"Ġother":586,"00":587,"ist":588,"Ġhel":589,"one":590,"ren":591,"ven":592,"end":593,"ass":594,"ose":595,"ĠJ":596,"Ġone":597,"Ġar":598,"ust":599,"Ġpe":600,"ely":601,"Ġmay":602,"ast":603,"very":604,"Ġta":605,"Ġits":606,"ces":607,"Ġabout":608,"Ġli":609,"ue":610,"lec":611,"Ġind":612,"act":613,"ens":614,"Ġhis":615,"oo":616,"Ġhelp":617,"Ġfe":618,"now":619,"ang":620,"ile":621,"Ġthem":622,"Ġstud":623,"ame":624,"ons":625,"Ġqu":626,"Ġcont":627,"Ġout":628,"Ġthese":629,"Ġinter":630,"olog":631,"Ġrec":632,"Ġro":633,"ri":634,"ech":635,"Ġinto":636,"Ġstr":637,"ays":638,"Ġem":639,"bl":640,"Ġund":641,"Ġbec":642,"Ġdif":643,"Ġup":644,"als":645,"Ġsc":646,"ities":647,"Ġneed":648,"Ġwhen":649,"Ġwho":650,"Ġeff":651,"ments":652,"ople":653,"ĠCh":654,"ound":655,"tive":656,"ber":657,"Ġover":658,"Ġsuch":659,"ll":660,"Ġhealth":661,"Ġour":662,"ĠY":663,"Ġwere":664,"ble":665,"Ġuse":666,"Ġhow":667,"ning":668,"Ġtime":669,"yste":670,"gr":671,"rough":672,"ating":673,"ite":674,"ree":675,"velop":676,"Ġpar":677,"erv":678,"Ġgo":679,"Ġprov":680,"Ġinclu":681,"tand":682,"Ġmo":683,"Ġcol":684,"Ġins":685,"Ġthere":686,"Ġthan":687,"Ġno":688,"Ġpeople":689,"ice":690,"ted":691,"ates":692,"low":693,"row":694,"Ġhigh":695,"ĠK":696,"Ġdes":697,"Ġknow":698,"ause":699,"ple":700,"Ġsa":701,"ious":702,"ful":703,"Ġdr":704,"ular":705,"ility":706,"ne":707,"ific":708,"Ġdevelop":709,"Ġmost":710,"Ġrel":711,"Ġbeen":712,"ough":713,"uring":714,"Ġyear":715,"Ġwork":716,"Ġif":717,"ture":718,"Ġph":719,"ĠV":720,"Ġsyste":721,"Ġspec":722,"Ġany":723,"Ġused":724,"Ġbl":725,"ail":726,"ds":727,"Ġdiffer":728,"tiv":729,"Ġlike":730,"Ġ20":731,"erg":732,"Ġnew":733,"Ġthrough":734,"Ġreg":735,"les":736,"Ġag":737,"aw":738,"Ġchild":739,"ult":740,"Ġbr":741,"Ġco":742,"'s":743,"fic":744,"ene":745,"ower":746,"ient":747,"echn":748,"ath":749,"arch":750,"Ġrep":751,"Ġsupp":752,"ors":753,"Ġpos":754,"mp":755,"round":756,"Ġimport":757,"ise":758,"Ġproduc":759,"ĠAs":760,"ak":761,"ings":762,"oth":763,"its":764,"Ġacc":765,"Ġdec":766,"Ġwell":767,"Ġwhat":768,"Ġadd":769,"Ġwater":770,"Ġexp":771,"Ġmany":772,"irst":773,"ative":774,"iet":775,"ata":776,"Ġ3":777,"ational":778,"ian":779,"Ġass":780,"he":781,"ps":782,"ade":783,"ĠHow":784,"Ġgr":785,"ese":786,"Ġinv":787,"Ġshould":788,"Ġ19":789,"ased":790,"ord":791,"Ġam":792,"Ġcr":793,"Ġonly":794,"Ġexper":795,"ĠâĢĵ":796,"anc":797,"ects":798,"ond":799,"ual":800,"ible":801,").":802,"Ġbu":803,"Ġmake":804,"Ġsec":805,"ions":806,"ange":807,"Ġtw":808,"Ġlear":809,"enc":810,"typ":811,"ife":812,"Ġev":813,"ener":814,"mer":815,"Ġop":816,"Ġtrans":817,"Ġrem":818,"techn":819,"een":820,"Ġtechn":821,"ness":822,"Ġsign":823,"Ġpers":824,"bs":825,"oin":826,"ever":827,"Ġsur":828,"ĠIf":829,"Ġwould":830,"ience":831,"Ġvar":832,"Ġprocess":833,"Ġtyp":834,"Ġsm":835,"ural":836,"fter":837,"ook":838,"Ġke":839,"form":840,"ential":841,"gan":842,"tern":843,"ark":844,"Ġmed":845,"iss":846,"Ġcre":847,"Ġincre":848,"rop":849,"Ġhad":850,"Ġimportant":851,"fore":852,"Ġwhere":853,"ĠAn":854,"Ġfirst":855,"iron":856,"Ġbetw":857,"Ġbetween":858,"ool":859,"ĠUn":860,"tory":861,"ants":862,"Ġdata":863,"de":864,"Ġdifferent":865,"ivers":866,"Ġpol":867,"ick":868,"Ġ|":869,"ied":870,"own":871,"uch":872,"Ġfac":873,"Ġmod":874,"ob":875,"Ġrequ":876,"Ġcar":877,"ov":878,"Ġexam":879,"ology":880,"Ġtwo":881,"Ġpres":882,"ily":883,"elf":884,"Ġsk":885,"Ġget":886,"Ġworld":887,"Ġresp":888,"ures":889,"ider":890,"try":891,"Ġsystem":892,"ues":893,"Ġcoun":894,"Ġinform":895,"Ġdisc":896,"erstand":897,"Ġway":898,"Ġrese":899,"ĠThey":900,"Ġsee":901,"ph":902,"Ġcommun":903,"Ġsol":904,"oy":905,"ĠFor":906,"rit":907,"ĠSt":908,"tors":909,"viron":910,"Ġcould":911,"Ġlead":912,"Ġsoc":913,"ubl":914,"ĠHe":915,"cc":916,"Ġlong":917,"ize":918,"Ġeven":919,"ature":920,"Ġes":921,"Ġresearch":922,"Ġpart":923,"ĠWe":924,"wn":925,"Ġform":926,"ivid":927,"Ġsy":928,"Ġpat":929,"arm":930,"Ġhum":931,"Ġgrow":932,"Ġsim":933,"Ġfood":934,"Ġyears":935,"ases":936,"Ġed":937,"Ġau":938,"Ġmain":939,"ges":940,"ality":941,"ĠRe":942,"Ġlife":943,"Ġsch":944,"Ġear":945,"ody":946,"Ġgener":947,"ĠThese":948,"Ġfl":949,"term":950,"Ġfin":951,"ĠEn":952,"Ġevery":953,"Ġher":954,"Ġnum":955,"treat":956,"vironment":957,"Ġfol":958,"Ġperson":959,"ĠPro":960,"ory":961,"tical":962,"ized":963,"ink":964,"Ġadv":965,"Ġlevel":966,"ines":967,"Ġfr":968,"cep":969,"Ġoften":970,"Ġbecause":971,"Ġav":972,"ves":973,"ices":974,"Ġdep":975,"Ġris":976,"Ġtreat":977,"ists":978,"Ġsub":979,"Ġloc":980,"io":981,"ection":982,"ergy":983,"cr":984,"Ġlar":985,"Ġfound":986,"up":987,"Ġ4":988,"),":989,"ĠYou":990,"Ġ\"":991,"Ġunderstand":992,"Ġpartic":993,"ĠThere":994,"Ġduring":995,"ĠAl":996,"ism":997,"omm":998,"ct":999,"cer":1000,"Ġusing":1001,"urn":1002,"Ġafter":1003,"Ġbel":1004,"ving":1005,"ited":1006,"red":1007,"Ġexpl":1008,"Ġinformation":1009,"ug":1010,"Ġeach":1011,"ros":1012,"ject":1013,"Ġthose":1014,"ew":1015,"Ġ5":1016,"Ġbre":1017,"Ġbeing":1018,"Ġdesign":1019,"Ġwhile":1020,"ĠWhat":1021,"ives":1022,"Ġthen":1023,"Ġchildren":1024,"Ġmon":1025,"truc":1026,"ved":1027,"hip":1028,"Ġmin":1029,"ically":1030,"wor":1031,"ward":1032,"Ġval":1033,"Ġcomple":1034,"Ġprev":1035,"uce":1036,"con":1037,"Ġprovid":1038,"Ġjust":1039,"Ġvery":1040,"led":1041,"Ġcond":1042,"Ġserv":1043,"Ġown":1044,"Ġindivid":1045,"til":1046,"Ġcent":1047,"br":1048,"tom":1049,"ital":1050,"Ġimpro":1051,"Ġstudents":1052,".âĢĿ":1053,"ins":1054,"gram":1055,"Ġpower":1056,"ove":1057,"Ġste":1058,"Ġallow":1059,"Ġgood":1060,"Ġproble":1061,"Ġgl":1062,"old":1063,"Ġunder":1064,"Ġcur":1065,"Ġcare":1066,"ics":1067,"ution":1068,"tre":1069,"Ġoff":1070,"Ġtake":1071,"Ġenvironment":1072,"Ġbody":1073,"lic":1074,"Ġset":1075,"Ġpot":1076,"Ġfam":1077,"Ġread":1078,"Ġboth":1079,"ry":1080,"Ġcap":1081,"Ġdoes":1082,"Ġfun":1083,"pec":1084,"iety":1085,"Ġpubl":1086,"Ġorgan":1087,"Ġactiv":1088,"Ġfollow":1089,"over":1090,"ences":1091,"iew":1092,"tle":1093,"Ġvis":1094,"ction":1095,"und":1096,"ĠWhen":1097,"xt":1098,"other":1099,"any":1100,"trib":1101,"iqu":1102,"Ġback":1103,"ior":1104,"Ġsupport":1105,"Ġprac":1106,"thing":1107,"Ġcle":1108,"Ġcor":1109,"test":1110,"Ġmuch":1111,"Ġcommon":1112,"ected":1113,"duce":1114,"Ġelec":1115,"ather":1116,"Ġcall":1117,"Ġincluding":1118,"Ġconsider":1119,"der":1120,"ĠHowever":1121,"ĠTo":1122,"rol":1123,"Ġob":1124,"Ġpop":1125,"Ġens":1126,"iness":1127,"Ġdise":1128,"Ġhand":1129,"ental":1130,"Ġrequire":1131,"ger":1132,"Ġ201":1133,"Ġbefore":1134,"Ġdi":1135,"meric":1136,"els":1137,"Ġenergy":1138,"Ġsmall":1139,"Ġaff":1140,"ually":1141,"Ġprot":1142,"Ġbene":1143,"aterial":1144,"tric":1145,"Ġmade":1146,"Ġstudy":1147,"Ġposs":1148,"Ġaround":1149,"ency":1150,"kes":1151,"Ġplay":1152,"Ġprovide":1153,"ĠInd":1154,"ĠAr":1155,"ix":1156,"Ġsever":1157,"itions":1158,"iving":1159,"Ġchar":1160,"ĠCon":1161,"Ġsame":1162,"ĠBut":1163,"Ġgu":1164,"Ġless":1165,"Ġschool":1166,"ĠAd":1167,"Ġeduc":1168,"land":1169,"Ġsignific":1170,"Ġshow":1171,"ages":1172,"Ġsta":1173,"Ġprof":1174,"Ġdef":1175,"Ġsaf":1176,"ĠAmeric":1177,"tal":1178,"ric":1179,"Ġbeh":1180,"oss":1181,"Ġess":1182,"au":1183,"iel":1184,"Ġeas":1185,"tter":1186,"tics":1187,"ft":1188,"read":1189,"Ġdown":1190,"Ġid":1191,"Ġprogram":1192,"Ġmaterial":1193,"till":1194,"Ġhuman":1195,"Ġday":1196,"Ġmus":1197,"Ġiss":1198,"Ġend":1199,"Ġplan":1200,"Ġeng":1201,"ources":1202,"ients":1203,"Ġmust":1204,"Ġcontin":1205,"ĠEx":1206,"aph":1207,"Ġdevelopment":1208,"ra":1209,"Ġref":1210,"Ġsaid":1211,"thod":1212,"Ġlearn":1213,"Ġexample":1214,"cl":1215,"ective":1216,"Ġlearning":1217,"ulation":1218,"ash":1219,"Ġgrou":1220,"Ġagain":1221,"Ġequ":1222,"acter":1223,"ale":1224,"Ġproper":1225,"Ġinclude":1226,"Ġsto":1227,"Ġappro":1228,"Ġmem":1229,"omen":1230,"ium":1231,"Ġtoo":1232,"Ġocc":1233,"Ġsocial":1234,"ties":1235,"Ġstart":1236,"Ġphys":1237,"Ġrisk":1238,"Ġaw":1239,"ills":1240,"oint":1241,"ier":1242,"cent":1243,"air":1244,"ĠOn":1245,"oid":1246,"Ġstate":1247,"ross":1248,"Ġpur":1249,"yp":1250,"ights":1251,"ount":1252,"Ġbus":1253,"ustr":1254,"Ġfind":1255,"ĠAnd":1256,"itive":1257,"Ġcaus":1258,"Ġcell":1259,"ization":1260,"Ġknown":1261,"Ġdem":1262,"Ġser":1263,"Ġidenti":1264,"Ġtest":1265,"Ġchang":1266,"ars":1267,"ince":1268,"Ġdire":1269,"uss":1270,"Ġve":1271,",âĢĿ":1272,"tice":1273,"Ġbest":1274,"Ġconf":1275,"Ġmight":1276,"ination":1277,"Ġ6":1278,"line":1279,"Ġclass":1280,"Ġbuil":1281,"allen":1282,"Ġland":1283,"ave":1284,"ĠBy":1285,"day":1286,"ared":1287,"Ġkeep":1288,"Ġnumber":1289,"Ġmy":1290,"Ġwithin":1291,"Ġteach":1292,"Ġpain":1293,"Ġair":1294,"Ġint":1295,"Ġlit":1296,"Ġsignificant":1297,"Ġwithout":1298,"Ġimm":1299,"ately":1300,"itional":1301,"Ġgre":1302,"ability":1303,"Ġinvol":1304,"turn":1305,"Ġide":1306,"Ġgover":1307,"Ġcreat":1308,"Ġanal":1309,"Ġaccess":1310,"Ġhome":1311,"Ġgreat":1312,"iversity":1313,"Ġcour":1314,"Ġnow":1315,"orts":1316,"Ġchange":1317,"Ġnat":1318,"ateg":1319,"Ġvarious":1320,"ĠâĢĺ":1321,"Ġcer":1322,"Ġstand":1323,"Ġperform":1324,"erc":1325,"Ġbetter":1326,"ud":1327,"Ġright":1328,"inc":1329,"be":1330,"ner":1331,"iod":1332,"Ġwant":1333,"Ġgovern":1334,"Ġbenef":1335,"Ġmethod":1336,"Ġbo":1337,"conom":1338,"ults":1339,"omes":1340,"ished":1341,"Ġcause":1342,"Ġbecome":1343,"aren":1344,"utr":1345,"for":1346,"000":1347,"erm":1348,"Ġplace":1349,"Ġfeel":1350,"Ġmeas":1351,"angu":1352,"Ġshe":1353,"ĠDe":1354,"Ġmaking":1355,"Ġstill":1356,"Ġcontrol":1357,"ĠIs":1358,"thers":1359,"Ġlight":1360,"agement":1361,"ock":1362,"Ġdev":1363,"Ġblood":1364,"Ġopp":1365,"ury":1366,"ĠBe":1367,"ĠTr":1368,"ull":1369,"Ġsw":1370,"oci":1371,"ocus":1372,"Ġdon":1373,"Ġfew":1374,"Ġcho":1375,"Ġpublic":1376,"Ġti":1377,"ats":1378,"Ġsug":1379,"Ġplant":1380,"the":1381,"Ġspe":1382,"Ġconn":1383,"ĠSp":1384,"toms":1385,"ouse":1386,"ake":1387,"20":1388,"ex":1389,"oh":1390,"Ġthree":1391,"bers":1392,"Ġimpact":1393,"Ġoper":1394,"ĠSh":1395,"ogn":1396,"atter":1397,"Ġ18":1398,"ĠSome":1399,"ording":1400,"ĠRes":1401,"ently":1402,"Ġchallen":1403,"Ġdel":1404,"Ġques":1405,"ids":1406,"Ġsit":1407,"Ġcreate":1408,"Ġreal":1409,"Ġwrit":1410,"ying":1411,"Ġtreatment":1412,"Ġdisease":1413,"vers":1414,"Ġprom":1415,"omp":1416,"Ġthough":1417,"Ġleg":1418,"Ġsus":1419,"inal":1420,"atch":1421,"Ġsystems":1422,"rent":1423,"Ġreduc":1424,"tend":1425,"ĠSo":1426,"ances":1427,"Ġtechnology":1428,"uals":1429,"Ġspecific":1430,"ason":1431,"Ġexperience":1432,"Ġbusiness":1433,"Ġimprove":1434,"Ġsuc":1435,"ession":1436,"ains":1437,"Ġtool":1438,"Ġpotential":1439,"ĠWith":1440,"aining":1441,"Ġtre":1442,"ways":1443,"Ġdoc":1444,"ource":1445,"ision":1446,"âĢĶ":1447,"ton":1448,"ĠSc":1449,"work":1450,"ined":1451,"Ġlarge":1452,"ploy":1453,"Ġmove":1454,"ense":1455,"Ġtem":1456,"ication":1457,"Ġeconom":1458,"Ġfocus":1459,"uture":1460,"The":1461,"Ġcontain":1462,"Ġprevent":1463,"Ġpass":1464,"less":1465,"tabl":1466,"ially":1467,"Ġtrad":1468,"ah":1469,"Ġneeds":1470,"Ġmark":1471,"Ġsymp":1472,"Ġmen":1473,"Ġ10":1474,"me":1475,"Ġrole":1476,"Ġavail":1477,"Ġcalled":1478,"Ġtop":1479,"Ġnec":1480,"Ġlim":1481,"ortun":1482,"titu":1483,"lement":1484,"osed":1485,"Ġmeans":1486,"Ġpresent":1487,"Ġlow":1488,"ering":1489,"ute":1490,"Ġmar":1491,"gth":1492,"Ġnatural":1493,"Ġarea":1494,"acy":1495,"ological":1496,"Ġstruc":1497,"Ġtra":1498,"Ġ7":1499,"Ġlook":1500,"urther":1501,"Ġanim":1502,"Ġlangu":1503,"Ġdue":1504,"Ġessential":1505,"Ġlevels":1506,"ĠOne":1507,"ĠWhile":1508,"Ġapplic":1509,"Ġparticular":1510,"Ġareas":1511,"ee":1512,"ieve":1513,"ike":1514,"Ġanother":1515,"aging":1516,"Ġtype":1517,"Ġbas":1518,"ards":1519,"Ġseveral":1520,"outh":1521,"Ġpossible":1522,"ape":1523,"ples":1524,"ĠNew":1525,"Ġconsum":1526,"iven":1527,"ield":1528,"Ġoffer":1529,"Ġensure":1530,"atic":1531,"ris":1532,"Ġconditions":1533,"Ġcal":1534,"Ġdid":1535,"Ġlaw":1536,"Ġdig":1537,"ores":1538,"ĠQ":1539,"Ġmul":1540,"par":1541,"Ġable":1542,"Ġent":1543,"Ġorder":1544,"ĠAt":1545,"Ġbehav":1546,"Ġhim":1547,"Ġothers":1548,"ĠPl":1549,"Ġhistory":1550,"Ġauth":1551,"ique":1552,"ced":1553,"ron":1554,"Ġmean":1555,"tional":1556,"uts":1557,"Ġkey":1558,"ĠCl":1559,"Ġdam":1560,"Ġhapp":1561,"Ġfre":1562,"Ġapproach":1563,"Ġidentif":1564,"Ġwomen":1565,"gin":1566,"Ġcontrib":1567,"Ġearly":1568,"ilities":1569,"Ġ8":1570,"Ġfuture":1571,"oor":1572,"Ġagainst":1573,"ank":1574,"Ġcertain":1575,"table":1576,"Ġsuccess":1577,"Ġindividuals":1578,"Ġpress":1579,"Ġsl":1580,"ĠEng":1581,"Ġcul":1582,"abor":1583,"ledge":1584,"Ġbased":1585,"get":1586,"cle":1587,"Ġfamily":1588,"Ġter":1589,"Ġreduce":1590,"Ġopen":1591,"jor":1592,"Ġenc":1593,"ether":1594,"Ġoccur":1595,"Ġfunction":1596,"urity":1597,"ĠWor":1598,"agn":1599,"az":1600,"tures":1601,"Ġintern":1602,"Ġinst":1603,"Ġperiod":1604,"ern":1605,"ub":1606,"Ġskills":1607,"Ġavailable":1608,"imate":1609,"ression":1610,"Ġlik":1611,"Ġthings":1612,"Ġhy":1613,"Ġsymptoms":1614,"jects":1615,"Ġunderstanding":1616,"Ġflow":1617,"ots":1618,"Ġcurrent":1619,"orn":1620,"af":1621,"ator":1622,"ote":1623,"wh":1624,"asing":1625,"Ġproblems":1626,"Ġreport":1627,"Ġel":1628,"ĠPh":1629,"Ġquality":1630,"Ġcome":1631,"aces":1632,"Ġeffic":1633,"aking":1634,"illion":1635,"Ġresult":1636,"Ġeducation":1637,"Ġmaintain":1638,"Ġnecess":1639,"Ġtypes":1640,"Ġtemper":1641,"tens":1642,"Ġincrease":1643,"Ġartic":1644,"Ġ200":1645,"Ġphysical":1646,"Ġnet":1647,"Ġplants":1648,"Ġbuilding":1649,"Ġrespons":1650,"ken":1651,"ush":1652,"Ġassoci":1653,"Ġgovernment":1654,"Ġdist":1655,"Ġhard":1656,"iver":1657,"Ġrev":1658,"Ġissues":1659,"roduc":1660,"ones":1661,"Ġold":1662,"eck":1663,"Ġcollec":1664,"ived":1665,"Ġcomb":1666,"ling":1667,"Ġgrowth":1668,"Ġinterest":1669,"Ġmajor":1670,"Ġhere":1671,"Ġsens":1672,"Ġrun":1673,"ĠIns":1674,"Ġteam":1675,"Ġproblem":1676,"Ġnon":1677,"Ġspecies":1678,"ilar":1679,"ĠCan":1680,"Ġdiffic":1681,"Ġey":1682,"Ġlocal":1683,"Ġinclud":1684,"Ġfollowing":1685,"Ġcommunity":1686,"ission":1687,"gest":1688,"19":1689,"idence":1690,"ĠâĢĶ":1691,"atory":1692,"Ġdeterm":1693,"Ġamong":1694,"pecially":1695,"crib":1696,"gether":1697,"ĠDr":1698,"Ġart":1699,"Ġach":1700,"ides":1701,"Ġhealthy":1702,"Ġchanges":1703,"ests":1704,"amp":1705,"ĠPr":1706,"Ġproject":1707,"Ġtimes":1708,"leep":1709,"Ġmind":1710,"ief":1711,"tas":1712,"Ġvir":1713,"Ġways":1714,"Ġmil":1715,"Ġbenefits":1716,"Ġ9":1717,"Ġwar":1718,"Ġlanguage":1719,"vely":1720,"ators":1721,"Ġage":1722,"Ġrece":1723,"amm":1724,"riend":1725,"Ġmulti":1726,"ils":1727,"ety":1728,"Ġbir":1729,"Ġgroup":1730,"Ġcase":1731,"ĠLe":1732,"action":1733,"Ġstrateg":1734,"Ġcy":1735,"ters":1736,"irc":1737,"Ġbi":1738,"..":1739,"Ġactivities":1740,"Ġfil":1741,"Ġprofession":1742,"Ġanti":1743,"ficial":1744,"Ġacross":1745,"ĠComm":1746,"Ġhead":1747,"sy":1748,"Ġrange":1749,"Ġaddress":1750,"Ġstress":1751,"Ġrele":1752,"ending":1753,"ised":1754,"Ġspecial":1755,"Ġexperi":1756,"Ġmet":1757,"atures":1758,"Ġheart":1759,"Ġatt":1760,"olution":1761,"Ġdog":1762,"Ġclear":1763,"aster":1764,"Ġmonth":1765,"ĠAI":1766,"ibility":1767,"Ġwhy":1768,"Ġindividual":1769,"Ġcruc":1770,"ĠAll":1771,"Ġknowledge":1772,"ires":1773,"Ġlot":1774,"Ġalways":1775,"Ġfree":1776,"Ġcountry":1777,"ĠOr":1778,"Ġthink":1779,"Ġhelps":1780,"ĠAmerican":1781,"obal":1782,"Ġeffective":1783,"istic":1784,"ames":1785,"Ġproducts":1786,"Ġnutr":1787,"aper":1788,"tar":1789,"izing":1790,"Ġtas":1791,"Ġlikely":1792,"Ġresources":1793,"Ġmanagement":1794,"Ġworking":1795,"por":1796,"Ġhigher":1797,"Ġemploy":1798,"ument":1799,"ultural":1800,"Ġwee":1801,"Ġfactors":1802,"Ġespecially":1803,"Ġmedical":1804,"ane":1805,"Ġstrong":1806,"une":1807,"itor":1808,"Ġrepres":1809,"ĠCol":1810,"Ġmaterials":1811,"Ġsince":1812,"Ġpoint":1813,"Ġeffects":1814,"Ġproduction":1815,"tries":1816,"Ġself":1817,"aring":1818,"Ġstor":1819,"man":1820,"Ġcrucial":1821,"gen":1822,"Ġobs":1823,"Ġorig":1824,"ians":1825,"Ġresults":1826,"Ġer":1827,"Ġcells":1828,"Ġopportun":1829,"face":1830,"urop":1831,"ĠUniversity":1832,"Ġavoid":1833,"Ġnear":1834,"ina":1835,"Ġconcer":1836,"ommend":1837,"ope":1838,"oney":1839,"Ġusually":1840,"Ġbro":1841,"iting":1842,"ecti":1843,"Ġsustain":1844,"Ġpersonal":1845,"Ġspace":1846,"aves":1847,"ffic":1848,"Ġprim":1849,"Ġsure":1850,"Ġrelations":1851,"Ġinflu":1852,"Ġtoday":1853,"Ġworks":1854,"ĠUnited":1855,"Ġsay":1856,"eds":1857,"though":1858,"Ġdiet":1859,"Ġbrain":1860,"oto":1861,"oad":1862,"ands":1863,"raph":1864,"Ġyoun":1865,"Ġloss":1866,"Ġturn":1867,"Ġdiscuss":1868,"ĠHis":1869,"Ġexc":1870,"ember":1871,"anced":1872,"Ġvol":1873,"Ġcomplex":1874,"Ġtogether":1875,"Ġcharacter":1876,"Ġmarket":1877,"Ġparen":1878,"Ġaddition":1879,"mb":1880,"aps":1881,"Ġability":1882,"ysis":1883,"Ġ&":1884,"tegr":1885,"Ġclean":1886,"Ġlast":1887,"Ġgive":1888,"Ġview":1889,"Ġsomething":1890,"ustry":1891,"Ġmakes":1892,"ging":1893,"ax":1894,"ĠCons":1895,"com":1896,"elves":1897,"Ġlower":1898,"ode":1899,"ident":1900,"Ġsecond":1901,"Ġfurther":1902,"Ġskin":1903,"Ġfar":1904,"wards":1905,"bon":1906,"Ġclimate":1907,"ring":1908,"Ġcri":1909,"Ġalong":1910,"Ġcourse":1911,"Ġshort":1912,"ours":1913,"inking":1914,"Ġservices":1915,"uter":1916,"ications":1917,"Ġcirc":1918,"ck":1919,"Ġrecogn":1920,"Ġrecommend":1921,"erap":1922,"Ġcost":1923,"tual":1924,"Ġemo":1925,"tention":1926,"Ġput":1927,"Ġcancer":1928,"ĠZ":1929,"Ġill":1930,"Ġchem":1931,"Ġname":1932,"Ġcountries":1933,"Ġcases":1934,"ooking":1935,"Ġlittle":1936,"urope":1937,"Ġdirect":1938,"Ġele":1939,"Ġfund":1940,".,":1941,"acc":1942,"Ġreach":1943,"Ġamount":1944,"Ġpatients":1945,"uit":1946,"ox":1947,"truction":1948,"Ġenh":1949,"ns":1950,"Ġappear":1951,"Ġpractic":1952,"ained":1953,"Ġsleep":1954,"Ġcover":1955,"Ġprovides":1956,"ches":1957,"Ġfour":1958,"Ġenti":1959,"not":1960,"Ġestabl":1961,"Ġdays":1962,"ret":1963,"ĠBl":1964,"Ġge":1965,"anta":1966,"Ġsitu":1967,"acks":1968,"Ġexerc":1969,"ancial":1970,"Ġtal":1971,"Ġpolic":1972,"Ġsing":1973,"Ġcomes":1974,"Ġfact":1975,"Ġsoil":1976,"Ġsays":1977,"Ġbal":1978,"Ġsimilar":1979,"Ġbegin":1980,"ening":1981,"Ġenough":1982,"eth":1983,"ule":1984,"utes":1985,"ĠAf":1986,"Ġpressure":1987,"ĠHealth":1988,"Ġarticle":1989,"Ġnecessary":1990,"ooks":1991,"cept":1992,"Ġmental":1993,"ĠEurope":1994,"Ġsafe":1995,"Ġabs":1996,"Ġindustry":1997,"Ġregular":1998,"sc":1999,"Ġprotect":2000,"Ġ202":2001,"uf":2002,"Ġvalue":2003,"eral":2004,"oph":2005,"Ġrefer":2006,"Ġet":2007,"ĠGod":2008,"aged":2009,"Ġrad":2010,"ĠHere":2011,"of":2012,"use":2013,"Ġaway":2014,"ĠThat":2015,"Ġsal":2016,"Ġneg":2017,"Ġmach":2018,"oot":2019,"Ġcontr":2020,"ral":2021,"ney":2022,"ĠStates":2023,"orth":2024,"Ġquick":2025,"Ġwhether":2026,"pos":2027,"tell":2028,"Ġpopular":2029,"Ġsafety":2030,"Ġside":2031,"Ġpay":2032,"Ġnext":2033,"Ġfish":2034,"Ġuntil":2035,"Ġauthor":2036,"usion":2037,"Ġcus":2038,"Ġmic":2039,"Ġhol":2040,"Ġtraining":2041,"Ġcoll":2042,"sw":2043,"pr":2044,"Ġsun":2045,"self":2046,"ump":2047,"min":2048,"Ġonline":2049,"Ġgiven":2050,"Ġrelationship":2051,"Ġfull":2052,"Ġlet":2053,"Ġhaving":2054,"Ġpoli":2055,"rength":2056,"Ġcondition":2057,"ĠAc":2058,"Ġinj":2059,"Ġpractice":2060,"Ġpred":2061,"Ġassociated":2062,"Ġ15":2063,"Ġcontent":2064,"ĠUS":2065,"Ġkind":2066,"Ġactivity":2067,"ĠFr":2068,"amin":2069,"Ġunique":2070,"isten":2071,"ream":2072,"ĠYour":2073,"Ġmeasure":2074,"Ġnature":2075,"ĠAdd":2076,"Ġbook":2077,"Ġpercent":2078,"bit":2079,"ĠDis":2080,"ither":2081,"Ġparticip":2082,"Ġmodel":2083,"ively":2084,"Ġterm":2085,"edi":2086,"ĠPe":2087,"Ġsource":2088,"Ġallows":2089,"ably":2090,"'t":2091,"Ġfield":2092,"ned":2093,"ĠDo":2094,"dr":2095,"ĠSch":2096,"Ġengine":2097,"Ġelectr":2098,"ipp":2099,"Ġenvironmental":2100,"Ġiniti":2101,"ĠEar":2102,"gress":2103,"Ġbig":2104,"Ġasp":2105,"Ġglobal":2106,"Ġground":2107,"Ġextr":2108,"ĠAcc":2109,"ĠMed":2110,"Ġwr":2111,"Ġur":2112,"ĠNational":2113,"Ġoverall":2114,"Ġbuild":2115,"sych":2116,"Ġwords":2117,"Ġgoing":2118,"Ġdeta":2119,"port":2120,"yn":2121,"ĠAfter":2122,"Ġassess":2123,"earch":2124,"ules":2125,"ĠCent":2126,"based":2127,"utions":2128,"Ġyoung":2129,"time":2130,"Ġlay":2131,"ĠComp":2132,"Ġtools":2133,"Ġintegr":2134,"Ġlater":2135,"Ġlives":2136,"Ġline":2137,"ĠNe":2138,"Ġfrequ":2139,"Ġtherap":2140,"Ġsecurity":2141,"ered":2142,"ections":2143,"Ġleast":2144,"Ġdeath":2145,"Ġweight":2146,"tead":2147,"Ġmeet":2148,"acts":2149,"Ġharm":2150,"Ġrepresent":2151,"Ġcompany":2152,"Ġfinancial":2153,"ites":2154,"Ġsize":2155,"Ġperformance":2156,"ĠAfric":2157,"ulations":2158,"Ġabove":2159,"ired":2160,"Ġincreased":2161,"Ġsound":2162,"ready":2163,"Ġheat":2164,"ining":2165,"Ġstrength":2166,"mit":2167,"iency":2168,"Ġdet":2169,"Ġfeed":2170,"idd":2171,"ĠMe":2172,"lying":2173,"Ġz":2174,"Ġfriend":2175,"ĠMan":2176,"Ġgeneral":2177,"care":2178,"nov":2179,"Ġlive":2180,"Ġindic":2181,"Ġcompon":2182,"Ġdamage":2183,"times":2184,"astic":2185,"Ġscience":2186,"ĠCO":2187,"app":2188,"Ġhouse":2189,"Ġreason":2190,"Ġcolor":2191,"ont":2192,"vention":2193,"Ġstudies":2194,"Ġmillion":2195,"Ġpopulation":2196,"Ġbehavior":2197,"tually":2198,"Ġtu":2199,"xim":2200,"ensive":2201,"iation":2202,"Ġdifficult":2203,"Ġincreasing":2204,"Ġsum":2205,"Ġwind":2206,"Ġrequired":2207,"Ġsimple":2208,"Ġcompan":2209,"ograph":2210,"Ġ12":2211,"Ġquestions":2212,"osis":2213,"Ġstructure":2214,"Ġpost":2215,"Ġselec":2216,"Ġdone":2217,"Ġjour":2218,"Ġchallenges":2219,"Ġ$":2220,"Ġconsidered":2221,"Ġmethods":2222,"Ġpattern":2223,"Ġneeded":2224,"Ġregion":2225,"Ġalready":2226,"Ġrepl":2227,"iques":2228,"ormal":2229,"rel":2230,"ibr":2231,"Ġmoney":2232,"Ġvariety":2233,"ified":2234,"Ġec":2235,"alu":2236,"Ġpaper":2237,"Ġgas":2238,"light":2239,"most":2240,"erous":2241,"Ġaffect":2242,"Ġred":2243,"actions":2244,"ĠSe":2245,"ik":2246,"Ġstory":2247,"Ġsurface":2248,"yle":2249,"roll":2250,"Ġimplement":2251,"ising":2252,"aling":2253,"Ġcentury":2254,"ĠMany":2255,"Ġdigital":2256,"Ġcos":2257,"ftw":2258,"Ġtar":2259,"Ġdescrib":2260,"Ġgene":2261,"Ġpositive":2262,"Ġtemperature":2263,"reen":2264,"Ġtaking":2265,"Ġsense":2266,"ĠStud":2267,"Ġeconomic":2268,"Ġcontinu":2269,"Ġnever":2270,"aily":2271,"Ġfat":2272,"ftware":2273,"echan":2274,"room":2275,"aced":2276,"Ġvers":2277,"Ġgreen":2278,"Ġseen":2279,"ming":2280,"Ġhowever":2281,"Ġevent":2282,"Ġmanuf":2283,"ĠDes":2284,"Ġpriv":2285,"Ġanalysis":2286,"Ġparts":2287,"Ġrate":2288,"Ġeasy":2289,"Ġconduc":2290,"Ġstat":2291,"ged":2292,"Ġwin":2293,"Ġleft":2294,"Ġdeep":2295,"Ġencour":2296,"Ġelectric":2297,"Ġdesigned":2298,"Ġliving":2299,"Ġarch":2300,"Ġinvest":2301,"Ġquestion":2302,"Ġgroups":2303,"Ġdisord":2304,"Ġmis":2305,"ades":2306,"Ġdiagn":2307,"Ġprote":2308,"Ġthroughout":2309,"Ġaccording":2310,"Ġthems":2311,"Ġanimals":2312,"Ġcat":2313,"sequ":2314,"Ġthemselves":2315,"10":2316,"Ġdeveloped":2317,"gs":2318,"urs":2319,"emic":2320,"Ġbelow":2321,"crip":2322,"Ġpast":2323,"Ġsingle":2324,"Ġdrug":2325,"Ġprec":2326,"Ġflu":2327,"Ġhistor":2328,"ises":2329,"by":2330,"erve":2331,"Ġmodern":2332,"Ġcut":2333,"Ġfoods":2334,"Ġfail":2335,"Ġrelated":2336,"Ġaware":2337,"Ġtraditional":2338,"Ġlif":2339,"Ġonce":2340,"Ġfall":2341,"Ġeffecti":2342,"ropri":2343,"Ġchemical":2344,"Ġconte":2345,"Ġproduce":2346,"Ġaccur":2347,"itiz":2348,"Ġcity":2349,"ners":2350,"Ġemerg":2351,"Ġproviding":2352,"Ġ.":2353,"Ġdepend":2354,"Ġarr":2355,"Ġincludes":2356,"Ġminim":2357,"iec":2358,"Ġrather":2359,"Ġresearchers":2360,"hic":2361,"Ġcannot":2362,"Ġpath":2363,"Ġpractices":2364,"Ġeffect":2365,"aving":2366,"fully":2367,"Ġwaste":2368,"Ġansw":2369,"Ġcreated":2370,"tab":2371,"oints":2372,"Ġcheck":2373,"ĠResearch":2374,"Ġcarbon":2375,"ĠMore":2376,"Ġtechniques":2377,"Ġ[":2378,"Ġask":2379,"alf":2380,"Ġrespon":2381,"Ġfore":2382,"Ġattention":2383,"Ġcauses":2384,"lex":2385,"Ġfamil":2386,"aim":2387,"ĠCar":2388,"lish":2389,"Ġmass":2390,"Ġapplications":2391,"isions":2392,"Ġra":2393,"uel":2394,"Ġdraw":2395,"Ġoil":2396,"asc":2397,"Ġwhite":2398,"Ġwhole":2399,"eti":2400,"istance":2401,"Ġreally":2402,"Ġmusic":2403,"Ġbar":2404,"cy":2405,"ĠMar":2406,"ĠUs":2407,"Ġexplore":2408,"ĠGr":2409,"Ġce":2410,"Ġcompl":2411,"ĠPre":2412,"Ġcommunication":2413,"Ġentire":2414,"ird":2415,"tig":2416,"ulate":2417,"ID":2418,"Ġsources":2419,"Ġmembers":2420,"Ġcritical":2421,"Th":2422,"Ġidentify":2423,"Ġouts":2424,"Ġface":2425,"Ġguid":2426,"epend":2427,"Ġobserv":2428,"Ġsociety":2429,"Ġproduct":2430,"Ġdeg":2431,"tin":2432,"Ġaction":2433,"Ġfarm":2434,"Ġcreating":2435,"Ġsoftware":2436,"Ġtypically":2437,"Ġdaily":2438,"ĠBr":2439,"ply":2440,"ĠPar":2441,"Ġmeaning":2442,"Ġstudent":2443,"ips":2444,"Ġwriting":2445,"Ġachieve":2446,"Ġeither":2447,"ĠAss":2448,"iol":2449,"Ġdevices":2450,"Ġgen":2451,"ww":2452,"âĢĵ":2453,"Ġwebs":2454,"Ġlist":2455,"Ġthreat":2456,"Ġbecame":2457,"Ġspread":2458,"Ġtaken":2459,"Ġcalc":2460,"ĠWorld":2461,"Ġpo":2462,"Ġparents":2463,"Ġ199":2464,"Ġnetwork":2465,"verage":2466,"Ġparticularly":2467,"Ġservice":2468,"Ġleading":2469,"itation":2470,"ae":2471,"ime":2472,"Ġlonger":2473,"Ġpatient":2474,"tur":2475,"Ġgard":2476,"Ġbring":2477,"itch":2478,"itionally":2479,"ĠReg":2480,"hib":2481,"Ġmechan":2482,"Ġstep":2483,"Ġculture":2484,"osing":2485,"Ġbacter":2486,"anti":2487,"Ġutil":2488,"Ġmonths":2489,"ĠIntern":2490,"ĠNo":2491,"igr":2492,"Ġ17":2493,"Ġcaused":2494,"Ġevidence":2495,"Ġcomputer":2496,"Ġprofessional":2497,"Ġphoto":2498,"Ġcompanies":2499,"Ġreflec":2500,"joy":2501,"istics":2502,"Ġstay":2503,"ery":2504,"Ġidea":2505,"Ġsubst":2506,"Ġindustr":2507,"Ġadap":2508,"Ġprinc":2509,"ĠIndia":2510,"Ġnational":2511,"ĠBrit":2512,"atives":2513,"Ġver":2514,"elling":2515,"Ġoptim":2516,"Ġaim":2517,"ister":2518,"ĠFrom":2519,"50":2520,"Ġregard":2521,"NA":2522,"way":2523,"oman":2524,"ĠEnglish":2525,"issions":2526,"tt":2527,"Ġdeveloping":2528,"isting":2529,"ption":2530,"gu":2531,"Ġpsych":2532,"Ġanaly":2533,"Ġsolar":2534,"Ġrights":2535,"pose":2536,"ĠApp":2537,"Ġshare":2538,"ened":2539,"bo":2540,"Ġblack":2541,"ologies":2542,"ried":2543,"osp":2544,"Ġactually":2545,"ler":2546,"Ġtowards":2547,"Ġann":2548,"Ġsuff":2549,"Ġlab":2550,"Ġfire":2551,"Ġcommunities":2552,"Ġ30":2553,"iber":2554,".\"":2555,"Ġvide":2556,"Ġimportance":2557,"Ġprin":2558,"Ġrequires":2559,"Ġterms":2560,"Ġintroduc":2561,"her":2562,"Ġmultiple":2563,"Ġeat":2564,"Ġtell":2565,"ĠGerm":2566,"imin":2567,"Ġreading":2568,"Ġweek":2569,"Ġprob":2570,"Ġcorre":2571,"Ġextre":2572,"ĠUnd":2573,"Ġgrowing":2574,"Ġhours":2575,"uted":2576,"Ġever":2577,"izations":2578,"illed":2579,"ĠAccording":2580,"ĠAm":2581,"thern":2582,"Ġprograms":2583,"Ġfive":2584,"enced":2585,"ann":2586,"Ġwild":2587,"Ġstates":2588,"Ġpolitical":2589,"nal":2590,"Ġmonitor":2591,"Ġeye":2592,"Ġemp":2593,"Ġword":2594,"ĠTe":2595,"Ġinnov":2596,"iction":2597,"ĠKe":2598,"Ġwal":2599,"Ġuses":2600,"Ġinves":2601,"ĠRec":2602,"Ġbreak":2603,"Ġdiseases":2604,"ĠAb":2605,"ienti":2606,"ĠSu":2607,"Ġreturn":2608,"Ġcontinue":2609,"ories":2610,"Ġappropri":2611,"Ġmedia":2612,"ison":2613,"view":2614,"Ġremov":2615,"Ġevents":2616,"reh":2617,"Ġprocesses":2618,"Ġeasily":2619,"ĠMost":2620,"eed":2621,"Ġenjoy":2622,"ĠShe":2623,"Ġcontact":2624,"Ġautom":2625,"hy":2626,"iable":2627,"ĠCal":2628,"Ġresponse":2629,"Ġfeatures":2630,"Ġtext":2631,"Ġefficient":2632,"lue":2633,"Ġslow":2634,"Ġitself":2635,"active":2636,"gric":2637,"Ġvit":2638,"Ġlooking":2639,"Ġquickly":2640,"ivil":2641,"let":2642,"Ġsuper":2643,"Ġtry":2644,"iverse":2645,"Ġrelig":2646,"ma":2647,"Ġ16":2648,"Ġteeth":2649,"Ġrecent":2650,"Ġsat":2651,"Ġsetting":2652,"Ġmanufact":2653,"Ġlink":2654,"mbol":2655,"like":2656,"Ġgetting":2657,"ĠOur":2658,"aries":2659,"Ġcop":2660,"ĠWar":2661,"ientists":2662,"Ġsite":2663,"Ġaud":2664,"ĠSoc":2665,"rup":2666,"Ġmatter":2667,"ĠPol":2668,"Ġposition":2669,"ĠImp":2670,"Ġexercise":2671,"Ġpor":2672,"ĠDep":2673,"Ġprogress":2674,"Ġinvolves":2675,"Ġprior":2676,"Ġdiscover":2677,"Ġvehic":2678,"ipment":2679,"Ġlove":2680,"ival":2681,"Ġissue":2682,"sh":2683,"Ġpiec":2684,"sp":2685,"gn":2686,"Ġvacc":2687,"orpor":2688,"Ġhealthcare":2689,"overy":2690,"ieved":2691,"izes":2692,"Ġthought":2693,"Ġcultural":2694,"Ġheav":2695,"ĠAlthough":2696,"Ġfinding":2697,"Ġmix":2698,"Ġ0":2699,"hood":2700,"mon":2701,"ley":2702,"Ġful":2703,"resh":2704,"ĠSouth":2705,"ĠSec":2706,"Ġcommit":2707,"istr":2708,"Ġlo":2709,"Ġmovement":2710,"Ġsomeone":2711,"osph":2712,"yl":2713,"ĠLear":2714,"Ġir":2715,"ĠCoun":2716,"Ġliter":2717,"Ġusers":2718,"uth":2719,"Ġsurv":2720,"ĠOf":2721,"being":2722,"ored":2723,"abet":2724,"Ġten":2725,"Ġaltern":2726,"Ġmor":2727,"Ġsepar":2728,"Ġinvolved":2729,"ĠOver":2730,"ĠIm":2731,"asons":2732,"ĠEm":2733,"Ġtherapy":2734,"ĠRep":2735,"Ġadvanta":2736,"Ġstrategies":2737,"go":2738,"ows":2739,"ets":2740,"tended":2741,"Ġsustainable":2742,"ĠJoh":2743,"Ġsupply":2744,"Ġtax":2745,"Ġshows":2746,"Ġdetermine":2747,"ole":2748,"inary":2749,"ĠGu":2750,"Ġanx":2751,"Ġdoesn":2752,"Ġinfl":2753,"Ġox":2754,"ght":2755,"Ġprovided":2756,"Ġyourself":2757,"ervation":2758,"Ġprotection":2759,"ĠSte":2760,"onic":2761,"Ġcosts":2762,"yond":2763,"Ġalmost":2764,"ai":2765,"ounts":2766,"Ġoffers":2767,"ĠFin":2768,"Ġappl":2769,"Ġyet":2770,"ales":2771,"Ġoptions":2772,"Ġprevious":2773,"Ġinstall":2774,"ientific":2775,"Ġdoing":2776,"osure":2777,"Ġmicro":2778,"Ġforms":2779,"ĠEarth":2780,"Ġevalu":2781,"Ġwood":2782,"Ġsubject":2783,"Ġeth":2784,"Ġbreath":2785,"Ġstandard":2786,"Ġadj":2787,"know":2788,"Ġbab":2789,"Ġprep":2790,"Ġled":2791,"ĠAmerica":2792,"ishing":2793,"new":2794,"rown":2795,"Ġgreater":2796,"Ġproced":2797,"ER":2798,"Ġtransport":2799,"Ġgame":2800,"Ġetc":2801,"Ġdecision":2802,"Ġla":2803,"Ġserious":2804,"Ġfer":2805,"ender":2806,"Ġupon":2807,"Ġpublished":2808,"Ġprefer":2809,"Ġthing":2810,"ctions":2811,"Ġconc":2812,"ables":2813,"Ġpan":2814,"AS":2815,"Ġwide":2816,"ams":2817,"Ġprimary":2818,"Ġsent":2819,"put":2820,"Ġcomplete":2821,"onstr":2822,"Ġschools":2823,"Ġopportunities":2824,"Ġbuilt":2825,"Ġsam":2826,"Ġadditional":2827,"Ġclose":2828,"reg":2829,"Ġprojects":2830,"Ġdistrib":2831,"Ġpic":2832,"igure":2833,"Ġblock":2834,"ym":2835,"Ġplat":2836,"Ġbur":2837,"Ġul":2838,"avor":2839,"Ġbatter":2840,"irm":2841,"Ġsimply":2842,"ification":2843,"Ġtakes":2844,"Ġsteps":2845,"ung":2846,"Ġrecord":2847,"ĠAdditionally":2848,"Ġuser":2849,"Ġlack":2850,"//":2851,"Ġinsp":2852,"Ġshown":2853,"Ġideas":2854,"itable":2855,"Ġoutside":2856,"Ġequipment":2857,"urch":2858,"ĠNorth":2859,"Ġreducing":2860,"tree":2861,"tivity":2862,"onom":2863,"Ġsymbol":2864,"âĢ¦":2865,"Ġlog":2866,"Ġdang":2867,"Ġtravel":2868,"Ġchoose":2869,"Ġdispl":2870,"Ġhighly":2871,"Ġtesting":2872,"arily":2873,"atively":2874,"Ġbot":2875,"Ġfores":2876,"Ġmeasures":2877,"we":2878,"ze":2879,"Ġelements":2880,"Ġ100":2881,"Ġtur":2882,"itary":2883,"cient":2884,"Ġcontribute":2885,"Ġtarget":2886,"Ġspir":2887,"arr":2888,"Ġapplication":2889,"Ġpoor":2890,"Ġexperiences":2891,"uries":2892,"Ġmess":2893,"Ġrisks":2894,"Wh":2895,"Ġkids":2896,"Ġvirus":2897,"lebr":2898,"ĠGe":2899,"Ġbasic":2900,"ĠAustr":2901,"ban":2902,"Ġsometimes":2903,"ork":2904,"fect":2905,"Ġdemand":2906,"Ġtree":2907,"://":2908,"Ġbalance":2909,"Ġnormal":2910,"Ġreview":2911,"Ġ11":2912,"Ġcame":2913,"Ġdeb":2914,"Ġtrue":2915,"icine":2916,"Ġexpress":2917,"Ġgenerally":2918,"unch":2919,"Ġhar":2920,"Ġdifference":2921,"Ġappropriate":2922,"Ġcompreh":2923,"ĠMay":2924,"Ġimage":2925,"ĠGo":2926,"artment":2927,"ĠX":2928,"Ġestim":2929,"Ġcard":2930,"Ġsolutions":2931,"ĠUse":2932,"Ġprop":2933,"dom":2934,"Ġsex":2935,"30":2936,"Ġinfection":2937,"pite":2938,"Ġexperim":2939,"tif":2940,"Ġrich":2941,"ĠDuring":2942,"Ġhumans":2943,"Ġcustom":2944,"ume":2945,"Ġviol":2946,"Ġhalf":2947,"Ġtransform":2948,"abetes":2949,"iddle":2950,"Ġleaves":2951,"Ġclaim":2952,"Ġlegal":2953,"Ġsuggest":2954,"ĠPer":2955,"uting":2956,"Ġleaders":2957,"abilities":2958,"ĠCo":2959,"Ġcollabor":2960,"Ġwarm":2961,"Ġdry":2962,"Ġrout":2963,"Ġaverage":2964,"ĠInc":2965,"Ġsolution":2966,"Ġ14":2967,"ĠDec":2968,"oles":2969,"ĠFl":2970,"Ġdecre":2971,"Ġtotal":2972,"Ġcompared":2973,"oring":2974,"Ġstar":2975,"Ġbehind":2976,"Ġcred":2977,"Ġdirectly":2978,"Ġbelieve":2979,"Ġsugar":2980,"titute":2981,"oming":2982,"In":2983,"Ġsix":2984,"apan":2985,"Ġvalu":2986,"ĠAre":2987,"Ġdemonstr":2988,"Ġenter":2989,"Ġanimal":2990,"tiss":2991,"Ġeffectively":2992,"uck":2993,"ength":2994,"ĠWhy":2995,"ift":2996,"Ġhabit":2997,"Ġtrees":2998,"Ġspeed":2999,"Ġgrad":3000,"Ġones":3001,"Ġgoals":3002,"Ġseem":3003,"Ġinside":3004,"ĠCont":3005,"Ġinternational":3006,"Ġsn":3007,"Ġcomponents":3008,"Ġactive":3009,"hold":3010,"12":3011,"pro":3012,"ĠAnother":3013,"ĠNow":3014,"ancy":3015,"toc":3016,"Ġenhance":3017,"Ġnight":3018,"entially":3019,"Ġtend":3020,"enn":3021,"ystem":3022,"ĠLet":3023,"Ġresponsible":3024,"ulated":3025,"Ġbehavi":3026,"Ġhyd":3027,"ĠMin":3028,"ĠFirst":3029,"mber":3030,"Ġtiss":3031,"Ġmachine":3032,"Ġinfluence":3033,"Ġple":3034,"Ġbegan":3035,"Ġ'":3036,"Ġmath":3037,"Ġimmedi":3038,"Ġ50":3039,"Ġdoctor":3040,"Ġtechnologies":3041,"Ġfem":3042,"ĠCanad":3043,"Ġclos":3044,"Ġcorrect":3045,"ĠPres":3046,"Ġnegative":3047,"Ġsyn":3048,"ify":3049,"igence":3050,"Ġindepend":3051,"acing":3052,"ĠSchool":3053,"oud":3054,"Ġefficiency":3055,"tage":3056,"icate":3057,"coh":3058,"centr":3059,"Ġaccount":3060,"Ġrest":3061,"Ġsubs":3062,"Ġroad":3063,"Ġlimited":3064,"Ġjob":3065,"Ġadop":3066,"Ġteachers":3067,"uary":3068,"Ġcapac":3069,"ĠChina":3070,"Ġbacteria":3071,"iter":3072,"Ġdecisions":3073,"cohol":3074,"Ġhot":3075,"Ġconstruction":3076,"Ġtook":3077,"Ġcool":3078,"Ġpolicy":3079,"Ġlarger":3080,"ament":3081,"Ġfit":3082,"Ġanxiety":3083,"ulture":3084,"Ġsigns":3085,"oll":3086,"Ġinstead":3087,"temp":3088,"rought":3089,"Ġroom":3090,"Ġrequirements":3091,"Ġpatterns":3092,"Ġsearch":3093,"Ġpurpose":3094,"water":3095,"ras":3096,"Ġpoints":3097,"Ġimpl":3098,"ugg":3099,"ĠEduc":3100,"Ġvisual":3101,"Ġmanage":3102,"Ġsevere":3103,"Ġeating":3104,"Ġsignificantly":3105,"Ġprotein":3106,"Ġefforts":3107,"iled":3108,"Ġoutc":3109,"Ġwebsite":3110,"uly":3111,"Ġnor":3112,"ancing":3113,"Ġgoal":3114,"Ġdom":3115,"ĠJapan":3116,"ĠOther":3117,"Ġsituation":3118,"Ġvalues":3119,"Ġstarted":3120,"Ġbroad":3121,"apid":3122,"Ġdevice":3123,"Ġsil":3124,"Ġbecomes":3125,"ĠOnce":3126,"ĠTechn":3127,"Ġmom":3128,"kets":3129,"Ġfoot":3130,"vey":3131,"Ġwall":3132,"Ġconsist":3133,"Ġcamp":3134,"tro":3135,"Ġep":3136,"Ġsurround":3137,"Ġcelebr":3138,"isms":3139,"Ġthinking":3140,"Ġproduced":3141,"ĠEven":3142,"Ġorigin":3143,"oes":3144,"Ġbenefit":3145,"ellow":3146,"Ġwid":3147,"yr":3148,"uge":3149,"stant":3150,"AT":3151,"Ġscientists":3152,"icated":3153,"Ġeg":3154,"ĠFe":3155,"ĠState":3156,"AR":3157,"Ġap":3158,"Ġmodels":3159,"Ġforce":3160,"Ġcolle":3161,"odies":3162,"ĠChris":3163,"Ġhtt":3164,"Ġclin":3165,"tructure":3166,"Ġemotional":3167,"equ":3168,"rogen":3169,"Ġpack":3170,"Ġensuring":3171,"ublic":3172,"Ġintell":3173,"Ġconcentr":3174,"Ġacid":3175,"Ġexpect":3176,"ĠRead":3177,"Ġagric":3178,"uits":3179,"Ġresul":3180,"Ġscientific":3181,"Ġimmune":3182,"Ġbeyond":3183,"Ġpowerful":3184,"Ġchoice":3185,"idents":3186,"Ġorganizations":3187,"ĠChild":3188,"ministr":3189,"Ġdocument":3190,"Ġvideo":3191,"Ġpromot":3192,"fficient":3193,"ĠHigh":3194,"encies":3195,"à¤":3196,"amed":3197,"ounds":3198,"ĠGl":3199,"ict":3200,"ĠSm":3201,"18":3202,",\"":3203,"ĠAustral":3204,"ls":3205,"org":3206,"Ġfeet":3207,"Ġfa":3208,"Ġuseful":3209,"Ġnumbers":3210,"Ġadded":3211,"Ġban":3212,"ĠBec":3213,"ES":3214,"ĠAg":3215,"cles":3216,"ĠNot":3217,"Ġreasons":3218,"isc":3219,"take":3220,"ĠMon":3221,"tian":3222,"Ġattack":3223,"Ġcommonly":3224,"bre":3225,"Ġvital":3226,"Ġproperties":3227,"Ġhor":3228,"Ġeyes":3229,"Ġcode":3230,"Ġbusinesses":3231,"akes":3232,"Ġguide":3233,"Ġshape":3234,"tests":3235,"Ġweb":3236,"Ġhands":3237,"uments":3238,"Ġearth":3239,"Ġallowing":3240,"Ġact":3241,"ederal":3242,"Ġseason":3243,"Ġeveryone":3244,"Ġwritten":3245,"ronic":3246,"ĠBritish":3247,"Ġinvestig":3248,"Ġopportunity":3249,"estern":3250,"Ġnote":3251,"back":3252,"ĠRem":3253,"Ġteaching":3254,"Ġemissions":3255,"ana":3256,"Ġanswer":3257,"aft":3258,"Ġdefin":3259,"Ġworkers":3260,"asting":3261,"Ġmag":3262,"Ġbit":3263,"Ġcross":3264,"Ġtests":3265,"Ġweather":3266,"Ġing":3267,"Ġsqu":3268,"tery":3269,"ware":3270,"lear":3271,"Ġorganization":3272,"Ġreceive":3273,"inks":3274,"iance":3275,"Ġbad":3276,"Ġgain":3277,"Ġproperty":3278,"Ġframe":3279,"Ġscr":3280,"Ġtherefore":3281,"Ġstage":3282,"Ġremember":3283,"Ġ13":3284,"Ġexposure":3285,"Ġfamilies":3286,"illing":3287,"ĠÂ":3288,"ert":3289,"Ġpromote":3290,"Ġinstitu":3291,"ĠRed":3292,"Ġquite":3293,"Ġdest":3294,"Ġfriends":3295,"ĠSince":3296,"Ġalg":3297,"graph":3298,"Ġarm":3299,"tives":3300,"erson":3301,"Ġcold":3302,"acking":3303,"ĠGener":3304,"Ġmob":3305,"Ġrapid":3306,"Ġfuel":3307,"ĠScience":3308,"Ġtooth":3309,"Ġbooks":3310,"Ġfight":3311,"amic":3312,"Ġconcept":3313,"Ġpurch":3314,"Ġancient":3315,"life":3316,"ields":3317,"Ġconsumption":3318,"Ġstandards":3319,"essor":3320,"Ġexcess":3321,"den":3322,"ĠSim":3323,"Ġexamples":3324,"Ġhold":3325,"itis":3326,"Ġcentral":3327,"Ġaffected":3328,"Ġlate":3329,"ems":3330,"Ġtasks":3331,"Ġattemp":3332,"Ġlabor":3333,"Ġdark":3334,"Ġdogs":3335,"Ġlocation":3336,"ĠAlso":3337,"Ġseries":3338,"Ġattr":3339,"Ġgarden":3340,"Ġremains":3341,"Ġdou":3342,"ously":3343,"Ġweak":3344,"Ġrates":3345,"ĠDevelop":3346,"Ġgenetic":3347,"rench":3348,"Ġlandsc":3349,"tes":3350,"Ġadults":3351,"Ġconsequ":3352,"tenance":3353,"Ġmemory":3354,"Ġlimit":3355,"rec":3356,"Ġtalk":3357,"Ġspirit":3358,"Ġnews":3359,"Ġvary":3360,"Ġ198":3361,"âĢĿ.":3362,"Ġvege":3363,"VID":3364,"Ġinterp":3365,"ĠEuropean":3366,"ĠTheir":3367,"Ġincorpor":3368,"Ġsuccessful":3369,"Ġdiabetes":3370,"eration":3371,"ĠJew":3372,"Ġminutes":3373,"where":3374,"Ġcarry":3375,"Ġstrugg":3376,"aks":3377,"Ġaspects":3378,"ĠJohn":3379,"Ġincluded":3380,"fl":3381,"Ġroot":3382,"ees":3383,"ito":3384,"Ġperfect":3385,"ĠWater":3386,"Ġcontains":3387,"Ġoriginal":3388,"ror":3389,"Ġcivil":3390,"Ġcolon":3391,"ĠOp":3392,"clusion":3393,"Ġimages":3394,"ĠPeople":3395,"Ġsection":3396,"Ġprivate":3397,"ground":3398,"Ġstop":3399,"load":3400,"oster":3401,"Ġeasier":3402,"Ġconvers":3403,"tific":3404,"Ġjourney":3405,"Ġremain":3406,"iring":3407,"ios":3408,"Ġeducational":3409,"idge":3410,"Ġplastic":3411,"eding":3412,"Ġestablished":3413,"Ġconcep":3414,"works":3415,"Ġthus":3416,"Ġacad":3417,"Ġdeliver":3418,"Ġagree":3419,"Ġsou":3420,"ok":3421,"Ġisn":3422,"Ġeverything":3423,"ĠDay":3424,"Ġreve":3425,"ocr":3426,"Ġexact":3427,"ĠBecause":3428,"head":3429,"Ġwa":3430,"ĠEach":3431,"ĠKing":3432,"ĠRuss":3433,"Ġplanning":3434,"Ġvaluable":3435,"Ġdiv":3436,"rist":3437,"Ġtable":3438,"ĠEs":3439,"force":3440,"Ġactions":3441,"Ġthr":3442,"more":3443,"Ġsoon":3444,"Ġsugges":3445,"Ġreported":3446,"Ġsecure":3447,"ĠCom":3448,"Ġalcohol":3449,"Ġconven":3450,"Ġinstr":3451,"lands":3452,"Ġconstant":3453,"ĠBlack":3454,"ĠStr":3455,"Ġobtain":3456,"Ġ25":3457,"Ġcontroll":3458,"uty":3459,"Ġarchit":3460,"Ġweeks":3461,"Ġtex":3462,"Ġvic":3463,"We":3464,"Ġoption":3465,"iples":3466,"Ġlaws":3467,"phas":3468,"ĠEd":3469,"Ġcompeti":3470,"Ġshap":3471,"Ġthird":3472,"Ġeconomy":3473,"Ġhair":3474,"Ġbirth":3475,"IS":3476,"val":3477,"int":3478,"ĠIndian":3479,"ountain":3480,"ĠTherefore":3481,"ĠUnderstand":3482,"Ġpregn":3483,"Ġbeginning":3484,"Ġextra":3485,"Ġbase":3486,"Ġvisit":3487,"Ġfactor":3488,"Ã©":3489,"Ġearl":3490,"ĠMy":3491,"Ġpage":3492,"Ġcapacity":3493,"ĠMus":3494,"Ġ197":3495,"Ġasse":3496,"mission":3497,"Ġfast":3498,"iar":3499,"Ġthous":3500,"Ġnation":3501,"onds":3502,"ĠâĢ¢":3503,"Ġmuscle":3504,"Ġrecommended":3505,"Ġinflamm":3506,"Ġcapital":3507,"Ġplaces":3508,"Ġdepending":3509,"Ġlength":3510,"osition":3511,"ĠSw":3512,"Ġsmaller":3513,"ĠInter":3514,"ĠFurther":3515,"set":3516,"Ġrob":3517,"Ġbaby":3518,"Ġrelev":3519,"oke":3520,"ĠCOVID":3521,"Ġexpert":3522,"Ġinstruc":3523,"Ġconflic":3524,"Ġfresh":3525,"ĠTrans":3526,"Ġhun":3527,"bor":3528,"Ġconcerns":3529,"istry":3530,"ded":3531,"lation":3532,"ops":3533,"Ġspeak":3534,"encing":3535,"ĠMod":3536,"ĠSy":3537,"Ġnav":3538,"Ġmaintaining":3539,"Ġmention":3540,"Ġfear":3541,"Ġsea":3542,"cean":3543,"Ġreduced":3544,"Ġillness":3545,"15":3546,"...":3547,"Ġvision":3548,"urance":3549,"Ġpresence":3550,"ĠMo":3551,"Ġmouth":3552,"overn":3553,"Ġbirds":3554,"Ġadvance":3555,"Ġremove":3556,"Ġdirec":3557,"Ġcontext":3558,"Ġrelationships":3559,"iers":3560,"Ġpet":3561,"Ġwrite":3562,"Ġdat":3563,"pe":3564,"Ġmaxim":3565,"Ġrules":3566,"ĠYork":3567,"umb":3568,"Ġinstance":3569,"Ġcam":3570,"Ġhope":3571,"Ġemphas":3572,"Ġrise":3573,"ĠThen":3574,"ĠAfrica":3575,"arian":3576,"Ġestablish":3577,"Ġstorage":3578,"Ġimag":3579,"Ġtheory":3580,"Ġgives":3581,"Ġobjects":3582,"Ġconnection":3583,"ognitive":3584,"gal":3585,"Ġlocated":3586,"Ġdyn":3587,"Ġmilitary":3588,"ries":3589,"Ġfully":3590,"Ġprobably":3591,"eless":3592,"Ġabsor":3593,"ino":3594,"ĠII":3595,"Ġdiverse":3596,"Ġ196":3597,"Ġperspec":3598,"Ġadvanced":3599,"Ġnutrients":3600,"fort":3601,"ĠAfrican":3602,"ĠHer":3603,"Ġstim":3604,"ĠHar":3605,"Ġoccurs":3606,"Ġhistorical":3607,"ĠCommun":3608,"Ġi":3609,"que":3610,"eat":3611,"Ġemb":3612,"Ġobj":3613,"Ġexisting":3614,"ords":3615,"vest":3616,"Ġvul":3617,"ĠEl":3618,"Ġextens":3619,"Ġeffort":3620,"related":3621,"wide":3622,"Ġflex":3623,"Ġproperly":3624,"Ġdeal":3625,"ilit":3626,"gery":3627,"Ġcloth":3628,"Ġlines":3629,"Ġwond":3630,"Ġtrade":3631,"Ġfunctions":3632,"Ġ40":3633,"bits":3634,"tely":3635,"Ġprice":3636,"Ġmill":3637,"PA":3638,"bal":3639,"ĠTw":3640,"ĠProf":3641,"iding":3642,"ĠAv":3643,"wise":3644,"Ġwinter":3645,"Ġbul":3646,"Ġheld":3647,"Ġfix":3648,"tificial":3649,"Ġexpected":3650,"Ġtips":3651,"ĠTyp":3652,"Ġrain":3653,"Ġball":3654,"ĠData":3655,"Ġago":3656,"Ġfinal":3657,"Ġqual":3658,"Ġchallenge":3659,"Ġclassroom":3660,"mpor":3661,"cription":3662,"Ġdepression":3663,"Ġscale":3664,"ulty":3665,"Ġelectricity":3666,"11":3667,"Ġwatch":3668,"Ġcateg":3669,"Ġoperations":3670,"Ġhous":3671,"Ġsummer":3672,"Ġlost":3673,"Ġtrend":3674,"Ġincreases":3675,"Ġtox":3676,"Ġgoes":3677,"tables":3678,"Ġrare":3679,"Ġjud":3680,"ĠBu":3681,"Ġnumerous":3682,"Ġaut":3683,"Ġolder":3684,"pper":3685,"Ġcompletely":3686,"Ġload":3687,"ĠSol":3688,"Ġitems":3689,"Ġassist":3690,"Ġmetal":3691,"Ġdifferences":3692,"orith":3693,"ygen":3694,"ĠQu":3695,"Ġresistance":3696,"auti":3697,"ĠChar":3698,"Ġvari":3699,"rastructure":3700,"ference":3701,"Ġstructures":3702,"Ġextrem":3703,"haps":3704,"Ġserve":3705,"Ġdisorder":3706,"'re":3707,"Ġdental":3708,"Ġgames":3709,"Ġofficial":3710,"vert":3711,"Ġappe":3712,"ĠChin":3713,"Ġfruit":3714,"ĠAct":3715,"ĠWill":3716,"Ġawareness":3717,"Ġtask":3718,"Ġtrack":3719,"asts":3720,"Ġded":3721,"Ġelse":3722,"Ġtrig":3723,"Ġcomprehensive":3724,"ĠEducation":3725,"Ġcitiz":3726,"Ġtouch":3727,"Ġconnect":3728,"elines":3729,"Ġ24":3730,".)":3731,"Ġmat":3732,"Ġmal":3733,"Ġfertil":3734,"Ġevol":3735,"Ġcausing":3736,"ĠUsing":3737,"Ġtrying":3738,"ternal":3739,"ED":3740,"Ġdisorders":3741,"pped":3742,"Ġjoin":3743,"top":3744,"ĠServ":3745,"IN":3746,"Ġlargest":3747,"Ġexec":3748,"ibly":3749,"Ġhosp":3750,"Ġdead":3751,"pping":3752,"Ġexcell":3753,"Ġexpand":3754,"Ġvo":3755,"Ġleave":3756,"Ġlisten":3757,"Ġhorm":3758,"itors":3759,"Ġworth":3760,"ided":3761,"Ġbasis":3762,"Ġhelping":3763,"Ġprocessing":3764,"ĠInternational":3765,"oe":3766,"ĠInstitute":3767,"Ġwon":3768,"Ġapply":3769,"ĠFrench":3770,"Ġlat":3771,"Ġseek":3772,"Ġalone":3773,"esis":3774,"Ġfront":3775,"Ġchronic":3776,"esus":3777,"mosph":3778,"ception":3779,"Ġrespond":3780,"Ġalthough":3781,"Ġcommerc":3782,"ĠHum":3783,"Ġanything":3784,"Ġvia":3785,"Ġinfections":3786,"Ġdie":3787,"Ġecos":3788,"Ġprofessionals":3789,"rops":3790,"Ġdegree":3791,"Ġcollection":3792,"ĠUnderstanding":3793,"Ġcurrently":3794,"Ġcenter":3795,"Ġbelief":3796,"ĠThrough":3797,"Ġtemperatures":3798,"Ġplanet":3799,"Ġtopic":3800,"16":3801,"Ġupd":3802,"Ġintelligence":3803,"gi":3804,"Ġ194":3805,"Ġplays":3806,"Ġtransfer":3807,"Ġimproved":3808,"Ġmaintenance":3809,"Ġfeature":3810,"ĠChrist":3811,"Ġrecy":3812,"Ġcou":3813,"oses":3814,"Ġvulner":3815,"Ġmonitoring":3816,"Ġstories":3817,"ĠDon":3818,"Ġfair":3819,"Ġinvolve":3820,"tra":3821,"Ġ2020":3822,"tick":3823,"eters":3824,"ĠUK":3825,"Ġsold":3826,"Ġsmart":3827,"ension":3828,"ula":3829,"ipl":3830,"Ġsave":3831,"Ġbecoming":3832,"Ġalternative":3833,"Ġdetails":3834,"Ġbrought":3835,"Ġstyle":3836,"ĠIts":3837,"Ġpolicies":3838,"odes":3839,"Ġglass":3840,"Ġmoment":3841,"ĠCenter":3842,"Ġdrugs":3843,"cious":3844,"lution":3845,"Ġtown":3846,"Ġtrust":3847,"Ġapplied":3848,"Ġreligious":3849,"Ġmolec":3850,"Ġgiving":3851,"aly":3852,"Ġcycle":3853,"Ġindustrial":3854,"Ġplans":3855,"Ġrespect":3856,"Ġdisplay":3857,"forms":3858,"ustice":3859,"eli":3860,"iforn":3861,"na":3862,"Ġlayer":3863,"Ġgot":3864,"bles":3865,"Ġalgorith":3866,"Ġbat":3867,"):":3868,"Ġcharacteristics":3869,"Ġarg":3870,"Ġincome":3871,"Ġhomes":3872,"Ġmiss":3873,"Ġdecl":3874,"ĠEv":3875,"Ġrunning":3876,"ĠChinese":3877,"Ġcombination":3878,"Ġaccurate":3879,"ĠTod":3880,"Ġreality":3881,"Ġforward":3882,"Ġnuc":3883,"estyle":3884,"Ġbed":3885,"Ġadjust":3886,"Ġsituations":3887,"Ġrelevant":3888,"Ġstaff":3889,"Ġideal":3890,"Ġorganic":3891,"rome":3892,"Ġreceived":3893,"Ġassign":3894,"Ġresource":3895,"Ġowners":3896,"AC":3897,"Ġteacher":3898,"ĠEvery":3899,"Ġfeeling":3900,"Ġantib":3901,"Ġseeds":3902,"ask":3903,"Ġobject":3904,"Ġbattery":3905,"Ġgold":3906,"lev":3907,"Ġmigr":3908,"Ġblue":3909,"Ġbodies":3910,"ĠSur":3911,"ĠJesus":3912,"Ġvitamin":3913,"ĠCaliforn":3914,"Ġpeace":3915,"rees":3916,"ĠPat":3917,"pt":3918,"Ġtreatments":3919,"Ġnavig":3920,"Ġregions":3921,"Ġsites":3922,"Ġtissue":3923,"Ġelectrical":3924,"Ġtechnique":3925,"house":3926,"edom":3927,"Ġacqu":3928,"17":3929,"ashing":3930,"Ġmoving":3931,"Ġresulting":3932,"Ġdate":3933,"Ġchanging":3934,"enous":3935,"Ġexperienced":3936,"Ġinfrastructure":3937,"ĠCanada":3938,"ulating":3939,"AN":3940,"Ġfile":3941,"Ġ,":3942,"Ġhon":3943,"isation":3944,"aid":3945,"Ġrenew":3946,"Ġconnected":3947,"Ġbeg":3948,"Ġimproving":3949,"used":3950,"Ġbound":3951,"Ġquanti":3952,"Ġexist":3953,"enty":3954,"Ġpoll":3955,"ses":3956,"Ġoffic":3957,"Ġneu":3958,"Ġseems":3959,"Ġimpacts":3960,"Ġchance":3961,"Ġexperts":3962,"Ġregularly":3963,"Ġmanufacturing":3964,"Ġacademic":3965,"ama":3966,"ilos":3967,"ĠDepartment":3968,"ceed":3969,"Ġsuppl":3970,"Ġoxygen":3971,"tee":3972,"Ġhyp":3973,"Ġmother":3974,"aled":3975,"Ġstrategy":3976,"place":3977,"ĠCr":3978,"Ġexch":3979,"Ġpartners":3980,"Ġsaw":3981,"Ġemotions":3982,"Ġfrequently":3983,"ĠSep":3984,"Ġstatus":3985,"ĠAdv":3986,"Ġreplace":3987,"ĠJan":3988,"ille":3989,"ĠSpec":3990,"Ġadministr":3991,"Ġbuy":3992,"Ġhttps":3993,"Ġinvestment":3994,"Ġprinciples":3995,"Ġstore":3996,"Ġtrial":3997,"ĠEnvironment":3998,"Ġnearly":3999,"Ġuns":4000,"Ġbox":4001,"ĠCalifornia":4002,"Ġpredic":4003,"Ġwidely":4004,"ony":4005,"Ġemail":4006,"ĠMake":4007,"Ġatmosph":4008,"mar":4009,"ĠFood":4010,"Ġliqu":4011,"Ġstab":4012,"Ġurban":4013,"Ġmedicine":4014,"Ġgeneration":4015,"Ġdisp":4016,"Ġpush":4017,"emat":4018,"ĠGovern":4019,"obs":4020,"Ġsuitable":4021,"14":4022,"ude":4023,"aches":4024,"poses":4025,"ĠGerman":4026,"Ġcontinues":4027,"Ġcoming":4028,"elt":4029,"Ġhund":4030,"Ġbone":4031,"Ġpiece":4032,"IC":4033,"Ġallowed":4034,"Ġshall":4035,"Ġice":4036,"ums":4037,"Ġrestric":4038,"ĠCur":4039,"ifically":4040,"Ġoutcomes":4041,"Ġmotiv":4042,"Ġemployees":4043,"ares":4044,"Ġstream":4045,"Ġwent":4046,"Ġincl":4047,"Ġdrive":4048,"tively":4049,"ĠPark":4050,"Ġinjury":4051,"ography":4052,"Ġelimin":4053,"Ġready":4054,"Ġhear":4055,"Ġkid":4056,"ĠHol":4057,"ĠNor":4058,"Ġvegetables":4059,"Ġwhose":4060,"ooth":4061,"Ġscen":4062,"mic":4063,"Ġmilk":4064,"olic":4065,"ivity":4066,"Ġmiddle":4067,"ĠLearning":4068,"Ġsched":4069,"Ġbeneficial":4070,"ero":4071,"Ġconsult":4072,"ilosoph":4073,"come":4074,"ĠWest":4075,"Ġrevolution":4076,"It":4077,"Ġencourage":4078,"Ġchallenging":4079,"Ġrefers":4080,"ĠSocial":4081,"Ġcommercial":4082,"Ġcities":4083,"ĠDi":4084,"Ġcognitive":4085,"Ġche":4086,"Ġplaced":4087,"Ġking":4088,"Ġstarting":4089,"Ġidentified":4090,"known":4091,"Ġinternet":4092,"cil":4093,"Ġtoward":4094,"Ġinflammation":4095,"ĠBar":4096,"Ġrelatively":4097,"amental":4098,"anging":4099,"Ġpollution":4100,"Ġrecently":4101,"Ġinsights":4102,"year":4103,"ĠAmericans":4104,"formation":4105,"Ġhappen":4106,"Ġburn":4107,"hab":4108,"ĠChildren":4109,"Ġwear":4110,"Ġlov":4111,"Ġheavy":4112,"Ġpotentially":4113,"ĠGet":4114,"Ġsusp":4115,"ĠAug":4116,"ĠSupp":4117,"Ġoral":4118,"ulum":4119,"ĠToday":4120,"Ġharmful":4121,"Ġlandscape":4122,"Ġbillion":4123,"Ġprincip":4124,"ĠRo":4125,"vironments":4126,"Ġconcepts":4127,"Ġfavor":4128,"Ġrule":4129,"Ġprepar":4130,"ĠAssoci":4131,"urally":4132,"Ġrelease":4133,"Ġgraph":4134,"Ġsector":4135,"Ġadapt":4136,"Ġpip":4137,"Ġfollowed":4138,"Ġexcellent":4139,"aff":4140,"Ġdur":4141,"Ġneigh":4142,"Ġspr":4143,"Ġcore":4144,"ĠVal":4145,"Ġgender":4146,"Ġmember":4147,"ystems":4148,"Ġinteresting":4149,"Ġembr":4150,"Ġengage":4151,"Ġassessment":4152,"Ġsurgery":4153,"ius":4154,"ought":4155,"Ġelement":4156,"Ġforces":4157,"Ġ/":4158,"Ġclinical":4159,"Ġengineering":4160,"Ġfields":4161,"Ġconsequences":4162,"cling":4163,"Ġder":4164,"oration":4165,"ĠEg":4166,"Ġmedications":4167,"Ġdescribed":4168,"Ġcapture":4169,"hes":4170,"Ġrot":4171,"Ġkeeping":4172,"Ġfederal":4173,"Ġadvantage":4174,"Ġamounts":4175,"Ġmajority":4176,"Ġmuscles":4177,"Ġborn":4178,"Ġextremely":4179,"Ġinternal":4180,"Ġswe":4181,"ĠKeep":4182,"Ġpractical":4183,"Ġallerg":4184,"Ġlifestyle":4185,"titud":4186,"asion":4187,"Ġmid":4188,"Ġbuildings":4189,"Ġconclusion":4190,"Ġfacilit":4191,"Ġexhib":4192,"anks":4193,"Ġvehicle":4194,"tum":4195,"usive":4196,"Ġfeelings":4197,"Ġleads":4198,"tit":4199,"anch":4200,"Ġgather":4201,"Ġiron":4202,"Ġspeech":4203,"Ġnotice":4204,"enses":4205,"vious":4206,"book":4207,"ĠVir":4208,"Ġrecovery":4209,"Ġdirection":4210,"Ġconstruc":4211,"Ġingred":4212,"Ġmotor":4213,"Ġasked":4214,"iate":4215,"Ġrock":4216,"Ġang":4217,"Ġenvironments":4218,"ĠSk":4219,"Ġnothing":4220,"ĠHistory":4221,"Ġcareer":4222,"Ġultim":4223,"Ġfindings":4224,"Ġtold":4225,"Ġsav":4226,"Ġdistance":4227,"augh":4228,"Ġcommand":4229,"ĠProgram":4230,"inated":4231,"char":4232,"Ġdangerous":4233,"iest":4234,"Ġearlier":4235,"Ġsolid":4236,"Ġsequ":4237,"Ġaffects":4238,"Ġhost":4239,"Ġoccup":4240,"ĠTreat":4241,"Ġaccep":4242,"arent":4243,"Ġshared":4244,"Ġfemale":4245,"Ġconservation":4246,"Ġbackground":4247,"Ġimmediately":4248,"Ġunit":4249,"ocks":4250,"isf":4251,"acting":4252,"zing":4253,"Ġbelieved":4254,"Ġbeauti":4255,"era":4256,"Ġtreated":4257,"ĠRiver":4258,"ĠOrgan":4259,"veness":4260,"fortable":4261,"Ġbud":4262,"Ġlaunch":4263,"OR":4264,"tent":4265,"Ġdiscovered":4266,"Ġ=":4267,"unction":4268,"Ġwel":4269,"gers":4270,"ĠStudents":4271,"Ġcoast":4272,"ĠRel":4273,"Ġfaster":4274,"Ġmagn":4275,"airs":4276,"Ġunders":4277,"Ġchemicals":4278,"ON":4279,"erate":4280,"Ġcand":4281,"Ġaid":4282,"ĠWhether":4283,"ĠCour":4284,"Ġmatch":4285,"ĠCor":4286,"Ġindustries":4287,"Ġunc":4288,"Ġnative":4289,"âĢĿ,":4290,"Ġdiagnosis":4291,"13":4292,"Ġwoman":4293,"ĠMarch":4294,"Ġdecades":4295,"Ġmaster":4296,"ĠChristian":4297,"Ġparticipants":4298,"Ġsuggests":4299,"Ġdiges":4300,"Ġhappens":4301,"Ġboard":4302,"Ġhaz":4303,"Ġjoint":4304,"Ġhuge":4305,"Ġ60":4306,"ximately":4307,"Ġfruits":4308,"Ġpurposes":4309,"aul":4310,"Ġregulations":4311,"ĠBo":4312,"Ġcompar":4313,"Ġcreation":4314,"Ġpow":4315,"ĠExpl":4316,"ieties":4317,"Ġpu":4318,"reek":4319,"men":4320,"uk":4321,"Ġfoster":4322,"ĠDif":4323,"Ġthoughts":4324,"rete":4325,"This":4326,"Ġden":4327,"Ġidentity":4328,"Ġtail":4329,"Ġcolors":4330,"Ġlinked":4331,"ĠDNA":4332,"EM":4333,"Ġeggs":4334,"amb":4335,"Ġcontinued":4336,"Ġspot":4337,"Ġrat":4338,"Ġchanged":4339,"Ġpand":4340,"Ġcitizens":4341,"Ġcomput":4342,"ĠFurthermore":4343,"ĠAustralia":4344,"Ġexplain":4345,"Ġillustr":4346,"tles":4347,"Ġgir":4348,"Ġattacks":4349,"Ġcredit":4350,"ara":4351,"grad":4352,"Ġregarding":4353,"Ġgets":4354,"aign":4355,"Ġhearing":4356,"ffee":4357,"Ġwrong":4358,"bes":4359,"riculum":4360,"Ġincreasingly":4361,"Ġspring":4362,"ĠPart":4363,"Ġvehicles":4364,"oma":4365,"ibrary":4366,"itig":4367,"Ġdistin":4368,"ĠGreat":4369,"ibilities":4370,"Ġadvice":4371,"Ġunf":4372,"thetic":4373,"Ġhelpful":4374,"Ġdetect":4375,"iences":4376,"vity":4377,"Ġpicture":4378,"Ġresil":4379,"Ġemergency":4380,"Ġpros":4381,"Ġfigure":4382,"rig":4383,"Ġcusto":4384,"Ġdistribution":4385,"ĠBefore":4386,"ĠThus":4387,"Ġinitial":4388,"Ġthousands":4389,"rew":4390,"Ġcomponent":4391,"ĠLaw":4392,"IT":4393,"Ġalign":4394,"ols":4395,"Ġfailure":4396,"Ġcris":4397,"rote":4398,"ĠDespite":4399,"ogle":4400,"board":4401,"Ġtour":4402,"Ġessay":4403,"Ġconducted":4404,"rows":4405,"Ġhighest":4406,"Ġtraffic":4407,"Ġversion":4408,"ocal":4409,"Ġphen":4410,"ager":4411,"Ġplatform":4412,"EN":4413,"Ġevolution":4414,"Ġtherm":4415,"Ġslight":4416,"Ġspend":4417,"resp":4418,"Ġtechnical":4419,"Ġscreen":4420,"Ġanyone":4421,"Ġinstitutions":4422,"pris":4423,"med":4424,"Ġmeat":4425,"athy":4426,"zz":4427,"ĠIr":4428,"Ġwalk":4429,"ĠElec":4430,"Ġintens":4431,"rich":4432,"Ġcutting":4433,"ball":4434,"ĠIsra":4435,"Ġoutd":4436,"Ġaspect":4437,"eper":4438,"ented":4439,"Ġ21":4440,"PS":4441,"www":4442,"Ġinformed":4443,"Ġphotograph":4444,"Ġprocedure":4445,"Ġmer":4446,"going":4447,"anish":4448,"ĠBoth":4449,"atically":4450,"idity":4451,"ĠHy":4452,"ĠJune":4453,"iling":4454,"tos":4455,"Ġeventually":4456,"aching":4457,"Ġequal":4458,"Ġcounter":4459,"Ġthick":4460,"bing":4461,"Ġdriving":4462,"mitted":4463,"Ġâ":4464,"Ġdepends":4465,"ĠRoman":4466,"ĠLike":4467,"Ġbird":4468,"ecture":4469,"ĠHel":4470,"iant":4471,"Ġgoods":4472,"acted":4473,"Ġfocused":4474,"Ġgam":4475,"Ġsensitive":4476,"ued":4477,"ĠTest":4478,"Ġspecifically":4479,"ĠDevelopment":4480,"Ġaccoun":4481,"cop":4482,"ĠExam":4483,"Ġbarri":4484,"Ġroutine":4485,"Ġdefined":4486,"Ġ#":4487,"aters":4488,"Ġsignificance":4489,"Ġrein":4490,"Ġpul":4491,"Ġcats":4492,"ĠSee":4493,"Ġfreedom":4494,"ortunately":4495,"pril":4496,"ĠCity":4497,"lim":4498,"ĠAir":4499,"ĠJust":4500,"Ġoffice":4501,"Ġnamed":4502,"Ġphase":4503,"Ġexposed":4504,"Ġdivid":4505,"apter":4506,"ĠInstead":4507,"erse":4508,"gment":4509,"ĠGreen":4510,"Ġdestro":4511,"Ġplaying":4512,"Ġworked":4513,"Ġseparate":4514,"Ġexternal":4515,"ĠEngland":4516,"Ġmap":4517,"tered":4518,"Ġintroduced":4519,"Ġvirtual":4520,"ĠPlan":4521,"Ġgenerate":4522,"Ġ2021":4523,"Ġreports":4524,"Ġmedication":4525,"Ġnetworks":4526,"Ġflood":4527,"rep":4528,"Ġdidn":4529,"DA":4530,"Ġoperation":4531,"Ġbeautiful":4532,"IV":4533,"Ġphilosoph":4534,"istence":4535,"Ġmission":4536,"OS":4537,"Ġformed":4538,"Ġsurrounding":4539,"Ġmanufactur":4540,"Ġpurs":4541,"Ġoffering":4542,"Ġroots":4543,"Ġpopulations":4544,"Ġfarmers":4545,"ĠBi":4546,"Ġsexual":4547,"Ġchoices":4548,"aste":4549,"ĠMain":4550,"igenous":4551,"co":4552,"ĠMoreover":4553,"Ġseven":4554,"Ġmel":4555,"Ġmut":4556,"Ġflowers":4557,"Ġfib":4558,"Ġcircum":4559,"Ġbreast":4560,"chain":4561,"Ġforeign":4562,"ĠUN":4563,"inating":4564,"Ġmentioned":4565,"Ġmys":4566,"Ġreduction":4567,"Ġpick":4568,"exic":4569,"lor":4570,"Ġdisrup":4571,"Ġfamous":4572,"Ġrelax":4573,"Ġlearned":4574,"Ġcreative":4575,"Ġadvantages":4576,"Ġartificial":4577,"Ġforest":4578,"Ġoperating":4579,"Ġunderg":4580,"ured":4581,"ĠInf":4582,"ĠOc":4583,"aight":4584,"Ġhabits":4585,"Ġ2019":4586,"Ġguidance":4587,"Ġperformed":4588,"Ġshowed":4589,"ĠSaf":4590,"ught":4591,"Ġign":4592,"Ġresponsibility":4593,"Ġgrass":4594,"Ġdatab":4595,"Ġhighlight":4596,"Ġvast":4597,"200":4598,"Ġunivers":4599,"Ġnames":4600,"Ġyellow":4601,"tun":4602,"Ġsports":4603,"Ġprimarily":4604,"Ġhimself":4605,"Ġrecords":4606,"Ġcarried":4607,"Ġcook":4608,"ĠPresident":4609,"urg":4610,"Ġfab":4611,"Ġreferred":4612,"Ġdiss":4613,"Ġopin":4614,"Ġfundamental":4615,"ieving":4616,"my":4617,"Ġjournal":4618,"ĠConsider":4619,"Ġcustomers":4620,"Ġconcern":4621,"Ġinterested":4622,"ĠPhys":4623,"Ġsac":4624,"Ġsteel":4625,"Ġobserved":4626,"mporary":4627,"aran":4628,"Ġtin":4629,"Ġdefic":4630,"ĠBel":4631,"Ġprocedures":4632,"eline":4633,"Ġblog":4634,"Ġseed":4635,"Ġpromoting":4636,"reet":4637,"25":4638,"Ġdent":4639,"Ġguidelines":4640,"Ġmanaging":4641,"oon":4642,"Ġappearance":4643,"teen":4644,"Ġpassed":4645,"bed":4646,"Ġprepared":4647,"Ġpieces":4648,"ipped":4649,"trict":4650,"Ġnorth":4651,"Ġvess":4652,"ĠDav":4653,"Ġadding":4654,"bi":4655,"ĠKnow":4656,"Ġextreme":4657,"tability":4658,"Ġpal":4659,"Ġenable":4660,"Ġapprec":4661,"Ġviolence":4662,"Ġboost":4663,"Ġinnovation":4664,"EC":4665,"ĠTechnology":4666,"Ġcoord":4667,"Ġchain":4668,"tember":4669,"Ġsand":4670,"Ġsend":4671,"Ġmale":4672,"ĠEnergy":4673,"Ġdiversity":4674,"ĠEast":4675,"Ġperiods":4676,"free":4677,"Ġspiritual":4678,"Ġenab":4679,"ĠMexic":4680,"flow":4681,"isture":4682,"eff":4683,"Ġexperiment":4684,"Ġformer":4685,"Ġnotes":4686,"Ġnovel":4687,"What":4688,"Ġbottom":4689,"ĠST":4690,"Ġinjuries":4691,"Ġstatement":4692,"Ġapproaches":4693,"ĠCong":4694,"netic":4695,"des":4696,"omestic":4697,"Ġensures":4698,"Ġdrinking":4699,"Ġisol":4700,"Ġattach":4701,"Ġtopics":4702,"Ġfilm":4703,"cel":4704,"iam":4705,"Ġsouth":4706,"ĠApril":4707,"ev":4708,"Ġvaccine":4709,"off":4710,"Ġesc":4711,"ĠGoogle":4712,"Ġtransl":4713,"order":4714,"Ġreliable":4715,"Ġfasc":4716,"ĠCommon":4717,"Ġmessage":4718,"Ġdied":4719,"Ġpandemic":4720,"Ġrac":4721,"bling":4722,"Ġstraight":4723,"ĠAugust":4724,"yst":4725,"Ġrecognize":4726,"ef":4727,"ologist":4728,"Ġindependent":4729,"Ġx":4730,"ĠSystem":4731,"Ġcloud":4732,"Ġheight":4733,"Ġconflict":4734,"Ġsatisf":4735,"Ġskill":4736,"Ġinten":4737,"Ġcovered":4738,"Ġhandle":4739,"Ġwealth":4740,"Ġactual":4741,"Ġcrisis":4742,"Ġexactly":4743,"tober":4744,"Ġapproximately":4745,"Ġintr":4746,"ĠFol":4747,"ĠChurch":4748,"Ġbelong":4749,"Ġcampaign":4750,"Ġmobile":4751,"Ġmetab":4752,"Ġconver":4753,"Ġclasses":4754,"Ġtruth":4755,"down":4756,"making":4757,"Ġvill":4758,"umin":4759,"iles":4760,"Ġgar":4761,"Ġfoundation":4762,"SA":4763,"ilding":4764,"Ġvolume":4765,"Ġcourt":4766,"Ġcardi":4767,"ĠFound":4768,"Ġadult":4769,"ĠJour":4770,"ĠMic":4771,"Ġmiles":4772,"ĠBre":4773,"anges":4774,"Ġsoft":4775,"ĠWork":4776,"ĠFre":4777,"Ġmountain":4778,"Ġterri":4779,"Ġfaith":4780,"Ġoutput":4781,"Ġocean":4782,"Ġplayers":4783,"ĠHuman":4784,"Ġperspective":4785,"ĠTake":4786,"Ġfine":4787,"Ġconsistent":4788,"alk":4789,"Ġcustomer":4790,"atural":4791,"Ġtum":4792,"Ġmovements":4793,"gl":4794,"Ġreleased":4795,"Ġdetailed":4796,"Ġengaging":4797,"emy":4798,"ha":4799,"Ġliterature":4800,"Ġcleaning":4801,"Ġwrote":4802,"itage":4803,"oking":4804,"ndrome":4805,"Ġpoly":4806,"Ġsounds":4807,"ĠJuly":4808,"udd":4809,"Ġperhaps":4810,"auty":4811,"Ġbright":4812,"ĠTur":4813,"Ġlanguages":4814,"Ġriver":4815,"Ġnarr":4816,"Ġaren":4817,"Ġfather":4818,"Ġsignal":4819,"ĠOff":4820,"Ġtoxic":4821,"Ġhelped":4822,"hips":4823,"Ġtrib":4824,"Ġshar":4825,"Ġappears":4826,"Ġ2018":4827,"Ġatmosphere":4828,"Ġsample":4829,"titution":4830,"Ġfacilities":4831,"Ġnerv":4832,"Ġphone":4833,"Ġinterpret":4834,"ky":4835,"Ġtraum":4836,"ĠEgyp":4837,"Ġsurvey":4838,"ĠJapanese":4839,"Ġseeking":4840,"rain":4841,"Ġlatest":4842,"ias":4843,"ĠAbout":4844,"ĠGermany":4845,"Ġpresented":4846,"idential":4847,"Ġlegis":4848,"Ġjobs":4849,"Ġbank":4850,"Ġclim":4851,"ĠMc":4852,"faces":4853,"ĠProv":4854,"Ġpainting":4855,"ux":4856,"Ġsimpl":4857,"ĠMal":4858,"Ġclearly":4859,"ĠJanuary":4860,"Ġworldwide":4861,"Ġtor":4862,"Ġpump":4863,"Ġstu":4864,"Ġliver":4865,"Ġreaction":4866,"Ġcoffee":4867,"ĠInternet":4868,"ads":4869,"Ġmainly":4870,"Ġbehaviors":4871,"Ġminor":4872,"Ġcharge":4873,"anted":4874,"Ġcryp":4875,"Ġfrequency":4876,"Ġwash":4877,"ĠSeptember":4878,"tension":4879,"Ġ:":4880,"Ġaccessible":4881,"Ġvictim":4882,"Ġcommunicate":4883,"Ġcultiv":4884,"Ġdegrees":4885,"Ġmoisture":4886,"Ġbreathing":4887,"Ġpreventing":4888,"ĠClass":4889,"ĠUnion":4890,"ĠGeneral":4891,"Ġfiber":4892,"Ġdepth":4893,"Ġsettings":4894,"ĠManagement":4895,"ĠTH":4896,"ĠRemember":4897,"inger":4898,"ĠAD":4899,"ascular":4900,"Ġmanner":4901,"Ġtransportation":4902,"Ġmostly":4903,"ching":4904,"Ġintake":4905,"Ġcollege":4906,"Ġliquid":4907,"Ġunderlying":4908,"Ġtrain":4909,"ĠArch":4910,"Ġpen":4911,"Ġplayed":4912,"ĠEff":4913,"Ġpromp":4914,"icy":4915,"Ġparticles":4916,"Ġcollaboration":4917,"Ġsupporting":4918,"Ġpregnancy":4919,"Ġnutrition":4920,"li":4921,"Ġvoice":4922,"lements":4923,"Ġlic":4924,"ĠWestern":4925,"roid":4926,"imes":4927,"60":4928,"verse":4929,"ĠSan":4930,"Ġmitig":4931,"Ġcenturies":4932,"ails":4933,"Ġgave":4934,"ĠWashing":4935,"Ġremoved":4936,"Ġattrib":4937,"Ġindicate":4938,"Ġscenar":4939,"AM":4940,"Ġexercises":4941,"unc":4942,"ĠFinally":4943,"Ġcreates":4944,"Ġson":4945,"Ġdrink":4946,"riendly":4947,"Ġchurch":4948,"rency":4949,"erals":4950,"rim":4951,"Ġsustainability":4952,"ĠDesign":4953,"ĠMa":4954,"ashion":4955,"Ġswitch":4956,"ĠDisc":4957,"ĠOctober":4958,"Ġadequ":4959,"ĠUp":4960,"Ġgovernments":4961,"Ġmeeting":4962,"ĠMich":4963,"Ġfeedback":4964,"Ġfig":4965,"inder":4966,"ĠPal":4967,"Ġmathemat":4968,"Ġvibr":4969,"ondon":4970,"Ġamb":4971,"Ġsong":4972,"Ġfamiliar":4973,"orough":4974,"ste":4975,"mat":4976,"ĠCare":4977,"Ġmachines":4978,"ĠIsrael":4979,"Ġcontrast":4980,"trop":4981,"Ġparty":4982,"ells":4983,"Ġfluid":4984,"Ġcurriculum":4985,"ĠHouse":4986,"Ġlose":4987,"Ġ80":4988,"Ġagricultural":4989,"Ġintended":4990,"itness":4991,"Ġtransition":4992,"Ġreduces":4993,"urt":4994,"Ġroll":4995,"Ġwet":4996,"Ġplatforms":4997,"bert":4998,"Ġord":4999,"Ġschol":5000,"Ġnaturally":5001,"Ġexchange":5002,"ĠExper":5003,"Ġspaces":5004,"ifying":5005,"aint":5006,"ĠAny":5007,"Ġ2022":5008,"Ġplease":5009,"Ġaqu":5010,"ĠIP":5011,"ĠPower":5012,"olds":5013,"ĠCho":5014,"Ġinterests":5015,"Ġexpensive":5016,"Ġformation":5017,"Ġframework":5018,"key":5019,"ologists":5020,"Ġradiation":5021,"Ġtrou":5022,"Ġoptimal":5023,"ĠPrac":5024,"Ġafford":5025,"Ġexpression":5026,"ĠVis":5027,"ping":5028,"ĠSal":5029,"Ġ2017":5030,"eling":5031,"Ġdecrease":5032,"apers":5033,"ĠBas":5034,"Ġconnections":5035,"Ġsmooth":5036,"Ġdeeper":5037,"ĠLat":5038,"Ġinstrument":5039,"Ġnuclear":5040,"Ġ2015":5041,"ET":5042,"ovember":5043,"tank":5044,"taining":5045,"Ġstages":5046,"Ġconv":5047,"Ġtrigger":5048,"inations":5049,"bruary":5050,"Ġonto":5051,"ingly":5052,"omb":5053,"Ġphenomen":5054,"tled":5055,"ĠSecond":5056,"ĠSus":5057,"Ġestimated":5058,"Ġconsumers":5059,"Ġprepare":5060,"Ġpreviously":5061,"22":5062,"Ġhyper":5063,"Ġrepresents":5064,"Ġagriculture":5065,"Ġ2016":5066,"lin":5067,"Ġrenewable":5068,"Ġupper":5069,"ĠAssociation":5070,"Ġsuffer":5071,"ĠNet":5072,"Ġproteins":5073,"Ġhabitat":5074,"Ġprotected":5075,"Ġprevention":5076,"Ġcultures":5077,"Ġaccuracy":5078,"aud":5079,"agr":5080,"40":5081,"ĠColle":5082,"entic":5083,"side":5084,"ĠWashington":5085,"ĠJewish":5086,"gets":5087,"ĠFrance":5088,"rors":5089,"ups":5090,"ĠPC":5091,"Ġlooks":5092,"ector":5093,"Ġdescribe":5094,"Ġhospital":5095,"ĠDig":5096,"acters":5097,"Ġharvest":5098,"ĠProt":5099,"AL":5100,"ĠDecember":5101,"Ġlessons":5102,"Ġaccept":5103,"Ġcarefully":5104,"ĠMark":5105,"Â°":5106,"istant":5107,"Ġdetermined":5108,"essions":5109,"Ġadvoc":5110,"Ġargu":5111,"Ġwire":5112,"Ġprices":5113,"Ġrespir":5114,"Ġbeauty":5115,"Ġfoss":5116,"Ġunits":5117,"Ġbegins":5118,"Ġinteractions":5119,"Ġinnovative":5120,"icious":5121,"Ġdiscussion":5122,"Ġongoing":5123,"Ġconfidence":5124,"Ġconfirm":5125,"Ġdespite":5126,"Ġformat":5127,"Ġcourses":5128,"ĠRegular":5129,"ĠArt":5130,"Ġletter":5131,"ĠYes":5132,"ogen":5133,"ĠId":5134,"Ġsharing":5135,"Ġcrops":5136,"Ġreference":5137,"Ġsufficient":5138,"Ch":5139,"Ġroof":5140,"Ġthreats":5141,"ressed":5142,"Ġdomestic":5143,"Ġwonder":5144,"ĠWhere":5145,"ĠCheck":5146,"ĠSun":5147,"Ġsubstance":5148,"Ġtank":5149,"Ġabuse":5150,"Ġraise":5151,"agers":5152,"Ġeight":5153,"ford":5154,"Ġserves":5155,"ĠDoes":5156,"ĠCap":5157,"Ġcombined":5158,"ĠLondon":5159,"Ġglob":5160,"Ġcircumst":5161,"ĠSpanish":5162,"Ġthin":5163,"tial":5164,"AD":5165,"Ġcertific":5166,"Ġbow":5167,"Ġwildlife":5168,"Ġpig":5169,"Ġradio":5170,"Ġwanted":5171,"Ġregul":5172,"irus":5173,"Ġstret":5174,"Ġveter":5175,"eles":5176,"Ġcomfortable":5177,"oors":5178,"umn":5179,"ĠDef":5180,"Ġclosely":5181,"osa":5182,"PT":5183,"tingu":5184,"Ġinher":5185,"ĠDire":5186,"Ġannual":5187,"Ġ22":5188,"Ġkept":5189,"As":5190,"Ġdens":5191,"Ġassistance":5192,"Ġheard":5193,"itude":5194,"Ġaudience":5195,"ĠNovember":5196,"SD":5197,"Ġphysic":5198,"Ġcompleted":5199,"Ġperman":5200,"Ġrace":5201,"Ġinput":5202,"ĠLearn":5203,"Ġarticles":5204,"ĠSign":5205,"ĠGovernment":5206,"Ġcere":5207,"Ġrapidly":5208,"ye":5209,"Ġelev":5210,"Ġrepe":5211,"Ġenables":5212,"Ġmaximum":5213,"Ġtransp":5214,"Ġmood":5215,"Ġdim":5216,"Ġleadership":5217,"Ġbalanced":5218,"Ġinsurance":5219,"iotics":5220,"Ġexcessive":5221,"80":5222,"ĠLife":5223,"Ġnorm":5224,"Ġcapabilities":5225,"fits":5226,"ĠDem":5227,"ĠFebruary":5228,"Ġelectronic":5229,"Ġhit":5230,"ĠWell":5231,"Ġmedium":5232,"aying":5233,"Ġrecip":5234,"Ġdestroy":5235,"eries":5236,"Ġyouth":5237,"Ġparties":5238,"oom":5239,"Ġwalls":5240,"Ġfiles":5241,"bu":5242,"Ġround":5243,"ĠScot":5244,"ulin":5245,"osen":5246,"Ġmotion":5247,"Ġod":5248,"yth":5249,"Ġreaders":5250,"Ġoffered":5251,"ĠPublic":5252,"Ġera":5253,"Ġcontrolled":5254,"Ġkinds":5255,"Ġsort":5256,"ĠAsia":5257,"Ġcharacters":5258,"Ġnit":5259,"Ġsweet":5260,"ĠLord":5261,"Ġalgorithms":5262,"orest":5263,"chool":5264,"Ġfacts":5265,"Ġingredients":5266,"ĠPhil":5267,"amins":5268,"Ġauthors":5269,"can":5270,"Ġusage":5271,"ticip":5272,"Ġvolun":5273,"tition":5274,"Ġsets":5275,"ĠAvoid":5276,"Ġcatch":5277,"Ġport":5278,"quality":5279,"Ġnurs":5280,"Ġbio":5281,"lease":5282,"Ġmorning":5283,"iment":5284,"Ġjustice":5285,"Ġconscious":5286,"Ġsupported":5287,"orge":5288,"ulf":5289,"Ġstored":5290,"overty":5291,"Ġdistinct":5292,"ĠEngine":5293,"ij":5294,"Ġreflect":5295,"Ġdemocr":5296,"Ġsupplement":5297,"Ġgut":5298,"ida":5299,"Ġraw":5300,"pan":5301,"tile":5302,"Ġgrown":5303,"Ġkn":5304,"Ġhour":5305,"Ġcount":5306,"iat":5307,"ĠEmp":5308,"tified":5309,"uls":5310,"ĠDise":5311,"Ġdedicated":5312,"ĠRev":5313,"azing":5314,"Ġsuffering":5315,"Ġchann":5316,"Ġaims":5317,"Ġbiod":5318,"Ġ*":5319,"Ġkill":5320,"Ġethical":5321,"Ġturned":5322,"Ġreproduc":5323,"Ġfloor":5324,"Ġ2023":5325,"Ġpanels":5326,"Ġshift":5327,"Ġprogramming":5328,"Ġclick":5329,"Ġinsects":5330,"Ġbag":5331,"Ġslightly":5332,"Ġsupports":5333,"Ġthorough":5334,"ĠSociety":5335,"Ġimprovement":5336,"Ġconsidering":5337,"oyal":5338,"tering":5339,"Ġnoise":5340,"ĠJournal":5341,"ĠLa":5342,"ĠTex":5343,"Ġbudget":5344,"ĠMor":5345,"Ġdro":5346,"Ġconsists":5347,"Ġstability":5348,"Ġpreserv":5349,"friendly":5350,"Ġcollected":5351,"tomach":5352,"Ġsalt":5353,"Ġ90":5354,"ĠFollow":5355,"ĠCle":5356,"ĠCouncil":5357,"Ġimmun":5358,"Ġimplementation":5359,"Ġcritic":5360,"Ġlived":5361,"ĠBal":5362,"ĠMr":5363,"ĠCer":5364,"Ġconcentration":5365,"terol":5366,"Ġtaste":5367,"ya":5368,"Ġdream":5369,"ĠHave":5370,"Ġstone":5371,"ĠControl":5372,"oti":5373,"Ġtrends":5374,"ossible":5375,"ĠDel":5376,"Ġeffectiveness":5377,"ĠCreat":5378,"Ġcars":5379,"Ġstruggle":5380,"Ġmoved":5381,"Ġspent":5382,"ĠTwo":5383,"Ġabilities":5384,"ĠMuse":5385,"Ġsud":5386,"ĠCollege":5387,"Ġpurchase":5388,"Ġserved":5389,"Ġsaying":5390,"ĠCounty":5391,"ĠMedical":5392,"Ġfunding":5393,"ĠBet":5394,"Ġdial":5395,"Ġcorpor":5396,"ĠTem":5397,"Ġstarts":5398,"Ġdefinition":5399,"Ġcoop":5400,"Ġcapable":5401,"ectives":5402,"Ġdesigns":5403,"ĠWhite":5404,"Ġminerals":5405,"Ġultimately":5406,"lets":5407,"pre":5408,"acture":5409,"Ġbrush":5410,"Ġnoted":5411,"ĠFac":5412,"Ġleaving":5413,"Ġrecognition":5414,"Ġfro":5415,"Ġhop":5416,"Ġoutl":5417,"Ġtypical":5418,"Ġble":5419,"ĠIsl":5420,"Ġsurvival":5421,"Ġsolve":5422,"Ġours":5423,"Ġinstructions":5424,"izon":5425,"Ġisland":5426,"Ġresidents":5427,"ayer":5428,"Ġstro":5429,"ST":5430,"ĠMary":5431,"Ġster":5432,"Ġvalid":5433,"Ġ70":5434,"Ġstands":5435,"ĠAp":5436,"Ġvulnerable":5437,"Ġarchitecture":5438,"ĠGreek":5439,"Ġhom":5440,"Ġbehaviour":5441,"Ġauthority":5442,"Ġextensive":5443,"istan":5444,"aser":5445,"ĠBene":5446,"Ġrecognized":5447,"ĠSuch":5448,"olesterol":5449,"Ġ23":5450,"Ġtea":5451,"ĠSou":5452,"Ġrequest":5453,"ompl":5454,"Ġvisible":5455,"ĠWomen":5456,"Ġhealing":5457,"23":5458,"Ġaccel":5459,"ĠAC":5460,"aj":5461,"Ġconcrete":5462,"Ġparent":5463,"Ġfirm":5464,"ĠArab":5465,"osite":5466,"Ġgrade":5467,"Ġpsychological":5468,"Ġsubjects":5469,"Ġdetail":5470,"Ġsubstances":5471,"ĠYear":5472,"Ġgod":5473,"Ġhappy":5474,"onics":5475,"Ġchick":5476,"idden":5477,"Ġdifficulty":5478,"Ġselect":5479,"ĠSub":5480,"Ġdouble":5481,"ĠWeb":5482,"Ġaccounts":5483,"Ġachieved":5484,"roup":5485,"Ġobvious":5486,"Ġrul":5487,"Ġfeeding":5488,"ĠBra":5489,"nam":5490,"Ġgenerated":5491,"Ġresol":5492,"att":5493,"âĢĻ.":5494,"ographic":5495,"Ġintervention":5496,"Ġmild":5497,"Ġscre":5498,"ventions":5499,"Ġreserv":5500,"ĠGood":5501,"ĠWind":5502,"Ġprovider":5503,"Ġbiological":5504,"ĠVit":5505,"Ġprotoc":5506,"oxid":5507,"Ġassets":5508,"ga":5509,"ady":5510,"Ġlesson":5511,"Ġ193":5512,"MS":5513,"apy":5514,"ĠFam":5515,"ĠEnvironmental":5516,"rowing":5517,"Ġsignals":5518,"Ġproducing":5519,"Ġcommitment":5520,"tock":5521,"Ġsunlight":5522,"Ġcircumstances":5523,"ĠStand":5524,"Ġprem":5525,"Ġshowing":5526,"Ġfill":5527,"Ġexplains":5528,"Ġrecover":5529,"nic":5530,"ĠSpace":5531,"andom":5532,"Ġbattle":5533,"Ġrely":5534,"Ġroles":5535,"Ġtaught":5536,"nel":5537,"rolog":5538,"fulness":5539,"Ġtransmission":5540,"Ġrepair":5541,"Ġtoler":5542,"Ġproductivity":5543,"Ġwhe":5544,"Ġdocuments":5545,"Ġraised":5546,"asive":5547,"Ġhorse":5548,"ĠCath":5549,"ĠStart":5550,"Ġmillions":5551,"Ġsen":5552,"ĠBus":5553,"Ġdesired":5554,"Ġdeli":5555,"Ġaccompl":5556,"Ġsubstanti":5557,"Ġ2014":5558,"craft":5559,"holders":5560,"long":5561,"Ġtruly":5562,"eme":5563,"ĠProject":5564,"Ġmort":5565,"ipping":5566,"arsh":5567,"Ġgenerations":5568,"mark":5569,"Ġwors":5570,"Ġextent":5571,"Ġimmediate":5572,"Ġbrown":5573,"Ġinterview":5574,"Ġexperiencing":5575,"Ġmechanisms":5576,"Ġcyber":5577,"Ġcomputers":5578,"ĠOut":5579,"exp":5580,"Ġconduct":5581,"riage":5582,"Ġlun":5583,"Ġinteraction":5584,"Ġparam":5585,"fall":5586,"Ġcoal":5587,"Ġath":5588,"--":5589,"Ġanalyze":5590,"Ġcrop":5591,"ĠVe":5592,"stream":5593,"Ġbones":5594,"Ġstem":5595,"reds":5596,"RE":5597,"ĠImpro":5598,"Ġnar":5599,"Ġdoll":5600,"Ġdecided":5601,"Ġrough":5602,"Ġelectro":5603,"Ġfashion":5604,"Ġdelivery":5605,"Ġrural":5606,"izer":5607,"ĠStudies":5608,"Ġremote":5609,"Ġsnow":5610,"ĠThose":5611,"Ġsamples":5612,"Ġrecorded":5613,"ended":5614,"Ġstomach":5615,"Ġhydrogen":5616,"Ġreligion":5617,"ĠEth":5618,"car":5619,"Ġmyth":5620,"Ġfabric":5621,"Ġaer":5622,"Ġinfected":5623,"Ġprivacy":5624,"ĠPress":5625,"hi":5626,"gely":5627,"greg":5628,"Ġconclu":5629,"Ġnations":5630,"ĠCentral":5631,"tore":5632,"Ġincred":5633,"Ġacknow":5634,"Ġtested":5635,"yles":5636,"Ġdetection":5637,"iday":5638,"Ġdrop":5639,"Ġpartner":5640,"Ġ195":5641,"Ġminimum":5642,"?âĢĿ":5643,"tood":5644,"RI":5645,"Ġtun":5646,"ellec":5647,"Ġwish":5648,"CO":5649,"onal":5650,"ĠStep":5651,"Ġremark":5652,"Ġshor":5653,"Ġotherwise":5654,"Ġsuccessfully":5655,"Ġacids":5656,"Ġstock":5657,"Ġleaf":5658,"itivity":5659,"teries":5660,"Ġattempt":5661,"ĠSet":5662,"ica":5663,"Ġflat":5664,"Ġbill":5665,"Ġleader":5666,"Ġeveryday":5667,"unk":5668,"ading":5669,"Ġsick":5670,"Ġsudden":5671,"Ġlinks":5672,"Ġreached":5673,"Ġcontinuous":5674,"inter":5675,"Ġacts":5676,"ĠâĢ¦":5677,"Ġidentifying":5678,"ĠCourt":5679,"Ġmeant":5680,"tural":5681,"Ġexistence":5682,"Ġproviders":5683,"Ġproposed":5684,"Ġages":5685,"Ġlocations":5686,"Ġagreement":5687,"Ġprofessor":5688,"Ġexpertise":5689,"ĠSam":5690,"Ġfollows":5691,"Ġcreativity":5692,"Ġaddressing":5693,"Ġdynamic":5694,"Ġstake":5695,"Ġserver":5696,"24":5697,"ĠMicro":5698,"Ġencoun":5699,"Ġauthentic":5700,"ĠCre":5701,"ointed":5702,"ĠIS":5703,"inate":5704,"Ġintroduction":5705,"Ġlargely":5706,"Ġcertainly":5707,"Ġship":5708,"Ġdiscussed":5709,"Ġmarine":5710,"inding":5711,"cing":5712,"asp":5713,"Ġfelt":5714,"Ġbrief":5715,"21":5716,"Ġfulf":5717,"alled":5718,"Ġwaters":5719,"Ġcorresp":5720,"Ġattitud":5721,"Ġirrit":5722,"ĠNAS":5723,"oding":5724,"Ġprinciple":5725,"Ġspl":5726,"ĠService":5727,"nes":5728,"Ġresponses":5729,"antic":5730,"Ġunl":5731,"Ġstudying":5732,"Ġoperate":5733,"Ġbatteries":5734,"Ġecosystem":5735,"Ġpup":5736,"omas":5737,"Ġholds":5738,"Ġdiscipl":5739,"ĠDiffer":5740,"Ġloved":5741,"uate":5742,"terior":5743,"Ġwalking":5744,"ĠMuseum":5745,"Ġneutr":5746,"ĠRussia":5747,"Ġguaran":5748,"Ġspeaking":5749,"Ġtalking":5750,"Ġteams":5751,"Ġresilience":5752,"Ġbrand":5753,"ĠGlobal":5754,"ĠJames":5755,"alle":5756,"Ġsquare":5757,"Ġpoverty":5758,"Ġtrained":5759,"ander":5760,"ĠGre":5761,"apes":5762,"ecurity":5763,"Ġswim":5764,"mas":5765,"PI":5766,"Ġdu":5767,"Ġrespiratory":5768,"Ġvitamins":5769,"Ġtradition":5770,"Ġsyndrome":5771,"Ġexploring":5772,"Ġforced":5773,"wood":5774,"Ġphr":5775,"Ġinches":5776,"Ġju":5777,"Ġ27":5778,"Ġportion":5779,"coin":5780,"ĠQues":5781,"Ġselection":5782,"Ġperce":5783,"body":5784,"tible":5785,"Ġdatabase":5786,"Ġbeliefs":5787,"Ġsin":5788,"'ll":5789,"Ġconcerned":5790,"Ġintegration":5791,"Ġconsumer":5792,"Ġconsume":5793,"Ġfunds":5794,"ĠConf":5795,"Ġgenes":5796,"ault":5797,"Ġreactions":5798,"Ġ+":5799,"ĠCB":5800,"ĠLong":5801,"road":5802,"ĠEconom":5803,"Ġgreenhouse":5804,"iking":5805,"Ġschedule":5806,"Ġdecline":5807,"Ġkil":5808,"Ġminimize":5809,"Ġheating":5810,"ĠSometimes":5811,"inant":5812,"ĠBen":5813,"Ġwitness":5814,"ĠOpen":5815,"Ġdownload":5816,"Ġinner":5817,"Ġsubsequ":5818,"ounced":5819,"Ġoccasion":5820,"power":5821,"Ġgreatly":5822,"avity":5823,"Ġparticipate":5824,"ancer":5825,"Ġpaid":5826,"venue":5827,"Ġinteract":5828,"Ġcomfort":5829,"ĠSimilar":5830,"EL":5831,"Ġcontamin":5832,"Ġcalcium":5833,"elled":5834,"Ġfocuses":5835,"Ġmassive":5836,"Ġ28":5837,"Ġsettle":5838,"Ġfossil":5839,"Ġcholesterol":5840,"Ġdecide":5841,"Ġnutrient":5842,"igue":5843,"Ġcircuit":5844,"ado":5845,"Ġdoctors":5846,"col":5847,"umes":5848,"Ġobl":5849,"CC":5850,"Ġwindow":5851,"Ġtiny":5852,"Ġ2010":5853,"Ġmining":5854,"xide":5855,"Ġsurpris":5856,"Ġimper":5857,"roduce":5858,"Ġmeasured":5859,"Ġaccum":5860,"anes":5861,"Ġpark":5862,"Ġintric":5863,"antum":5864,"Ġourselves":5865,"Ġ26":5866,"Ġstation":5867,"normal":5868,"Ġrelief":5869,"Ġpool":5870,"alysis":5871,"Ġfunctional":5872,"Ġblockchain":5873,"Ġsurfaces":5874,"Ġartists":5875,"mph":5876,"cks":5877,"trum":5878,"Ġsurvive":5879,"Ġfinally":5880,"Ġnavigate":5881,"ĠEss":5882,"Ġdivided":5883,"Ġmeal":5884,"Ġfu":5885,"asure":5886,"Ġempower":5887,"Ġshr":5888,"ĠWho":5889,"Ġaddiction":5890,"Ġdrawing":5891,"Ġexplained":5892,"Ġhygi":5893,"ĠTime":5894,"ĠProduc":5895,"Ġstable":5896,"Ġnine":5897,"gression":5898,"ĠDavid":5899,"Ġsecondary":5900,"Ġadequate":5901,"ĠRepublic":5902,"Ġrecommendations":5903,"Ġlies":5904,"ĠOb":5905,"Ġdiscovery":5906,"za":5907,"Ġnerve":5908,"Ġlearners":5909,"certain":5910,"Ġtow":5911,"Ġoverl":5912,"istered":5913,"Ġhousehold":5914,"Ġrelative":5915,"Ġahead":5916,"word":5917,"Ġforests":5918,"Ġfarming":5919,"ĠClimate":5920,"Ġcomplications":5921,"Ġmanaged":5922,"Ġextended":5923,"Ġrou":5924,"Ġstick":5925,"Ġimplications":5926,"Ġcompounds":5927,"organ":5928,"Ġpossess":5929,"Ġchoosing":5930,"ĠInformation":5931,"Ġimplementing":5932,"Ġbath":5933,"Ġgirls":5934,"ront":5935,"Ġlayers":5936,"Ġviews":5937,"Ġpages":5938,"Ġpolice":5939,"ĠPsych":5940,"Ġcloser":5941,"ĠYet":5942,"forcement":5943,"DC":5944,"Ġkilled":5945,"Ġband":5946,"utive":5947,"Ġproduces":5948,"Ġclar":5949,"Ġworse":5950,"Ġselected":5951,"Ġvot":5952,"Ġprotecting":5953,"ĠSever":5954,"Ġvoltage":5955,"Ġengagement":5956,"Ġconstantly":5957,"Ġworry":5958,"mary":5959,"Ġflexibility":5960,"Ġ2013":5961,"ĠProfessor":5962,"Ġpil":5963,"Ġcomposition":5964,"ĠFoundation":5965,"iders":5966,"thus":5967,"ĠWrit":5968,"Ġsatell":5969,"Ġauthorities":5970,"Ġhundreds":5971,"PR":5972,"Ġtechnological":5973,"ĠAcad":5974,"Ġedge":5975,"ĠEarly":5976,"ĠKore":5977,"Ġprescrib":5978,"Ġformal":5979,"uing":5980,"Ġastr":5981,"Ġrub":5982,"Ġfle":5983,"Ġdeploy":5984,"Ġcarb":5985,"gans":5986,"Ġevaluation":5987,"oga":5988,"akers":5989,"ĠMac":5990,"tail":5991,"Ġevaluate":5992,"Ġdust":5993,"estiv":5994,"OT":5995,"Ġprioritiz":5996,"Ġrestor":5997,"ĠCongress":5998,"ovascular":5999,"Ġsensors":6000,"Ġaccomp":6001,"ĠIsland":6002,"iff":6003,"Ġmechanism":6004,"Ġdamaged":6005,"oids":6006,"Ġwaves":6007,"ĠThough":6008,"Ġinstruments":6009,"ĠEas":6010,"Ġcash":6011,"Ġhousing":6012,"Ġdrain":6013,"umps":6014,"fit":6015,"ugh":6016,"ĠMexico":6017,"Ġprinting":6018,"Ġfrequent":6019,"ĠImport":6020,"amps":6021,"Ġcalls":6022,"Ġentirely":6023,"ĠTeach":6024,"Ġcandid":6025,"Ġapart":6026,"prise":6027,"atever":6028,"ĠCy":6029,"Ġenz":6030,"Ġsed":6031,"ĠHome":6032,"anguage":6033,"II":6034,"ĠVol":6035,"ague":6036,"Ġimpossible":6037,"ĠGeorge":6038,"cons":6039,"Ġscan":6040,"Ġexplan":6041,"ĠNASA":6042,"Ġfilled":6043,"Ġbrings":6044,"Ġclaims":6045,"Ġest":6046,"tons":6047,"erb":6048,"ĠMil":6049,"Ġmir":6050,"Ġexpans":6051,"Ġcooking":6052,"ĠResp":6053,"90":6054,"Ġrhy":6055,"Ġ2012":6056,"Ġbreed":6057,"Ġneck":6058,"Ġerror":6059,"ĠLab":6060,"Ġexploration":6061,"ĠSl":6062,"Ġsides":6063,"vent":6064,"Ġabund":6065,"Ġlottery":6066,"ĠExp":6067,"Ġdeaths":6068,"âĢľ":6069,"otic":6070,"Ġconventional":6071,"Ġmeals":6072,"tract":6073,"Ġstudied":6074,"Ġtrip":6075,"ĠWilliam":6076,"Ġletters":6077,"Ġlimits":6078,"Ġenabling":6079,"Ġcouple":6080,"ĠPlant":6081,"Ġplenty":6082,"ĠBudd":6083,"ĠAuth":6084,"Ġdram":6085,"ĠLast":6086,"Ðµ":6087,"theless":6088,"ĠOld":6089,"Ġhappened":6090,"Ġvoc":6091,"cast":6092,"Ġvessels":6093,"Ġchances":6094,"och":6095,"Ġsod":6096,"Ġpreval":6097,"Ġwhom":6098,"Ġclothing":6099,"Ġshop":6100,"Ġovercome":6101,"Ġmold":6102,"Ġthrive":6103,"Ġslowly":6104,"ressive":6105,"Ġefficiently":6106,"Ġweap":6107,"elihood":6108,"ĠTreatment":6109,"Ġregional":6110,"ĠSecurity":6111,"ĠNatural":6112,"Ġbiggest":6113,"Ġsell":6114,"Ġdistingu":6115,"estic":6116,"posal":6117,"ĠKey":6118,"ĠMem":6119,"level":6120,"Ġhypoth":6121,"ĠBer":6122,"ĠAng":6123,"Ġseeing":6124,"ĠUnder":6125,"Ġcontributing":6126,"Ġagencies":6127,"Ġpull":6128,"ĠMath":6129,"ny":6130,"isk":6131,"Ġfewer":6132,"Ġshapes":6133,"ĠAccess":6134,"see":6135,"Ġlots":6136,"Ġmarkets":6137,"Ġvs":6138,"fish":6139,"ĠSum":6140,"Ġanswers":6141,"Ġdigestive":6142,"ĠEU":6143,"ĠRussian":6144,"Ġpossibility":6145,"Ġdisapp":6146,"Ġrecycling":6147,"Ġspending":6148,"tone":6149,"ĠMuslim":6150,"gent":6151,"icks":6152,"istent":6153,"Ġreward":6154,"70":6155,"olving":6156,"Ġintellec":6157,"ham":6158,"Ġwave":6159,"Ġcomputing":6160,"Ġchildhood":6161,"edia":6162,"ĠBusiness":6163,"If":6164,"Ġboundaries":6165,"ĠCommission":6166,"Ġmechanical":6167,"inent":6168,"Ġfixed":6169,"cope":6170,"Ġfilter":6171,"ĠBenefits":6172,"Ġcompet":6173,"ĠHear":6174,"umber":6175,"ava":6176,"ĠBC":6177,"Ġrandom":6178,"ulties":6179,"Ġdoub":6180,"Ġgluc":6181,"ache":6182,"mbly":6183,"ĠIdenti":6184,"pread":6185,"Ġsupplements":6186,"Ġplas":6187,"Ġgreatest":6188,"Ġpropor":6189,"Ġmuse":6190,"Ġopening":6191,"Ġspecialized":6192,"Ġflight":6193,"otal":6194,"ĠTexas":6195,"Ġchosen":6196,"Ġkidney":6197,"iration":6198,"ĠPaul":6199,"Ġnorthern":6200,"Ġdiscom":6201,"ĠIncre":6202,"olf":6203,"Ġwants":6204,"Ġemployment":6205,"Ġgrand":6206,"Ġcontaining":6207,"ĠHIV":6208,"Ġunderstood":6209,"ĠMul":6210,"acific":6211,"Ġclosed":6212,"utic":6213,"mi":6214,"Ġtraditions":6215,"Ġgap":6216,"tech":6217,"aughter":6218,"Ġmanip":6219,"Ġcareful":6220,"Ġexh":6221,"Ġplate":6222,"ĠMedicine":6223,"ayed":6224,"ĠSafety":6225,"Ġoccurred":6226,"Ġimmigr":6227,"Ġlights":6228,"Ġauto":6229,"ctic":6230,"ĠCop":6231,"Ġfacing":6232,"Ġobjectives":6233,"Ġprofound":6234,"Ġdirector":6235,"ĠSen":6236,"Ġinteractive":6237,"Ã¡":6238,"Ġfigures":6239,"Ġfaced":6240,"Ġlegs":6241,"Ġcolour":6242,"Ġlighting":6243,"Ġ2011":6244,"Ġbear":6245,"Ġbroken":6246,"idespread":6247,"Ġcorrectly":6248,"Ġerrors":6249,"ĠJos":6250,"ĠSea":6251,"Ġintegrated":6252,"fication":6253,"Ġsuggested":6254,"Ġsouthern":6255,"Ġgradually":6256,"Ġfurn":6257,"Ġ--":6258,"Ġobtained":6259,"ritis":6260,"stand":6261,"emical":6262,"ersonal":6263,"ĠAu":6264,"Ġabsol":6265,"ĠOnly":6266,"Ġdevelopers":6267,"ĠProper":6268,"cryp":6269,"Ġzero":6270,"Ġindicates":6271,"Ġtissues":6272,"Ġpermanent":6273,"AP":6274,"Ġinstalled":6275,"ĠPlease":6276,"Ġdietary":6277,"oli":6278,"Ġdys":6279,"Ġtrauma":6280,"Ġinitiatives":6281,"Ġspo":6282,"ĠCivil":6283,"ĠPers":6284,"ĠFlor":6285,"Ġmolecules":6286,"Ġcriter":6287,"clus":6288,"ĠWild":6289,"Ġovers":6290,"Ġinfluenced":6291,"lar":6292,"ĠTer":6293,"Ġantioxid":6294,"ioxide":6295,"nee":6296,"Ġpharm":6297,"Ġsurve":6298,"icit":6299,"ĠPost":6300,"itz":6301,"weight":6302,"ĠNav":6303,"ĠNature":6304,"Ġdiscomfort":6305,"Ġdebt":6306,"Ġtreating":6307,"ĠSat":6308,"leg":6309,"health":6310,"ends":6311,"river":6312,"adv":6313,"tack":6314,"Ġactively":6315,"ĠQue":6316,"Ġmedic":6317,"Ġdesire":6318,"coming":6319,"Ġunable":6320,"Ġdensity":6321,"Ġcomprom":6322,"Ġexplo":6323,"band":6324,"Ġcrow":6325,"Ġfascinating":6326,"Ġneighb":6327,"ĠDisease":6328,"Ġheritage":6329,"iminal":6330,"Ġstated":6331,"Ġcompetition":6332,"Ġsales":6333,"Ġmoral":6334,"âĢĻ,":6335,"Ġsport":6336,"tocur":6337,"Ġrobust":6338,"aints":6339,"ĠBible":6340,"Ġremained":6341,"Ġnormally":6342,"Ġrig":6343,"Ġwarning":6344,"Ġwebsites":6345,"Ġargument":6346,"well":6347,"add":6348,"ĠUnf":6349,"Ġmarketing":6350,"Ġrevealed":6351,"ago":6352,"Ġic":6353,"hav":6354,"Ġcouns":6355,"ogs":6356,"Ġprecise":6357,"torial":6358,"ari":6359,"Ġcharacterized":6360,"Ġhealthier":6361,"Ġrail":6362,"kin":6363,"Ġshif":6364,"yroid":6365,"Ġsmoking":6366,"Ġmista":6367,"Ġsharp":6368,"ĠBit":6369,"Ġcooling":6370,"Ġtransactions":6371,"amics":6372,"Ġmov":6373,"eric":6374,"Ġadministration":6375,"ĠAN":6376,"ĠUr":6377,"ĠSustain":6378,"Ġveget":6379,"ĠDoc":6380,"ĠMiddle":6381,"Ġadopted":6382,"Ġecosystems":6383,"ĠConn":6384,"Ġcollect":6385,"uration":6386,"Ġratio":6387,"tein":6388,"Ġton":6389,"lect":6390,"Ġpure":6391,"ĠRich":6392,"arter":6393,"Ġwidespread":6394,"Ġdemands":6395,"ticle":6396,"name":6397,"Ġstars":6398,"Ġimplemented":6399,"\".":6400,"ameter":6401,"ĠLatin":6402,"Ġlooked":6403,"Ġworkplace":6404,"eph":6405,"ogue":6406,"Ġfunctioning":6407,"Ġcast":6408,"ommod":6409,"alse":6410,"Ġenhancing":6411,"Ġpret":6412,"Ġprotective":6413,"imal":6414,"rene":6415,"Ġblocks":6416,"Ġbutter":6417,"Ġdrag":6418,"Ġmanufacturers":6419,"Ġcovers":6420,"Ġmanif":6421,"Ġexamine":6422,"roph":6423,"Ġremoval":6424,"Ġdemonstrate":6425,"ĠÃ":6426,"Ġexciting":6427,"Ġtwice":6428,"Ġteen":6429,"Ġaircraft":6430,"Ġ2000":6431,"ĠSymp":6432,"Ġobjective":6433,"aped":6434,"AI":6435,"Ġdoor":6436,"ĠMiss":6437,"Ġturning":6438,"Ġhandling":6439,"ĠAnti":6440,"thritis":6441,"asses":6442,"Ġrepeated":6443,"orses":6444,"ĠForm":6445,"ĠHistor":6446,"Ġmarked":6447,"Ġneuro":6448,"Ġretain":6449,"Ġconversation":6450,"lers":6451,"ĠInt":6452,"Ġhygiene":6453,"Ġsupplies":6454,"ython":6455,"Ġmac":6456,"Ġsole":6457,"ĠBritain":6458,"Ġadds":6459,"Ġgall":6460,"Ġwis":6461,"etic":6462,"Ġcommitted":6463,"Ġwilling":6464,"Ġmixed":6465,"ĠClin":6466,"Ġaffecting":6467,"Ġpreparation":6468,"Ġorganized":6469,"ĠNews":6470,"Ġtried":6471,"eal":6472,"ĠBuilding":6473,"heim":6474,"ĠSupport":6475,"Ġsky":6476,"Ġcamera":6477,"Ġapps":6478,"Ġscholars":6479,"onding":6480,"Ġcompost":6481,"ĠWithout":6482,"Ġpun":6483,"agues":6484,"Ġdealing":6485,"Ġinsulin":6486,"ĠLake":6487,"Ġsti":6488,"Ġlistening":6489,"tall":6490,"Ġdioxide":6491,"Ġdepos":6492,"ĠGroup":6493,"Ġhormone":6494,"ĠPan":6495,"Ġfocusing":6496,"ĠGen":6497,"ĠHen":6498,"which":6499,"Ġeliminate":6500,"ĠSing":6501,"Ġoutdoor":6502,"ilt":6503,"Ġgained":6504,"ĠUl":6505,"Ġmessages":6506,"HD":6507,"Ġplanting":6508,"Ġorgans":6509,"Ġmetabol":6510,"ĠDirec":6511,"ĠTry":6512,"Ġlabel":6513,"Ġopinion":6514,"ĠPor":6515,"Ġchec":6516,"Ġindependence":6517,"ĠHaving":6518,"Ġcontract":6519,"Ġtrop":6520,"Ġflavor":6521,"Ġdiagnosed":6522,"ocking":6523,"ĠJews":6524,"Ġpanel":6525,"ĠDigital":6526,"ĠPhoto":6527,"Ġhardware":6528,"ohy":6529,"ishment":6530,"ĠMean":6531,"Ġinterventions":6532,"Ġremaining":6533,"Ġstructural":6534,"Ġclients":6535,"Ġsmoke":6536,"Ġcombat":6537,"Ġhouses":6538,"Ġexperiments":6539,"Ġpretty":6540,"ĠVitamin":6541,"Ġenthus":6542,"ĠRights":6543,"Ġvisitors":6544,"Ġease":6545,"Ġegg":6546,"Ġcomment":6547,"Ġbiodiversity":6548,"Ġachieving":6549,"Ġavailability":6550,"Ġstronger":6551,"whel":6552,"Ġax":6553,"what":6554,"ĠUnfortunately":6555,"Ġforget":6556,"Ġrising":6557,"Ġstroke":6558,"uses":6559,"actor":6560,"Ġmagnetic":6561,"ĠVic":6562,"ĠIT":6563,"Ġofficials":6564,"ĠMass":6565,"Ġvideos":6566,"Ġsizes":6567,"Ġcardiovascular":6568,"fr":6569,"cont":6570,"Ġparticipation":6571,"Ġstyles":6572,"Ġ35":6573,"airy":6574,"Ġsessions":6575,"Ġputting":6576,"Ġfavorite":6577,"Ġrice":6578,"Ġdescribes":6579,"Ġflexible":6580,"ĠVirgin":6581,"Ġ190":6582,"Ġlisted":6583,"urd":6584,"ĠAtl":6585,"Ġoblig":6586,"Ġgum":6587,"Ġlibrary":6588,"ĠBlue":6589,"lights":6590,"Ġanalys":6591,"Ġfly":6592,"Ġnervous":6593,"Ġdefine":6594,"Ġcards":6595,"Ġnutritional":6596,"ĠUnlike":6597,"Ġprint":6598,"Ġflag":6599,"Ġchapter":6600,"Ġuniverse":6601,"Ġmamm":6602,"Ġindex":6603,"ocation":6604,"Ġmoon":6605,"scale":6606,"Ġscar":6607,"Ġnecessarily":6608,"print":6609,"Ġlimitations":6610,"Ġintense":6611,"ohydr":6612,"Ġpresident":6613,"Ġsafely":6614,"ĠTop":6615,"Ġbarriers":6616,"esity":6617,"Ġcalories":6618,"Ġowner":6619,"Ġcreatures":6620,"abul":6621,"26":6622,"onomy":6623,"Ġhydro":6624,"ii":6625,"ĠAsk":6626,"ighter":6627,"ka":6628,"ora":6629,"Ġstrategic":6630,"Ġstanding":6631,"Ġbridge":6632,"Ġpets":6633,"Ġfrag":6634,"Ġsentence":6635,"ato":6636,"Ġcenters":6637,"ĠLow":6638,"tration":6639,"Ġarms":6640,"Ġdistur":6641,"ĠDue":6642,"ifications":6643,"Ġdifficulties":6644,"anda":6645,"cers":6646,"Ġwarming":6647,"ĠTor":6648,"Ġhazard":6649,"Ġped":6650,"ĠNations":6651,"Ġdecade":6652,"Ġbond":6653,"Ġprocessed":6654,"Ġholding":6655,"ĠFree":6656,"Ġadvent":6657,"ĠRad":6658,"Ġreader":6659,"ĠKen":6660,"Ġtes":6661,"draw":6662,"Ġtitle":6663,"Ġmeaningful":6664,"iotic":6665,"rest":6666,"charge":6667,"SS":6668,"timate":6669,"Ġfatigue":6670,"Ġmeasurement":6671,"Ġinvolving":6672,"'ve":6673,"mes":6674,"Ġgrid":6675,"ĠBook":6676,"Ġadvert":6677,"Ġaccommod":6678,"ĠFigure":6679,"Ġexpectations":6680,"Ġdecor":6681,"son":6682,"ĠLou":6683,"vis":6684,"ĠHind":6685,"ĠColl":6686,"tag":6687,"Ġviruses":6688,"Ġremarkable":6689,"Ġmand":6690,"ĠMach":6691,"Ġpin":6692,"Ġcontrols":6693,"Ġsight":6694,"There":6695,"Ġfav":6696,"Ġoverwhel":6697,"Ġcoron":6698,"Ġeducators":6699,"Ġknowing":6700,"tang":6701,"Ġyounger":6702,"ĠNative":6703,"Ġresolution":6704,"ĠAmong":6705,"Ġvolunte":6706,"Ġcategories":6707,"iability":6708,"Ġthermal":6709,"ĠColor":6710,"Ġfif":6711,"Ġobesity":6712,"Ġnose":6713,"point":6714,"BC":6715,"Ġproven":6716,"eng":6717,"Ġadvancements":6718,"Ġglucose":6719,"ĠOverall":6720,"state":6721,"Ġreceiving":6722,"Ġplayer":6723,"How":6724,"Ġtap":6725,"Ġengineers":6726,"Ġgun":6727,"Ġdentist":6728,"Ġpercentage":6729,"Ġarrange":6730,"ĠSolar":6731,"ĠMat":6732,"aming":6733,"born":6734,"Ġvac":6735,"aping":6736,"Ġfats":6737,"Ġarmy":6738,"Ġpersons":6739,"ĠTrad":6740,"Ġtall":6741,"ĠLim":6742,"Ġregulation":6743,"Ġwest":6744,"Ġemployed":6745,"ĠPacific":6746,"Ġversat":6747,"Ġconsideration":6748,"anches":6749,"Ġrab":6750,"Ġintegrity":6751,"Ġunw":6752,"Ġmatters":6753,"ĠNote":6754,"Ġnan":6755,"Ġvarieties":6756,"28":6757,"ĠLu":6758,"rimination":6759,"Ġstimul":6760,"Ġpossibly":6761,"Ġbanks":6762,"Ġremoving":6763,"thma":6764,"Ġpopularity":6765,"Ġunknown":6766,"ĠEnd":6767,"Ġopened":6768,"ĠCam":6769,"ĠIN":6770,"Ġthanks":6771,"Ġdiscrimination":6772,"Ġnest":6773,"Ġunless":6774,"Ġexten":6775,"words":6776,"Ġpictures":6777,"Ġappoint":6778,"Ġregardless":6779,"ĠEns":6780,"Ġderived":6781,"osqu":6782,".âĢĻ":6783,"Ġaccepted":6784,"Ġprison":6785,"ĠGold":6786,"irds":6787,"Ġyield":6788,"Ġuncertain":6789,"uality":6790,"Ġentry":6791,"Ġwhereas":6792,"ĠBack":6793,"ĠRob":6794,"ceptions":6795,"Ġmode":6796,"Ġtells":6797,"ĠEqu":6798,"Ġnarrow":6799,"Ġsheet":6800,"Ġexamination":6801,"ray":6802,"Ġbor":6803,"Ġfever":6804,"Ġturns":6805,"Ġclient":6806,"RO":6807,"Ġengaged":6808,"otyp":6809,"uous":6810,"Ġoutcome":6811,"Ġances":6812,"Ġpreferences":6813,"la":6814,"guard":6815,"outs":6816,"here":6817,"Ġinsight":6818,"Ġexpansion":6819,"Ġcriteria":6820,"orous":6821,"Ġorganisms":6822,"Ġpositions":6823,"Ġmicros":6824,"thesis":6825,"Ġlaboratory":6826,"osion":6827,"Ġbreeding":6828,"Ġreplaced":6829,"berg":6830,"Ġcontributes":6831,"ĠWhich":6832,"Ġwait":6833,");":6834,"ĠGard":6835,"field":6836,"zen":6837,"ĠCurrent":6838,"ensus":6839,"Ġfacilitate":6840,"van":6841,"cour":6842,"auth":6843,"Ġ2009":6844,"Ġappeared":6845,"irect":6846,"ĠBay":6847,"Ġtro":6848,"Ġsecret":6849,"gressive":6850,"Ġ29":6851,"ĠFind":6852,"Ġsuscep":6853,"Ġtargets":6854,"Ġincorporating":6855,"Ġsavings":6856,"Ġaccurately":6857,"ĠFranc":6858,"asters":6859,"ĠBeing":6860,"Ġburning":6861,"anged":6862,"thes":6863,"Ġscore":6864,"abulary":6865,"Ġwife":6866,"Ġ2008":6867,"Ġinhib":6868,"Ġequival":6869,"Ġprofit":6870,"yme":6871,"27":6872,"Ġhttp":6873,"Ġpron":6874,"Ġbringing":6875,"Ġapparent":6876,"Ġdanger":6877,"Ġuniversity":6878,"raft":6879,"Ġmeters":6880,"Ġvaccines":6881,"ĠFlorida":6882,"Ġremed":6883,"Ġprecision":6884,"advanta":6885,"tac":6886,"Ġpresents":6887,"Ġpas":6888,"luding":6889,"Ġcomparison":6890,"Ġwestern":6891,"ek":6892,"aker":6893,"Ġdomain":6894,"Ġpregnant":6895,"Ġopposite":6896,"HO":6897,"ĠLanguage":6898,"ĠProcess":6899,"Ġpromotes":6900,"Ġlung":6901,"Ġphenomenon":6902,"Ġdistrict":6903,"Ġeld":6904,"Ġindoor":6905,"hand":6906,"Ġpests":6907,"Ġinstruction":6908,"spec":6909,"Ġstrain":6910,"Ġnearby":6911,"zed":6912,"tories":6913,"Ġserving":6914,"ĠSymptoms":6915,"flamm":6916,"ĠAustralian":6917,"Ġneighbor":6918,"war":6919,"Ġabnormal":6920,"oul":6921,"vol":6922,"Ġfacility":6923,"ĠMag":6924,"Ġexpressed":6925,"Ġattend":6926,"Ġcopper":6927,"Ġethnic":6928,"oT":6929,"ena":6930,"Ġunus":6931,"yright":6932,"Ġends":6933,"gener":6934,"iture":6935,"ĠLand":6936,"Ġsoldiers":6937,"ĠThomas":6938,"osts":6939,"Ġrow":6940,"ĠNutr":6941,"ĠTable":6942,"Ġworksh":6943,"ĠAlex":6944,"Ġgal":6945,"Ġhundred":6946,"ĠCat":6947,"nab":6948,"ĠTHE":6949,"500":6950,"Ġreturned":6951,"ĠNext":6952,"Ġweakness":6953,"Ġdisabilities":6954,"ael":6955,"ella":6956,"Ġpossibilities":6957,"irs":6958,"Ġagency":6959,"alian":6960,"dep":6961,"win":6962,"Ġdebate":6963,"Ġknew":6964,"Ġsensitivity":6965,"Ġtrials":6966,"Ġcontainer":6967,"Ġinstallation":6968,"Ġobserve":6969,"itely":6970,"Ġpoison":6971,"ĠPot":6972,"rence":6973,"Ġmeth":6974,"ĠWr":6975,"allow":6976,"Ġquantum":6977,"Ġrid":6978,"ĠCommunity":6979,"Ġoriginally":6980,"Ġbabies":6981,"Ġencryp":6982,"Ġcraf":6983,"Ġzone":6984,"Ġpassion":6985,"ymph":6986,"Ġfuels":6987,"ĠSov":6988,"Ġcopy":6989,"__":6990,"dration":6991,"bled":6992,"Ġstakeholders":6993,"Ġflower":6994,"Ġvent":6995,"west":6996,"Ġhoney":6997,"Ġwindows":6998,"Ġsession":6999,"Ġemerging":7000,"Ġcrime":7001,"Ġfostering":7002,"Ġsacr":7003,"entive":7004,"ediat":7005,"Ġdistributed":7006,"Ġmembr":7007,"Ġcoverage":7008,"Ġcompliance":7009,"Ġhidden":7010,"Ġ500":7011,"Ġextend":7012,"Ġautomatically":7013,"Ġwriter":7014,"ING":7015,"Ġhole":7016,"Ġcomplicated":7017,"ĠSpecial":7018,"assion":7019,"Ġstrict":7020,"gar":7021,"erge":7022,"ĠUV":7023,"Ġmarriage":7024,"tices":7025,"35":7026,"ĠStat":7027,"Ġbread":7028,"ĠLight":7029,"ifies":7030,"Ġadvis":7031,"Ġevolved":7032,"Ġcontemporary":7033,"ĠEgypt":7034,"ĠLook":7035,"Ġaudio":7036,"Ġclu":7037,"Ġrhyth":7038,"ĠBro":7039,"igent":7040,"Ġille":7041,"Ġavoiding":7042,"Ġgear":7043,"Ġcup":7044,"Ġfriendly":7045,"Ġpaint":7046,"Ġtack":7047,"Ġvillage":7048,"Ġinhab":7049,"Ġfatty":7050,"Ġdin":7051,"Ġmissing":7052,"Ġcot":7053,"Ġattached":7054,"ION":7055,"Ġfinance":7056,"100":7057,"Ġsections":7058,"Ġtargeted":7059,"Ġsubstantial":7060,"Ġbelie":7061,"Ġapplying":7062,"ĠExamples":7063,"29":7064,"Ġlands":7065,"ĠClick":7066,"ĠTra":7067,"aught":7068,"aws":7069,"Ġpersonalized":7070,"IP":7071,"adder":7072,"Ġreb":7073,"Ġben":7074,"Ġregulate":7075,"ota":7076,"ĠServices":7077,"Ġdetermining":7078,"DF":7079,"Ġpowder":7080,"roat":7081,"iph":7082,"Ġpair":7083,"Ġcompens":7084,"ĠChange":7085,"à¥":7086,"ĠNever":7087,"ĠWood":7088,"Ġcompetitive":7089,"using":7090,"Ġintest":7091,"ĠHelp":7092,"alls":7093,"Ġcalm":7094,"erape":7095,"ĠFederal":7096,"Ġunn":7097,"Ġbrows":7098,"Ġincorporate":7099,"Ġasking":7100,"BT":7101,"ĠParis":7102,"roduction":7103,"Ġcompare":7104,"ĠpH":7105,"Ġrepresentation":7106,"ĠDifferent":7107,"Ġmeasurements":7108,"ecting":7109,"Ġfighting":7110,"ĠChristmas":7111,"ostic":7112,"%.":7113,"iger":7114,"ĠBitcoin":7115,"Ġcomplexity":7116,"Ġjump":7117,"Ġlaunched":7118,"ipe":7119,"ĠResearchers":7120,"Ġprompt":7121,"Ġintensity":7122,"Ġlaser":7123,"Ġhabitats":7124,"ĠIndigenous":7125,"RC":7126,"ola":7127,"Ġbees":7128,"Ġhormones":7129,"Ġarchitect":7130,"ircle":7131,"Ġnarrative":7132,"Ġstrengthen":7133,"su":7134,"acles":7135,"itious":7136,"ĠWal":7137,"ĠSeveral":7138,"Ġaccident":7139,"Ġcolleagues":7140,"Ġflour":7141,"olar":7142,"Ġpeak":7143,"Ġshut":7144,"ĠPhysical":7145,"Ġcryptocur":7146,"Ġchest":7147,"Ġmusical":7148,"Ġmeditation":7149,"Ġdrivers":7150,"Ġlon":7151,"Ġpayment":7152,"izz":7153,"Ġsurge":7154,"otion":7155,"ĠOffice":7156,"Ġholes":7157,"ĠKh":7158,"Ġtight":7159,"ĠImpact":7160,"Ġsensor":7161,"Ġinequ":7162,"OC":7163,"Ġshel":7164,"iform":7165,"Ġintricate":7166,"Ġremind":7167,"ĠClean":7168,"ĠCatholic":7169,"Ġ45":7170,"osquito":7171,"ala":7172,"lines":7173,"ĠArmy":7174,"ĠType":7175,"Ġflav":7176,"ĠCanadian":7177,"Ġdefense":7178,"gical":7179,"Ġpredict":7180,"Ġvariable":7181,"ĠContin":7182,"ĠReview":7183,"ĠVar":7184,"Ġliber":7185,"Ġanywhere":7186,"Ġphilosophy":7187,"Ġfitness":7188,"zil":7189,"Ġspin":7190,"Ġcorn":7191,"Ġscene":7192,"ĠGuide":7193,"pat":7194,"Ġindeed":7195,"Ġhumidity":7196,"ressing":7197,"sis":7198,"amine":7199,"Ġhappening":7200,"Ġspectrum":7201,"Ġreporting":7202,"such":7203,"with":7204,"Ġmetals":7205,"Ġintroduce":7206,"utation":7207,"ĠCarol":7208,"Ġ186":7209,"ĠImm":7210,"Ġterritory":7211,"ĠOnline":7212,"ĠSil":7213,"ĠCancer":7214,"Ġpackaging":7215,"Ġmeta":7216,"Ġdepartment":7217,"entia":7218,"Ġdemonstrated":7219,"Ġcriminal":7220,"Ġstring":7221,"plant":7222,"throp":7223,"onomic":7224,"SE":7225,"Ġdriver":7226,"ĠRef":7227,"itals":7228,"Ġaes":7229,"ĠStrateg":7230,"ĠBur":7231,"isted":7232,"ĠBank":7233,"tians":7234,"onia":7235,"Ġturb":7236,"ĠBab":7237,"ĠModern":7238,"Ġscrip":7239,"Ġ1990":7240,"Ġpolitics":7241,"Ġstores":7242,"icide":7243,"Ġfalls":7244,"Ġnegoti":7245,"Ġdoubt":7246,"ĠHaw":7247,"Ġparameters":7248,"ker":7249,"Ġformula":7250,"ĠAge":7251,"Ġcategory":7252,"ada":7253,"Ġrefuge":7254,"Ġperspectives":7255,"Ġoutbre":7256,"Ġreaching":7257,"liament":7258,"Ġfalse":7259,"Ġmemor":7260,"itting":7261,"Ġprove":7262,"no":7263,"atom":7264,"Ġencourages":7265,"Ġgrains":7266,"Ġinterpre":7267,"neys":7268,"iated":7269,"Ġresulted":7270,"Ġparas":7271,"Ġbranches":7272,"Ġshowc":7273,"Ġfinger":7274,"Ġexpenses":7275,"Ġjoy":7276,"Ġgone":7277,"ĠLabor":7278,"Ġlegislation":7279,"Ġexists":7280,"Ġrepresented":7281,"Ġruns":7282,"Ġmeasuring":7283,"Äģ":7284,"LA":7285,"Ġfailed":7286,"Ġautism":7287,"ĠDown":7288,"avery":7289,"Ġpowers":7290,"ĠReduc":7291,"Ġdeeply":7292,"ested":7293,"inity":7294,"Ġdance":7295,"Ġrealize":7296,"PU":7297,"Ġ...":7298,"ĠAdministr":7299,"ione":7300,"45":7301,"Ġvariables":7302,"Ġliteracy":7303,"Ġimproves":7304,"Ġweigh":7305,"Ġtrouble":7306,"aired":7307,"ĠTypes":7308,"Ġarts":7309,"Ġjoints":7310,"Ġmanufacture":7311,"olate":7312,"Ġsectors":7313,"teenth":7314,"Ġdelve":7315,"ĠOcean":7316,"heets":7317,"Ġheavily":7318,"ĠBig":7319,"ĠJud":7320,"ĠDev":7321,"unic":7322,"ecess":7323,"Ġminimal":7324,"DP":7325,"Ġepis":7326,"Ġregulatory":7327,"ĠCommit":7328,"ĠAgric":7329,"esides":7330,"ĠAff":7331,"ĠNon":7332,"Ġmineral":7333,"ĠFace":7334,"Ġsequence":7335,"Ġeast":7336,"orders":7337,"amination":7338,"acco":7339,"world":7340,"Ġemployee":7341,"Ġknows":7342,"Ġroute":7343,"Ġren":7344,"Ġprey":7345,"Ġpreserve":7346,"ait":7347,"ultane":7348,"ĠFund":7349,"Ġexcept":7350,"Ġaimed":7351,"Ġparalle":7352,"An":7353,"Ġtracking":7354,"edge":7355,"ĠCompany":7356,"while":7357,"Ġwhatever":7358,"Ġrivers":7359,"Ġenhanced":7360,"Ġperception":7361,"Ġstorm":7362,"made":7363,"Ġlatter":7364,"Ġseverity":7365,"Ġcarbohydr":7366,"heimer":7367,"DS":7368,"Ġfishing":7369,"ĠRevolution":7370,"Ġvariations":7371,"ĠDan":7372,"ĠReport":7373,"uming":7374,"Ġnitrogen":7375,"Ġarray":7376,"Ġduration":7377,"ĠStudy":7378,"Ġshed":7379,"Ġspots":7380,"Ġborder":7381,"phone":7382,"Ġpersonality":7383,"log":7384,"ĠPain":7385,"Ġharder":7386,"Ġwheel":7387,"Ġpresentation":7388,"Ġcompound":7389,"Ġcontributions":7390,"Ġwine":7391,"Ġartist":7392,"Ġcoc":7393,"Ġ300":7394,"Ġfestiv":7395,"isters":7396,"azon":7397,"Ġgrows":7398,"Ġhorses":7399,"Ġperforming":7400,"Ġcollective":7401,"ween":7402,"Ġwasn":7403,"Ġprominent":7404,"Ġintellectual":7405,"Ġconsumed":7406,"ĠUk":7407,"Ġalternatives":7408,"Ġapproved":7409,"ĠAssess":7410,"ĠWorks":7411,"Ġguard":7412,"ĠLead":7413,"lection":7414,"bersecurity":7415,"Ġinduc":7416,"tainment":7417,"Ġwider":7418,"Ġdecreased":7419,"affe":7420,"ĠFamily":7421,"Ġgro":7422,"irt":7423,"otherapy":7424,"Ġcu":7425,"Ġlosses":7426,"athers":7427,"ĠOx":7428,"ientist":7429,"ĠPython":7430,"Ġinvestors":7431,"oys":7432,"Ġaward":7433,"Ġcelebrate":7434,"Ġdelivered":7435,"ĠIniti":7436,"Ġchief":7437,"Ġdistinc":7438,"Ġinterface":7439,"Ġencouraged":7440,"ĠAuthor":7441,"Ġbroader":7442,"Ġvocabulary":7443,"Ġadoles":7444,"Ġinvestments":7445,"ĠIll":7446,"99":7447,"Ġtexts":7448,"Ġbiom":7449,"Ġaccounting":7450,"Ġimprovements":7451,"Ġinclusive":7452,"Ġhus":7453,"Ġfur":7454,"Ġdriven":7455,"avirus":7456,"Ġbranch":7457,"Ġidentification":7458,"Ġblow":7459,"Ġrecep":7460,"ĠWord":7461,"Ġultr":7462,"Ġsought":7463,"rac":7464,"brid":7465,"Ġaccidents":7466,"ĠSpe":7467,"ĠMet":7468,"arium":7469,"Ġallergies":7470,"ĠPubl":7471,"Ġrevenue":7472,"Ġnone":7473,"Ġangle":7474,"Ġimaging":7475,"Ġroads":7476,"Ġmoves":7477,"ĠBest":7478,"Ġblind":7479,"ĠFish":7480,"Ġrecording":7481,"alities":7482,"Ġkeeps":7483,"ĠMental":7484,"Ġmaps":7485,"Ġtransformation":7486,"ĠMethod":7487,"ĠDiv":7488,"EO":7489,"ĠSoviet":7490,"unning":7491,"emia":7492,"Ġabsorb":7493,"ĠOrig":7494,"Ġconvey":7495,"Ġemerged":7496,"Ġchlor":7497,"ĠMart":7498,"ĠTherap":7499,"Ġemotion":7500,"Ġequivalent":7501,"ectively":7502,"tically":7503,"agraph":7504,"Ġobservations":7505,"Ġdistr":7506,"ĠPak":7507,"When":7508,"Ġpestic":7509,"Ġdescription":7510,"do":7511,"tox":7512,"Ġaddressed":7513,"Ġvictims":7514,"Ġagents":7515,"ĠChallen":7516,"ĠBrazil":7517,"Ġrit":7518,"Ġphysically":7519,"Ġtexture":7520,"Ġwisdom":7521,"ensions":7522,"IM":7523,"Ġproof":7524,"conn":7525,"Ġnuts":7526,"rovers":7527,"Ġhistoric":7528,"ĠFuture":7529,"Ġeco":7530,"ĠBat":7531,"Ġbigger":7532,"||":7533,"Ġarise":7534,"Ġexhaus":7535,"Ġvibrant":7536,"auc":7537,"Ġshot":7538,"Ġpose":7539,"Ġpapers":7540,"ville":7541,"Ġphysics":7542,"Ġdose":7543,"Ġorient":7544,"otes":7545,"Ġsucceed":7546,"reland":7547,"Ġwearing":7548,"Ġrend":7549,"Ġasthma":7550,"Ġbehavioral":7551,"ĠRome":7552,"ĠItaly":7553,"Ġtele":7554,"Ġadmin":7555,"You":7556,"Ġdiscussions":7557,"Ġencomp":7558,"Ġring":7559,"oted":7560,"Ġpassing":7561,"ĠGene":7562,"eness":7563,"ĠEr":7564,"ĠProtection":7565,"ĠBoard":7566,"Ġstatements":7567,"acle":7568,"ĠMen":7569,"ĠPop":7570,"Ġtube":7571,"Ġhunting":7572,"Ġsilver":7573,"reed":7574,"Ġdependent":7575,"utch":7576,"Ġatten":7577,"ĠOF":7578,"75":7579,"Ġalter":7580,"ĠUSA":7581,"Ġdrawn":7582,"Ġequally":7583,"aked":7584,"apse":7585,"Ġfell":7586,"aria":7587,"comp":7588,"Ġadoption":7589,"Ġpiv":7590,"Ġillnesses":7591,"Ġecological":7592,"letes":7593,"ĠAlz":7594,"ĠMind":7595,"Ġfounded":7596,"Ġsubsequent":7597,"Ġscope":7598,"Ġfinish":7599,"ey":7600,"Ġequipped":7601,"ĠPrevention":7602,"ĠCharles":7603,"Ġamazing":7604,"Ġaging":7605,"Ġtheme":7606,"ĠNetwork":7607,"grade":7608,"Ġmanual":7609,"Ġscenarios":7610,"ĠEngineering":7611,"Ġchart":7612,"Ġmarks":7613,"Ġtension":7614,"Ġmotivation":7615,"ĠSelf":7616,"Ġissued":7617,"ĠIreland":7618,"Ġstreet":7619,"Ġantibiotics":7620,"Ġdestruction":7621,"erapeutic":7622,"Ġinitially":7623,"wing":7624,"ini":7625,"Ġtaxes":7626,"Ġupdated":7627,"Ġthereby":7628,"Ġsaving":7629,"Ġseconds":7630,"Ġlens":7631,"ĠWindows":7632,"Ġcarrying":7633,"Ġ2007":7634,"Ġdates":7635,"Ġcoastal":7636,"ĠShould":7637,"ĠNorthern":7638,"Ġstatistics":7639,"Ġescape":7640,"oper":7641,"ĠTraining":7642,"cies":7643,"Ġdepic":7644,"Ġdisaster":7645,"ien":7646,"ĠUkrain":7647,"Ġsummary":7648,"Ġbreaks":7649,"ÃŃ":7650,"Ġconsiderations":7651,"Ġbreaking":7652,"bris":7653,"Ġtac":7654,"Ġgrew":7655,"Ġdisability":7656,"ĠLED":7657,"Ġtons":7658,"ĠReading":7659,"Ġranging":7660,"Ġfeels":7661,"ĠAsian":7662,"Ġhem":7663,"efficient":7664,"working":7665,"net":7666,"ĠSimilarly":7667,"Ġinspired":7668,"ĠLar":7669,"Ġracial":7670,"ectors":7671,"ĠIndivid":7672,"Ġutilized":7673,"Ġbacterial":7674,"ĠIC":7675,"Ġtraits":7676,"Ġseam":7677,"ĠFire":7678,"Ġlock":7679,"onym":7680,"etary":7681,"irty":7682,"Ġmoderate":7683,"Ġneur":7684,"ittle":7685,"Ġcomposed":7686,"Ġconsuming":7687,"ĠMad":7688,"Ġbeings":7689,"Ġinven":7690,"Ġcurrency":7691,"Ġrelation":7692,"Ġforg":7693,"\",":7694,"fers":7695,"Ġmitigate":7696,"Ġsitting":7697,"ua":7698,"Ġkm":7699,"Ġphosph":7700,"ema":7701,"ML":7702,"Ġassociation":7703,"istical":7704,"Ġencouraging":7705,"oples":7706,"Ġuniversal":7707,"box":7708,"andon":7709,"Ġresponsibilities":7710,"Ġlungs":7711,"ĠHenry":7712,"ched":7713,"called":7714,"Ġsenior":7715,"ĠTV":7716,"Ġwound":7717,"Ġaffordable":7718,"Ġtheories":7719,"def":7720,"Ġhazards":7721,"ulp":7722,"ĠApplic":7723,"Ġtemporary":7724,"Ġscreening":7725,"Ġ1970":7726,"Ġgases":7727,"EP":7728,"mia":7729,"eting":7730,"Ġampl":7731,"Ġkitch":7732,"Ġmur":7733,"ĠRobert":7734,"Ġpriority":7735,"Ġterr":7736,"Ġpupils":7737,"arents":7738,"Ġhighlights":7739,"izers":7740,"Ġmistakes":7741,"ĠVirginia":7742,"ieval":7743,"ĠMars":7744,"Ġcirculation":7745,"esium":7746,"Ġemphasis":7747,"Ġcham":7748,"Ġdeficiency":7749,"ĠLouis":7750,"ĠQuestions":7751,"Ġalongside":7752,"ĠConstitution":7753,"itter":7754,"Ġallev":7755,"Ġchrom":7756,"ĠAlzheimer":7757,"Ġgent":7758,"Ġutilize":7759,"ĠSmith":7760,"Ġindigenous":7761,"Ġurine":7762,"Ġwithdraw":7763,"Ġsecre":7764,"trans":7765,"Ġbeans":7766,"TS":7767,"Ġsimultane":7768,"ĠPakistan":7769,"ĠSpain":7770,"ĠOften":7771,"Ġdisadvanta":7772,"ĠLeg":7773,"disc":7774,"Ġswelling":7775,"Ġnewsp":7776,"Ġabsence":7777,"ĠObs":7778,"Ġsoph":7779,"asant":7780,"Ġadverse":7781,"Ġestimate":7782,"Ġneutral":7783,"Ġmaintained":7784,"Ġanticip":7785,"ĠCamp":7786,"Ġbutton":7787,"ĠOper":7788,"ĠSouthern":7789,"Ġdifferenti":7790,"cul":7791,"Ġdil":7792,"elfare":7793,"Ġobst":7794,"Ġov":7795,"Ġinfluences":7796,"ĠFrank":7797,"ĠLibrary":7798,"Ġnur":7799,"Ġmuseum":7800,"ĠProm":7801,"ĠTre":7802,"Ġenhances":7803,"ĠSleep":7804,"Ġaddresses":7805,"Ġimagine":7806,"Ġcentre":7807,"Ġitem":7808,"Ġdestroyed":7809,"ĠEmpire":7810,"lessly":7811,"Ġconfig":7812,"Ġconstr":7813,"Ġouter":7814,"hea":7815,"effective":7816,"ĠRight":7817,"Ġske":7818,"Ġrestore":7819,"Ġbarrier":7820,"Ġsymbols":7821,"Ġinters":7822,"Ġmes":7823,"ĠIdentif":7824,"Ġintegral":7825,"Ġownership":7826,"Ġstain":7827,"33":7828,"Ġdynamics":7829,"Ġdairy":7830,"how":7831,"ĠLess":7832,"Ġforming":7833,"Ġmobility":7834,"Ġhumanity":7835,"fol":7836,"Ġtheore":7837,"Ġbuying":7838,"Ġcontributed":7839,"Ġestimates":7840,"Ġessentially":7841,"Ġattract":7842,"ĠSystems":7843,"Ġ1980":7844,"Ġpuzz":7845,"produc":7846,"Ġsmell":7847,"ĠAnalysis":7848,"Ġdiam":7849,"imm":7850,"ĠResources":7851,"ounce":7852,"ĠChoose":7853,"Ġinitiative":7854,"Ġdefend":7855,"Ġhonor":7856,"Ġcab":7857,"ĠIntegr":7858,"Ġthousand":7859,"Ġships":7860,"Ġà¤":7861,"soft":7862,"Ġencounter":7863,"NC":7864,"ĠIntell":7865,"ita":7866,"Ġarchae":7867,"Ġsurgical":7868,"Ġcas":7869,"Ġchicken":7870,"Ġrocks":7871,"rior":7872,"inson":7873,"Ġjus":7874,"Ġoils":7875,"Ġundergo":7876,"unicip":7877,"Ġdish":7878,"Ġartistic":7879,"Ġmice":7880,"amil":7881,"Ġcolumn":7882,"Ġfalling":7883,"lings":7884,"Ġenthusi":7885,"ĠLevel":7886,"ĠAmazon":7887,"Ġtoys":7888,"arency":7889,"ĠFollowing":7890,"Ġaids":7891,"Ġbiology":7892,"Ġprevents":7893,"Ġdecay":7894,"Ġspect":7895,"Is":7896,"Ġrealm":7897,"ih":7898,"Ġdrinks":7899,"Ġquantity":7900,"Ġreveal":7901,"icating":7902,"ĠColumb":7903,"ugs":7904,"Ġcontained":7905,"ĠValley":7906,"ura":7907,"Ġsatellite":7908,"ĠEastern":7909,"Ġconstructed":7910,"Ġ75":7911,"Ġcontainers":7912,"ĠItalian":7913,"Ġhal":7914,"writ":7915,"Ġresid":7916,"Ġappreciate":7917,"Ġexhibit":7918,"Ġshaping":7919,"Ġjoined":7920,"Ġconserv":7921,"Ġinvesting":7922,"ĠBuddh":7923,"Ġvote":7924,"].":7925,"Ġunusual":7926,"ĠVictor":7927,"Ġflows":7928,"Ġstones":7929,"Ġreplacement":7930,"irms":7931,"ĠVer":7932,"rier":7933,"Ġtemple":7934,"Ġengines":7935,"Ġmixture":7936,"iang":7937,"Ġdollars":7938,"apor":7939,"ĠAcademy":7940,"Ġpsychology":7941,"ĠKingdom":7942,"Ġradical":7943,"Ġconj":7944,"Ġ2024":7945,"Ġpainful":7946,"Ġprohib":7947,"Ġol":7948,"Ġattempts":7949,"ĠBased":7950,"Ġaccompan":7951,"Ġirrig":7952,"Ġcompris":7953,"Ġsuit":7954,"ĠCreate":7955,"Ġanalyzing":7956,"Ġshaped":7957,"ĠÎ":7958,"atial":7959,"ĠMah":7960,"Ġconflicts":7961,"Ġequality":7962,"Ġplanned":7963,"Ġvaries":7964,"Ġphotos":7965,"Ġdiagr":7966,"Ġtough":7967,"Ġmosquito":7968,"Ġinterpretation":7969,"Ġscal":7970,"Ġpractition":7971,"ĠLin":7972,"ĠTips":7973,"ĠYoun":7974,"ymes":7975,"Ġconversations":7976,"Ġsusceptible":7977,"Ġcontrovers":7978,"Ġmas":7979,"Ġmathematical":7980,"cend":7981,"onn":7982,"ĠChat":7983,"Ġannounced":7984,"iances":7985,"ĠStreet":7986,"Ġcontrolling":7987,"Ġgardens":7988,"Ġcure":7989,"Ġcelebrated":7990,"yal":7991,"ĠPractice":7992,"cled":7993,"Ġpreparing":7994,"Ġillegal":7995,"Ġalumin":7996,"ĠSmall":7997,"Ġqualities":7998,"tong":7999,"holds":8000,"Ġpreferred":8001,"Ġ1960":8002,"Ġdebris":8003,"assium":8004,"Ġalgorithm":8005,"Ġhappiness":8006,"itarian":8007,"kers":8008,"Ġtract":8009,"ĠComple":8010,"Ġraising":8011,"Ġcough":8012,"Ġcovering":8013,"Ġmetabolism":8014,"Ġinstant":8015,"Ġarrived":8016,"Ġcooperation":8017,"tem":8018,"Ġlosing":8019,"US":8020,"Ġfinished":8021,"ĠEc":8022,"Ġears":8023,"Ġpassage":8024,"Ġclothes":8025,"eeding":8026,"Ġherb":8027,"Ġrestrictions":8028,"urric":8029,"Ġcaptured":8030,"Ġprogramme":8031,"Ġassump":8032,"Ġdevelopments":8033,"Ġentering":8034,"ĠPlay":8035,"ĠIoT":8036,"Ġproto":8037,"Ġinvestigation":8038,"Ġconvenient":8039,"Ġpaying":8040,"IA":8041,"Ġearn":8042,"part":8043,"Ġprescribed":8044,"ette":8045,"Ġpounds":8046,"ĠMaterial":8047,"Ġ150":8048,"Ġtone":8049,"Ġmanagers":8050,"ĠSuper":8051,"Ġoptimize":8052,"Ġran":8053,"Ġfed":8054,"Ġscenario":8055,"Ġflash":8056,"Ġcotton":8057,"Ġbonds":8058,"Ġexplanation":8059,"Ġstruggling":8060,"Ġtransmit":8061,"isations":8062,"Ġsan":8063,"Ġusual":8064,"Ġcontex":8065,"Ġsupposed":8066,"Ġsophistic":8067,"LE":8068,"Ġphysi":8069,"Ġling":8070,"ĠBehav":8071,"theast":8072,"Ġtrading":8073,"Ġperm":8074,"ocolate":8075,"ĠJoseph":8076,"Ġtech":8077,"Ġspecialist":8078,"ĠMountain":8079,"Ġsensory":8080,"RA":8081,"Ġtherapeutic":8082,"Ġacknowled":8083,"Ġlifes":8084,"Ġneighborhood":8085,"Ġaggressive":8086,"Ġsafeguard":8087,"va":8088,"ĠThree":8089,"type":8090,"95":8091,"itan":8092,"ĠCentre":8093,"Ġbleeding":8094,"bial":8095,"Ġprone":8096,"ĠPeter":8097,"taur":8098,"Ġcomments":8099,"Ġtropical":8100,"Ġmanager":8101,"Ġfaces":8102,"Ġdrought":8103,"Ġhorizon":8104,"ĠHand":8105,"ĠHeart":8106,"ĠSer":8107,"ĠSup":8108,"ĠExerc":8109,"Ġ2005":8110,"Ġbias":8111,"gry":8112,"Ġweapons":8113,"ĠCommittee":8114,"ĠTool":8115,"Ġstrongly":8116,"uster":8117,"Ġorigins":8118,"ĠDirector":8119,"Ġdifferently":8120,"trate":8121,"quir":8122,"Ġconcerning":8123,"istency":8124,"roc":8125,"ĠAgency":8126,"ĠWriting":8127,"Ġmathematics":8128,"Ġthemes":8129,"Ġoxid":8130,"Ġfootprint":8131,"Ġresem":8132,"Ġshock":8133,"Ġagreed":8134,"ĠMel":8135,"Ġoperational":8136,"Ġstations":8137,"Ġfarms":8138,"Ġacute":8139,"Ġstaying":8140,"Ġforth":8141,"ĠOh":8142,"Ġminds":8143,"Ġgrain":8144,"Ġcontribution":8145,"ĠBlood":8146,"Ġbrains":8147,"Ġtomat":8148,"Ġthread":8149,"Ġventi":8150,"Ġinn":8151,"Ġrequiring":8152,"Ġlikelihood":8153,"ĠArticle":8154,"Ġargue":8155,"Ġlegisl":8156,"ample":8157,"Ġadm":8158,"ĠSustainable":8159,"Ġoccurring":8160,"Ġassessments":8161,"Ġceremon":8162,"usting":8163,"Ġfemales":8164,"Ġgramm":8165,"Ġdivision":8166,"Ġtens":8167,"erts":8168,"Ġfo":8169,"Ġrarely":8170,"aved":8171,"Ġdementia":8172,"Ġholiday":8173,"ocy":8174,"Ġunp":8175,"tan":8176,"ĠHead":8177,"ĠJohns":8178,"Ġdecent":8179,"Ġfrustr":8180,"ĠRoyal":8181,"Ġappeal":8182,"abs":8183,"Ġparallel":8184,"Ġpropag":8185,"uation":8186,"orph":8187,"SC":8188,"Ġmaybe":8189,"aque":8190,"ĠOrganization":8191,"ĠMill":8192,"mentation":8193,"ĠScott":8194,"Ġ2006":8195,"Ġlasting":8196,"ĠGal":8197,"Ġgrant":8198,"earing":8199,"occ":8200,"Ġ31":8201,"ucks":8202,"Ġsuppor":8203,"pers":8204,"Ġconstitu":8205,"ĠDu":8206,"Ġenrich":8207,"ĠCard":8208,"Ġmerely":8209,"unt":8210,"Ġtong":8211,"Ġfunctionality":8212,"Ġestablishing":8213,"ietal":8214,"ediatric":8215,"Ġinfer":8216,"Ġsocieties":8217,"Ġwriters":8218,"hel":8219,"through":8220,"Ġdetected":8221,"Ġmigration":8222,"Ġended":8223,"Ġabsorption":8224,"Ġsuperior":8225,"Ġnotic":8226,"PC":8227,"tably":8228,"mega":8229,"Ġroughly":8230,"Ġvalve":8231,"ĠMoon":8232,"Ġglobe":8233,"solving":8234,"astro":8235,"ĠADHD":8236,"itory":8237,"Ġexception":8238,"Ar":8239,"urated":8240,"Ġ36":8241,"ĠElectr":8242,"Ġflo":8243,"Ġrequirement":8244,"Ġdaughter":8245,"Ġgambling":8246,"Ġpromise":8247,"ĠEp":8248,"ki":8249,"author":8250,"Ġcolonial":8251,"burg":8252,"Ġprioritize":8253,"Ġtailored":8254,"ĠSource":8255,"Ġmolecular":8256,"opl":8257,"Ġpredators":8258,"Ġselecting":8259,"Ġcorrel":8260,"Ġasset":8261,"ket":8262,"ru":8263,"bur":8264,"HA":8265,"ĠFour":8266,"Ġmales":8267,"berry":8268,"ĠAR":8269,"Ġconsistently":8270,"Ġ188":8271,"Ġshorter":8272,"iny":8273,"Ġprinted":8274,"Ġdegrad":8275,"Ġchat":8276,"Ġlegacy":8277,"Ġwinning":8278,"Ġneural":8279,"Ġpace":8280,"pling":8281,"Ġprolong":8282,"ĠFrequ":8283,"ĠHosp":8284,"ani":8285,"Ġgums":8286,"Ġsleeping":8287,"Ġempathy":8288,"Ġwaiting":8289,"Ġreti":8290,"Ġdoors":8291,"Ġmortality":8292,"puts":8293,"Ġretr":8294,"Ġguarantee":8295,"Ġreform":8296,"heet":8297,"Ġcaptiv":8298,"ĠTim":8299,"Ġcommission":8300,"Ġvertical":8301,"Ġlap":8302,"Ġtranslation":8303,"Ġabandon":8304,"rect":8305,"ĠMonitor":8306,"Ġfires":8307,"Ġcannab":8308,"Ġmarg":8309,"Ġelder":8310,"Ġsynthetic":8311,"auses":8312,"Ġpest":8313,"Ġcircle":8314,"ĠHence":8315,"Ġconfirmed":8316,"Ġreson":8317,"Ġyoga":8318,"ĠMulti":8319,"Ġlaid":8320,"ĠKar":8321,"ĠDid":8322,"Ġdiarr":8323,"Ġparagraph":8324,"Ġpel":8325,"Ġcoating":8326,"Ġcanal":8327,"Ġjudge":8328,"tify":8329,"Ġindicated":8330,"Ġreliability":8331,"Ġtables":8332,"ĠContact":8333,"Ġvegetable":8334,"OU":8335,"ano":8336,"Ġcharging":8337,"flammatory":8338,"Ġprofile":8339,"36":8340,"Ġoverview":8341,"Ġquiet":8342,"TP":8343,"ĠDemocr":8344,"Ã¶":8345,"Ġphysician":8346,"Ġspinal":8347,"Ġkit":8348,"ĠGeorg":8349,"ĠAnn":8350,"reprene":8351,"Ġnewly":8352,"Ġfairly":8353,"Ġconvert":8354,"Ġlymph":8355,"ĠBetween":8356,"Ġproportion":8357,"Ġrecre":8358,"Ġmanufacturer":8359,"ĠThanks":8360,"Ġcomplement":8361,"Ġpill":8362,"eping":8363,"Ġinsulation":8364,"ĠFer":8365,"Ġlabour":8366,"iva":8367,"ĠMusic":8368,"Ġrestoration":8369,"Ġversions":8370,"itively":8371,"rowth":8372,"Ġthyroid":8373,"Ġatom":8374,"Ġchannel":8375,"ĠSciences":8376,"Ġshell":8377,"arming":8378,"Ġeastern":8379,"lete":8380,"Ġtrick":8381,"ĠViet":8382,"Ġagent":8383,"NS":8384,"ĠDepending":8385,"ĠIrish":8386,"Ġreverse":8387,"Ġfertilizer":8388,"Ġswimming":8389,"berries":8390,"Ġclassified":8391,"ials":8392,"titutes":8393,"Ġcaught":8394,"Ġthroat":8395,"Ġhence":8396,"Ġdesigning":8397,"rencies":8398,"Ġacceler":8399,"umed":8400,"ĠMont":8401,"ĠHoly":8402,"ĠKids":8403,"rooms":8404,"BS":8405,"Ġvolcan":8406,"Ã³":8407,"ĠConservation":8408,"aware":8409,"Ġgeome":8410,"Ġconsiderable":8411,"Ġupdates":8412,"Ġembed":8413,"clusive":8414,"Ġopinions":8415,"Ġcompat":8416,"Ġsafer":8417,"eras":8418,"Ġtroops":8419,"Ġdesigners":8420,"Ġminute":8421,"Ġplus":8422,"Ġalike":8423,"Ġentreprene":8424,"Ġathletes":8425,"Ġimpair":8426,"aine":8427,"ĠCode":8428,"right":8429,"Ġbloom":8430,"Ġuniversities":8431,"Ġcharacteristic":8432,"Ġshad":8433,"ca":8434,"Ġloan":8435,"ĠAdministration":8436,"Ġembrace":8437,"Ġmanifest":8438,"Ġdefinitely":8439,"Ġpivotal":8440,"Ġgaps":8441,"Ġchemistry":8442,"Ġprotocols":8443,"ram":8444,"Ġret":8445,"Ġbite":8446,"Ġdiameter":8447,"Ġcompos":8448,"ĠRisk":8449,"Ġdeclared":8450,"Ġresistant":8451,"driven":8452,"Ġsigned":8453,"Ġrepeti":8454,"ĠBrown":8455,"Ġproductive":8456,"Ġphrase":8457,"Ġenorm":8458,"ube":8459,"Ġkitchen":8460,"Ġmerc":8461,"Ġfinds":8462,"uten":8463,"Ġpromising":8464,"Ġmask":8465,"ĠFil":8466,"Ġobservation":8467,"Ġfilters":8468,"ectivity":8469,"Ġextract":8470,"Ġassume":8471,"He":8472,"Ġentered":8473,"ographical":8474,"38":8475,"Ġvarying":8476,"mm":8477,"rad":8478,"ĠFacebook":8479,"Ġru":8480,"pet":8481,"ectious":8482,"Ġutilizing":8483,"Ġimmers":8484,"Ġdiscour":8485,"ĠJer":8486,"Ġcm":8487,"healthy":8488,"Ġcalculate":8489,"Ġreflects":8490,"Ġsolving":8491,"Ġhouseholds":8492,"Ġenvironmentally":8493,"Ġholistic":8494,"Ġadapted":8495,"rison":8496,"ĠAgain":8497,"criptions":8498,"ĠSwed":8499,"ĠStar":8500,"night":8501,"rolled":8502,"ĠEncour":8503,"48":8504,"Ġscientist":8505,"Ġnucle":8506,"thal":8507,"Ġca":8508,"stone":8509,"utely":8510,"Ġinterior":8511,"levision":8512,"Ġveterin":8513,"Ġvegetation":8514,"HS":8515,"Ġentr":8516,"met":8517,"anger":8518,"Ġdishes":8519,"Ġarthritis":8520,"IG":8521,"ĠHT":8522,"ĠQuality":8523,"Ġpublication":8524,"Ġthoroughly":8525,"Ġresidential":8526,"Ġtip":8527,"ĠPur":8528,"Ġrealistic":8529,"ĠPenn":8530,"Ġtwenty":8531,"Ġresearcher":8532,"uccess":8533,"apping":8534,"Ġinvestigate":8535,"ĠChic":8536,"Ġlake":8537,"Ġdevelops":8538,"imp":8539,"ĠEnh":8540,"ĠAltern":8541,"Ġheads":8542,"olding":8543,"Ġwww":8544,"expected":8545,"Ġreputation":8546,"Ġbrother":8547,"Ġcord":8548,"Ġpeer":8549,"Ġconnecting":8550,"Ġretail":8551,"ĠNeed":8552,"Ġautomation":8553,"ĠDiet":8554,"Ġdiets":8555,"Ġelection":8556,"Ġclassic":8557,"Ġtherapies":8558,"Ġcrew":8559,"dd":8560,"Ġessence":8561,"Ġcatal":8562,"ĠHor":8563,"Ġstuff":8564,"Ġuncover":8565,"ecessary":8566,"Ġluck":8567,"ikes":8568,"bar":8569,"Ġsoul":8570,"Ã¼":8571,"Ġsodium":8572,"ĠTherapy":8573,"but":8574,"Ġgentle":8575,"Ġwatching":8576,"Ġkilom":8577,"Ġdemocracy":8578,"Ġextin":8579,"Ġadopt":8580,"Ġ65":8581,"Ġslavery":8582,"MA":8583,"atoes":8584,"ĠMicrosoft":8585,"ĠGar":8586,"uctu":8587,"Ġlie":8588,"ĠIslam":8589,"orms":8590,"Ġmindfulness":8591,"Ġworst":8592,"Ġsomewhat":8593,"Re":8594,"FT":8595,"oves":8596,"Ġcancers":8597,"Ġinstances":8598,"Ġtic":8599,"Ġcircular":8600,"Ġvaried":8601,"Ġaged":8602,"Ġinflation":8603,"arded":8604,"Ġperceived":8605,"Ġempty":8606,"Ġdevast":8607,"Ġindirect":8608,"Ġharsh":8609,"ĠRoad":8610,"Ġcoordination":8611,"Ġdigestion":8612,"Ġevolving":8613,"Ġcybersecurity":8614,"ĠSpir":8615,"Ġpayments":8616,"Ġcorporate":8617,"Ġchew":8618,"ĠChapter":8619,"ĠDou":8620,"Ġexpanded":8621,"inery":8622,"ĠPlace":8623,"reets":8624,"Ġassigned":8625,"Ġplain":8626,"Ġincident":8627,"Ġassem":8628,"ĠMS":8629,"Ġdrainage":8630,"teem":8631,"play":8632,"Ġorange":8633,"ĠProble":8634,"Ġspan":8635,"Ġestate":8636,"asty":8637,"Ġcodes":8638,"otional":8639,"Ġknee":8640,"Ġpene":8641,"archy":8642,"Ġtourism":8643,"Ġsad":8644,"inf":8645,"rane":8646,"Ġdistinctive":8647,"Ġrose":8648,"ĠSar":8649,"Ġoldest":8650,"Ġtrav":8651,"ĠCross":8652,"Ġexamined":8653,"Ġisolation":8654,"ald":8655,"ishes":8656,"uan":8657,"angered":8658,"Ġsteam":8659,"igare":8660,"ĠMichael":8661,"apt":8662,"ĠPerhaps":8663,"worth":8664,"ĠMaster":8665,"Ġutility":8666,"Ġneither":8667,"taking":8668,"Ġviral":8669,"Ph":8670,"icking":8671,"Ġmodified":8672,"ĠRole":8673,"Ġdiagnostic":8674,"sm":8675,"uh":8676,"Ġye":8677,"Ġattractive":8678,"For":8679,"ĠScientists":8680,"ĠBill":8681,"Ġpassword":8682,"ĠReal":8683,"Ġpracticing":8684,"ĠStress":8685,"Ġhack":8686,"Americ":8687,"azine":8688,"Ġepide":8689,"Ġrestaur":8690,"Ġscratch":8691,"Ġhospitals":8692,"Ġhusband":8693,"Ġtick":8694,"obile":8695,"Ġharness":8696,"Ġconsciousness":8697,"Ġachievement":8698,"Ġallergic":8699,"Ġintention":8700,"Ġmedicines":8701,"Ġclinic":8702,"jected":8703,"Ġpolar":8704,"Ġmarried":8705,"Ġearthqu":8706,"Ġunexpected":8707,"ĠPen":8708,"Ġduty":8709,"Ġspine":8710,"ĠCarolina":8711,"ĠExcel":8712,"Ġfourth":8713,"Ġgaming":8714,"Ġwatering":8715,"uman":8716,"Ġmoist":8717,"IL":8718,"ĠVietnam":8719,"ĠDen":8720,"Ġreturns":8721,"Ġnu":8722,"cell":8723,"Ġburden":8724,"Ġinstitution":8725,"nia":8726,"Ġchannels":8727,"Ġnotable":8728,"Ġtrem":8729,"Ġseat":8730,"ĠIndustr":8731,"Ġsuffered":8732,"Ġanger":8733,"Ġlip":8734,"ĠAlways":8735,"Ġsymptom":8736,"powered":8737,"Ġofficers":8738,"Ġcollaborative":8739,"Ġcontinuously":8740,"Ġshoes":8741,"Ġvig":8742,"books":8743,"Ġpollut":8744,"Ġinvolvement":8745,"ears":8746,"Ġsuperv":8747,"32":8748,"example":8749,"har":8750,"affeine":8751,"Ġinh":8752,"ĠProfession":8753,"Ġopposed":8754,"Ġmature":8755,"Ġaccessibility":8756,"ooting":8757,"Ġwelfare":8758,"Ġrobots":8759,"CD":8760,"Ġcompassion":8761,"Ġlec":8762,"Ġwheat":8763,"ployment":8764,"ĠPolicy":8765,"borne":8766,"ĠTimes":8767,"Ġsatisfaction":8768,"Ġgalax":8769,"Ġplot":8770,"Ġhaven":8771,"usal":8772,"Ġpartnership":8773,"ĠMaking":8774,"Ġrehab":8775,"Ġsentences":8776,"Ġcontamination":8777,"Ġappointment":8778,"Ġsimultaneously":8779,"Ġinhabit":8780,"ĠPersonal":8781,"Ġlogic":8782,"Ġpeers":8783,"Ġlibr":8784,"Ġdies":8785,"ĠEconomic":8786,"ĠIslamic":8787,"Ġcharged":8788,"Ġvom":8789,"function":8790,"ĠCov":8791,"Ġincredibly":8792,"ĠKorea":8793,"Ġlicens":8794,"Ġadvances":8795,"ĠSupre":8796,"Ġearliest":8797,"Ġlifetime":8798,"Ġmm":8799,"Ġtransparency":8800,"Ġshade":8801,"Ġuniform":8802,"Ġcable":8803,"Al":8804,"ĠIntelligence":8805,"Ġ400":8806,"ilitation":8807,"Ġflying":8808,"Ġislands":8809,"Ġreasonable":8810,"Ġtoile":8811,"Ġvariation":8812,"Ġspeeds":8813,"Ġtends":8814,"Ġattitude":8815,"Ġboy":8816,"Ġgiant":8817,"treated":8818,"ĠTom":8819,"una":8820,"Ġrobo":8821,"ester":8822,"ili":8823,"ĠDC":8824,"igan":8825,"Ġsculp":8826,"Ġboys":8827,"Ġtrace":8828,"Ġisolated":8829,"Ġsupportive":8830,"Ġposts":8831,"Ġshares":8832,"Ġreproductive":8833,"Ġinclusion":8834,"rog":8835,"uris":8836,"Ġrecycled":8837,"ĠZeal":8838,"Ġpeoples":8839,"ecraft":8840,"Ġappeti":8841,"mal":8842,"ĠAtlantic":8843,"Ġrelaxation":8844,"ĠYoung":8845,"nea":8846,"BA":8847,"ba":8848,"Ġreaches":8849,"Ġrefrig":8850,"ĠInnov":8851,"tification":8852,"Ġviewed":8853,"ortion":8854,"Ġcalling":8855,"Ġcalculated":8856,"Ġintelligent":8857,"Ġassignment":8858,"ĠSn":8859,"Ġrespectively":8860,"etry":8861,"Ġdiscipline":8862,"ounted":8863,"Ġtumor":8864,"Ġconce":8865,"onomous":8866,"ĠBul":8867,"Ġprosper":8868,"Ġevil":8869,"Ġpipe":8870,"Ġbless":8871,"itate":8872,"Ġfibers":8873,"Ġpod":8874,"Ġcraft":8875,"ĠThink":8876,"ooked":8877,"medi":8878,"Ġexport":8879,"enstr":8880,"illa":8881,"Ġparad":8882,"ogens":8883,"Ġstabil":8884,"tructive":8885,"Ġtransmitted":8886,"Ġglobally":8887,"isely":8888,"cience":8889,"Ġcycles":8890,"that":8891,"ĠWithin":8892,"ĠSta":8893,"Ġaf":8894,"Ġgranted":8895,"Ġsongs":8896,"Ġpersonnel":8897,"Ġreflection":8898,"Ġeditor":8899,"ĠIde":8900,"Ġbags":8901,"ilst":8902,"Ġcream":8903,"Ġfluctu":8904,"Ġirrigation":8905,"Ġjew":8906,"Ġfavour":8907,"rosion":8908,"ĠSmart":8909,"Ġcater":8910,"Ġdestination":8911,"tebr":8912,"uro":8913,"yer":8914,"rological":8915,"Ġexplicit":8916,"Ġut":8917,"owners":8918,"Ġdelicate":8919,"ĠSection":8920,"ĠNiger":8921,"Ġinvasive":8922,"Ġaccompanied":8923,"Ġhall":8924,"Ġcoding":8925,"Ġconsent":8926,"iosity":8927,"ĠForest":8928,"inflammatory":8929,"Ġcarbohydrates":8930,"Ġstrengths":8931,"Ġbee":8932,"acies":8933,"Ġspreading":8934,"Ġinspire":8935,"44":8936,"Ġimbal":8937,"Ġdive":8938,"ĠSTEM":8939,"quate":8940,"Ġorbit":8941,"Ps":8942,"ĠParty":8943,"Ġjuice":8944,"Ġworship":8945,"irth":8946,"Ġexperimental":8947,"kins":8948,"Ġsocietal":8949,"Ġassembly":8950,"ĠWorking":8951,"Ġsophisticated":8952,"Ġwonderful":8953,"Ġskilled":8954,"ĠHyd":8955,"ĠMinister":8956,"Ġsanc":8957,"Ġantioxidants":8958,"PD":8959,"ĠZealand":8960,"bacco":8961,"Ġimagination":8962,"Ġprotocol":8963,"ĠTaking":8964,"ĠHa":8965,"ĠGiven":8966,"Ġversatile":8967,"Ġanalytics":8968,"Ġtriggers":8969,"Ġprovision":8970,"Ġcommunications":8971,"Ġleak":8972,"ĠSupreme":8973,"Ġvisits":8974,"ensional":8975,"istor":8976,"37":8977,"Ġtrail":8978,"Ġcombine":8979,"Ġacting":8980,"ĠCommunication":8981,"Ġenforcement":8982,"Ġwellness":8983,"Ġdisposal":8984,"Ġwelding":8985,"ĠStill":8986,"oured":8987,"Ġdimensions":8988,"gov":8989,"ĠEV":8990,"Ġinspiration":8991,"ĠGenerally":8992,"Ġdepart":8993,"Ġdirections":8994,"Ġnursing":8995,"oly":8996,"Ġlifespan":8997,"Ġrating":8998,"Ġpipes":8999,"shaped":9000,"Ġacquired":9001,"Ġalive":9002,"Ġscores":9003,"resent":9004,"ashes":9005,"Ġplane":9006,"Ġenemy":9007,"ĠID":9008,"Ġpoem":9009,"Ġcorresponding":9010,"Ġclock":9011,"acent":9012,"Ġbills":9013,"ĠLiter":9014,"OL":9015,"Ġwellbeing":9016,"Ġ2004":9017,"including":9018,"Ġpassen":9019,"tune":9020,"Ġdischarge":9021,"Ġadolesc":9022,"Ġincredible":9023,"oving":9024,"Ġestablishment":9025,"aven":9026,"Ġtongue":9027,"Ġproceed":9028,"Ġfraud":9029,"ĠWatch":9030,"ĠRam":9031,"ĠLocal":9032,"ĠFinancial":9033,"Ġlinear":9034,"Ġalph":9035,"Ġstrike":9036,"ĠCus":9037,"rupt":9038,"Ġchocolate":9039,"ĠDental":9040,"Ġadaptation":9041,"Ġenzymes":9042,"Ġtobacco":9043,"Ġmembrane":9044,"Ġmunicip":9045,"class":9046,"Ġdiagnose":9047,"Ġarguments":9048,"rot":9049,"Ġequity":9050,"Ġpupp":9051,"ĠNaz":9052,"phones":9053,"ĠImportance":9054,"Ġevolve":9055,"ĠIV":9056,"Ġclassical":9057,"ĠDistrict":9058,"ĠRock":9059,"rd":9060,"Ġpotassium":9061,"Ġhybrid":9062,"IR":9063,"ĠHealthy":9064,"Ġfellow":9065,"Ġoste":9066,"ĠPut":9067,"town":9068,"Ġresc":9069,"Ġcorner":9070,"ece":9071,"ĠEnsure":9072,"Ġtemp":9073,"igible":9074,"Ġprincipal":9075,"On":9076,"ĠBelow":9077,"Ġgrounds":9078,"Ex":9079,"Ġtowns":9080,"Ġsplit":9081,"oots":9082,"PN":9083,"ĠMartin":9084,"ĠPriv":9085,"Ġvisiting":9086,"Ġliterary":9087,"Ġ>":9088,"Ġplanted":9089,"ĠMachine":9090,"ĠChicago":9091,"ikely":9092,"specific":9093,"Ġaccomplish":9094,"Ġconversion":9095,"Ġkingdom":9096,"df":9097,"actors":9098,"Ġpitch":9099,"Ġmetabolic":9100,"Ġconducting":9101,"agon":9102,"Ġquantities":9103,"autions":9104,"Ġproved":9105,"ĠPu":9106,"Ġseemed":9107,"Ġrepresenting":9108,"Ġpursue":9109,"ĠPay":9110,"Ġseal":9111,"ĠIII":9112,"ĠPrim":9113,"Ġparticipating":9114,"backs":9115,"Ġexpanding":9116,"Ġwhenever":9117,"regular":9118,"ĠScotland":9119,"Ġcope":9120,"ĠElectric":9121,"Ġenjoyed":9122,"gg":9123,"afe":9124,"ĠAth":9125,"ĠIran":9126,"ĠHall":9127,"Ġdominant":9128,"ĠIndeed":9129,"Ġextension":9130,"ĠArtificial":9131,"Ġvel":9132,"Ġlegi":9133,"ulates":9134,"Ġ185":9135,"Ġindicators":9136,"Ġautomated":9137,"Ġclay":9138,"Ġexecutive":9139,"Ġtang":9140,"ĠHindu":9141,"Ġhonest":9142,"Ġfet":9143,"bow":9144,"Ġmountains":9145,"Ġ32":9146,"Ġgly":9147,"Ġpersistent":9148,"Ġevident":9149,"cin":9150,"Ġenormous":9151,"Ġorganisations":9152,"Ġconfident":9153,"Ġimpressive":9154,"Ġalert":9155,"Ġseparated":9156,"Ġstructured":9157,"ĠBlock":9158,"ĠBang":9159,"Ġboat":9160,"Ġtempor":9161,"Ġmemories":9162,"Ġradi":9163,"Ġconfusion":9164,"onents":9165,"Ġfing":9166,"ceans":9167,"Ġprevalent":9168,"fast":9169,"Ġperfectly":9170,"Ġrooms":9171,"Ġcoat":9172,"Ġbelieves":9173,"QL":9174,"pass":9175,"Ġ1950":9176,"Ġgate":9177,"ranean":9178,"Ġclaimed":9179,"Ġdirected":9180,"Ġ2003":9181,"ĠAppro":9182,"jection":9183,"Ġrecons":9184,"Ġpreservation":9185,"Ġerosion":9186,"Ġordinary":9187,"EE":9188,"Ġqualified":9189,"ĠSS":9190,"neum":9191,"ĠGrand":9192,"34":9193,"Ġ189":9194,"Ġorders":9195,"Ġheal":9196,"ĠCreating":9197,"Ġdehy":9198,"Ġextends":9199,"Ġcontracts":9200,"formance":9201,"Ġcoronavirus":9202,"Ġdivers":9203,"Ġalleviate":9204,"Ġbottle":9205,"Ġmagnesium":9206,"Ġpit":9207,"ĠSund":9208,"ticles":9209,"Ġnoticed":9210,"hire":9211,"Ġstreets":9212,"Ġmodule":9213,"Ġtelevision":9214,"Ġregarded":9215,"Ġgovernance":9216,"Ġconcluded":9217,"timately":9218,"Ġcellular":9219,"Ġtoxins":9220,"Ġcaps":9221,"Ġquarter":9222,"Ġaesthetic":9223,"ĠCond":9224,"peror":9225,"ĠStandard":9226,"Ġconqu":9227,"Ġcareg":9228,"Ġspark":9229,"Ġreact":9230,"LS":9231,"Ġwashing":9232,"uum":9233,"itr":9234,"Ġgif":9235,"plate":9236,"iveness":9237,"Ġfan":9238,"Ġstems":9239,"ĠÂ·":9240,"unting":9241,"Ġaluminum":9242,"Ġregistered":9243,"Ġmeetings":9244,"Ġhazardous":9245,"itative":9246,"Ġamino":9247,"ĠRichard":9248,"Ġgenerating":9249,"Ġthreatened":9250,"ĠAND":9251,"Ġentertainment":9252,"Ġspoken":9253,"ĠCertain":9254,"ĠTen":9255,"Ġscheme":9256,"Ġgravity":9257,"copy":9258,"ĠSens":9259,"Ġow":9260,"ĠCall":9261,"ĠAS":9262,"mented":9263,"Ġterror":9264,"ĠMax":9265,"Ġfertility":9266,"Ġnodes":9267,"Ġencl":9268,"Ġmoments":9269,"Ġfant":9270,"Ġspac":9271,"tility":9272,"ĠAut":9273,"Ġemit":9274,"Ġvaccination":9275,"front":9276,"Ġadjustments":9277,"Ġzones":9278,"just":9279,"ĠPT":9280,"Ġstere":9281,"Ġpesticides":9282,"Ġlean":9283,"ĠView":9284,"Ġattitudes":9285,"utable":9286,"ĠFore":9287,"Ø§":9288,"Ġupdate":9289,"Ġmothers":9290,"Ġimmunity":9291,"Ġsurroundings":9292,"Ġdipl":9293,"Ġsolely":9294,"Ġmeets":9295,"Ġapplies":9296,"Ġdisturb":9297,"Ġoptical":9298,"fficiency":9299,"ĠAction":9300,"Ġselling":9301,"ĠQueen":9302,"ĠRecogn":9303,"Ġcontinuing":9304,"economic":9305,"Ġlivestock":9306,"Ġrod":9307,"ĠMove":9308,"cribe":9309,"Ġresolve":9310,"ĠHard":9311,"Ġgardening":9312,"omal":9313,"iants":9314,"ĠAutom":9315,"Ġsale":9316,"Ġreadily":9317,"Ġgaining":9318,"Ġlogical":9319,"Ġcow":9320,"Ġshoulder":9321,"ĠDar":9322,"Ġproactive":9323,"Ġassociate":9324,"ĠCoast":9325,"Ġworker":9326,"Ġrational":9327,"OM":9328,"78":9329,"Ġreceives":9330,"Ġpp":9331,"Ġspecified":9332,"ami":9333,"Ġregener":9334,"Ġpurchasing":9335,"ĠSand":9336,"ĠBesides":9337,"Ġsocio":9338,"Ġranges":9339,"pled":9340,"Ġchains":9341,"Ġtransparent":9342,"Ġabundant":9343,"Ġpreserving":9344,"Ġsummar":9345,"Ġloose":9346,"Ġexem":9347,"ushing":9348,"Ġgift":9349,"Ġjudgment":9350,"Sh":9351,"ĠModel":9352,"Ġbugs":9353,"Ġannually":9354,"ĠFort":9355,"Ġevening":9356,"ĠInterest":9357,"idges":9358,"erted":9359,"Ġjaw":9360,"Ġfurniture":9361,"Cl":9362,"rian":9363,"Ġcourts":9364,"Ġportr":9365,"Ġplacing":9366,"ĠComputer":9367,"Ġinterconn":9368,"Ġmurder":9369,"ogenic":9370,"Ġclarity":9371,"Ġcameras":9372,"change":9373,"ĠBeyond":9374,"ĠImple":9375,"Ġultimate":9376,"Ġmg":9377,"Ġdeter":9378,"enic":9379,"Ġtransaction":9380,"Ġelectronics":9381,"76":9382,"rh":9383,"Ġdesignated":9384,"Ġpione":9385,"ĠPass":9386,"Ġpackage":9387,"Ġarchitectural":9388,"Ġseparation":9389,"Ġcollecting":9390,"CA":9391,"Ġreveals":9392,"ĠSpirit":9393,"Ġgrades":9394,"ĠAM":9395,"Ġdelay":9396,"ectic":9397,"Ġprogression":9398,"Ġappetite":9399,"Ġcattle":9400,"Ġrubber":9401,"Ġles":9402,"atal":9403,"Ġcav":9404,"ean":9405,"Ġlever":9406,"Ġcrack":9407,"Ġtolerance":9408,"Ġloans":9409,"Ġunlike":9410,"ĠMuch":9411,"ĠLo":9412,"Ġpilot":9413,"Ġdiarrhea":9414,"ateral":9415,"Ġorganisation":9416,"ĠHospital":9417,"ĠTrust":9418,"Ġextraction":9419,"Ġdism":9420,"Ġdangers":9421,"Ġpenal":9422,"ocated":9423,"Ġstimulate":9424,"roud":9425,"Ġrecur":9426,"ĠFar":9427,"Ġoutdoors":9428,"Ġcrypto":9429,"tex":9430,"vard":9431,"Ġtot":9432,"ĠApple":9433,"Ġpermission":9434,"Ġinnovations":9435,"Ġfacial":9436,"ĠDutch":9437,"Ġthesis":9438,"Ġcurve":9439,"ĠChristians":9440,"Ġcheese":9441,"EF":9442,"ao":9443,"Ġunion":9444,"Ġtelling":9445,"ĠDam":9446,"mers":9447,"Ġant":9448,"Ġphones":9449,"ithium":9450,"uct":9451,"Ġreinfor":9452,"En":9453,"Ġloud":9454,"ĠShort":9455,"ĠTO":9456,"ĠDeep":9457,"Ġstopped":9458,"Ġshelter":9459,"Ġbike":9460,"Ġgirl":9461,"Ġ2001":9462,"Ġsaved":9463,"tricts":9464,"Ġguess":9465,"psy":9466,"position":9467,"Ġinsect":9468,"Ġmine":9469,"Ġsending":9470,"ĠRh":9471,"Ġconcentrations":9472,"Ġveterinarian":9473,"Ġdried":9474,"orrect":9475,"Ġrays":9476,"bec":9477,"cut":9478,"Ġseriously":9479,"Ġconverted":9480,"Ġsulf":9481,"Ġsoils":9482,"Ġroyal":9483,"elor":9484,"Ġdeer":9485,"Ġlandscapes":9486,"rics":9487,"Ġdialogue":9488,"ĠHu":9489,"discipl":9490,"Ġheadaches":9491,"Ġsettlement":9492,"ĠGh":9493,"Ġstretch":9494,"Ġreflected":9495,"ruption":9496,"Ġunderground":9497,"Ġpink":9498,"Ġcryst":9499,"Ġsacred":9500,"ona":9501,"Ġstriking":9502,"onin":9503,"Ġoverwhelming":9504,"ĠArctic":9505,"ĠAPI":9506,"Ġwooden":9507,"date":9508,"Ġwings":9509,"Ġven":9510,"Ġelect":9511,"fac":9512,"rix":9513,"otive":9514,"Ġkeys":9515,"GPT":9516,"Ġmodeling":9517,"Ġdisplays":9518,"turing":9519,"Ġcuts":9520,"bridge":9521,"Ġmaximize":9522,"Ġcyl":9523,"ĠRequ":9524,"Ġdense":9525,"Ġham":9526,"Ġmovie":9527,"ĠInvest":9528,"Ġexplored":9529,"tiles":9530,"ĠMedia":9531,"Ġanalyzed":9532,"iors":9533,"ĠHill":9534,"Ġblend":9535,"ĠJustice":9536,"piec":9537,"Ġbasics":9538,"ĠIndepend":9539,"ĠJul":9540,"Ġelevated":9541,"Ġstatistical":9542,"Ġwouldn":9543,"oms":9544,"Ġemployers":9545,"kind":9546,"Ġprivile":9547,"Ġdrives":9548,"ĠImag":9549,"Ġengineer":9550,"ĠImage":9551,"Ġfluids":9552,"ouses":9553,"ĠJohnson":9554,"ĠOl":9555,"Ġkilling":9556,"ĠBehavior":9557,"ĠPos":9558,"Ġprescription":9559,"icon":9560,"Ġnom":9561,"bage":9562,"Ġobstacles":9563,"ths":9564,"ĠIndones":9565,"Ġprecisely":9566,"ĠWall":9567,"Ġbuff":9568,"Ġdivine":9569,"ĠAgriculture":9570,"Ġaccordingly":9571,"ifier":9572,"Ġspatial":9573,"ĠRather":9574,"orus":9575,"Ġdimin":9576,"Ġrobot":9577,"ĠSir":9578,"erry":9579,"ĠMD":9580,"Ġunnecessary":9581,"Ġexplores":9582,"39":9583,"Ġdramatic":9584,"Ġvessel":9585,"ĠCultural":9586,"irable":9587,"ĠOthers":9588,"Ġmindset":9589,"Ġlowest":9590,"agen":9591,"Ġteens":9592,"Ġsour":9593,"%,":9594,"ĠPo":9595,"Ġventilation":9596,"Ġpaintings":9597,"Ġdevelopmental":9598,"Ġdisplayed":9599,"Ġdress":9600,"Ġpointed":9601,"abeth":9602,"Ġworn":9603,"Ġallergy":9604,"Ġconsistency":9605,"aska":9606,"Ġimpacted":9607,"Ġcandidates":9608,"Ġappliances":9609,"ĠEating":9610,"ĠParents":9611,"len":9612,"Ġnorms":9613,"Ġpublish":9614,"Ġvan":9615,"Ġmush":9616,"ĠAud":9617,"ĠPrinc":9618,"Ġtransformed":9619,"Ġacquire":9620,"str":9621,"ĠAnsw":9622,"icing":9623,"Ġhydr":9624,"Ġwake":9625,"ĠMinistry":9626,"Ġwrites":9627,"bestos":9628,"ĠWay":9629,"Ġvomiting":9630,"Ġproducers":9631,"Ġconference":9632,"Ġservers":9633,"Â®":9634,"titude":9635,"Ġpra":9636,"ĠCT":9637,"Ġplastics":9638,"aded":9639,"pective":9640,"Ġschedul":9641,"ĠJac":9642,"ĠPort":9643,"Ġcounty":9644,"clusions":9645,"Ġhip":9646,"Ġbasically":9647,"ints":9648,"obic":9649,"Ġincenti":9650,"Ġfees":9651,"Ġ2030":9652,"Ġtherapist":9653,"ĠAz":9654,"Ġlists":9655,"ĠCovid":9656,"ĠLG":9657,"ĠPalest":9658,"ĠPic":9659,"ĠExercise":9660,"Ġtackle":9661,"Ġeverywhere":9662,"Ġmachinery":9663,"century":9664,"Ġpoetry":9665,"ĠEmerg":9666,"isto":9667,"Ġsurprise":9668,"Ġclassification":9669,"TH":9670,"Fi":9671,"Ġcontents":9672,"Ġbare":9673,"ĠTraditional":9674,"Ġrepeat":9675,"ĠStay":9676,"Ġprotects":9677,"Ġplug":9678,"Ġchecking":9679,"Ġputs":9680,"ĠCred":9681,"Ġrainfall":9682,"Ġvisited":9683,"Ġinjection":9684,"forward":9685,"Ġrelieve":9686,"Ġcategor":9687,"bean":9688,"Ġinfectious":9689,"toral":9690,"Ġearning":9691,"sem":9692,"Ġbusy":9693,"Ġcampaigns":9694,"oved":9695,"ĠEliz":9696,"Ġwithstand":9697,"Ġintroducing":9698,"Ġplanets":9699,"ĠActiv":9700,"endment":9701,"tages":9702,"Ġhier":9703,"tees":9704,"Ġcertification":9705,"Ġsegment":9706,"Ġoutbreak":9707,"Ġ2002":9708,"Ġcelebration":9709,"Ġprobability":9710,"ati":9711,"Ġdefault":9712,"Ġworkforce":9713,"Ġofficer":9714,"ubs":9715,"LC":9716,"Ġingredient":9717,"Ġcontaminated":9718,"iberal":9719,"Ġinev":9720,"Ġdrops":9721,"Ġsnake":9722,"arters":9723,"Ġrhythm":9724,"Ġextraord":9725,"Ġlingu":9726,"ĠRom":9727,"Ġdocumentation":9728,"trial":9729,"!âĢĿ":9730,"lo":9731,"adesh":9732,"Ġowned":9733,"Ġgenetics":9734,"ĠUkraine":9735,"Ġgathered":9736,"ouds":9737,"proof":9738,"Ġunlikely":9739,"Ġinfest":9740,"gevity":9741,"emor":9742,"income":9743,"Ġseiz":9744,"Ġbeneath":9745,"ĠDogs":9746,"Ġchap":9747,"ĠWrite":9748,"Ġsew":9749,"profit":9750,"Ġelderly":9751,"ĠTal":9752,"arks":9753,"ailable":9754,"Ġdoses":9755,"Ġcaffeine":9756,"Ġpreced":9757,"aver":9758,"ĠThings":9759,"Ġintegrate":9760,"IF":9761,"Ġtheoretical":9762,"Ġreasoning":9763,"cho":9764,"Ġdistinguish":9765,"owers":9766,"Ġpollutants":9767,"Ġcostly":9768,"Ġappreciation":9769,"Ġgrammar":9770,"ceptional":9771,"dy":9772,"even":9773,"Ġposture":9774,"teles":9775,"kl":9776,"'m":9777,"ĠFactors":9778,"ĠHawai":9779,"Ġprolonged":9780,"iterranean":9781,"Ġdistress":9782,"sor":9783,"Ġloyal":9784,"Ġcheap":9785,"iana":9786,"Ġshopping":9787,"ĠSpring":9788,"Ġmonthly":9789,"Ġattributed":9790,"Ġgerm":9791,"Ġmenstr":9792,"Ġincorporated":9793,"Ġgenu":9794,"Ġsoy":9795,"77":9796,"eign":9797,"Ġcontexts":9798,"Ġjuris":9799,"Ġindependently":9800,"awn":9801,"Ġbrands":9802,"UN":9803,"acerb":9804,"telling":9805,"Ġpasses":9806,"kal":9807,"Ġelected":9808,"âĢĺ":9809,"Ġvine":9810,"Ġmammals":9811,"46":9812,"Ġerup":9813,"Ġchair":9814,"Ġpanc":9815,"Ġencryption":9816,"PE":9817,"oven":9818,"tanks":9819,"tm":9820,"Ġacknowledge":9821,"ĠFDA":9822,"Ġversus":9823,"Ġ48":9824,"31":9825,"AA":9826,"Ġcompress":9827,"ĠChristianity":9828,"dim":9829,"Ġcapability":9830,"mod":9831,"Ġaccord":9832,"Ġabundance":9833,"ĠAnaly":9834,"icity":9835,"Ġroutes":9836,"dis":9837,"Ġscales":9838,"Ġhurt":9839,"Ġrealized":9840,"Ġopens":9841,"Ġmuc":9842,"Ġgrams":9843,"othing":9844,"Ġrecognizing":9845,"illance":9846,"owing":9847,"Ġtill":9848,"ĠWildlife":9849,"Ġsuggestions":9850,"ĠTeachers":9851,"endar":9852,"Ġstrip":9853,"gments":9854,"Ġteles":9855,"ĠFlow":9856,"Ġnerves":9857,"Ġneurons":9858,"Ġsuddenly":9859,"Ġende":9860,"Ġvirtu":9861,"urches":9862,"ologically":9863,"Ġeleph":9864,"Ġresilient":9865,"fly":9866,"imen":9867,"Ġstraw":9868,"Ġmindful":9869,"ĠGeorgia":9870,"Ġsett":9871,"ĠDie":9872,"ĠKr":9873,"Ġvirtually":9874,"Ġabsolute":9875,"Ġdurable":9876,"igned":9877,"ĠNevertheless":9878,"Ġtanks":9879,"Ġplaque":9880,"Ġatoms":9881,"Ġexams":9882,"Ġinfants":9883,"Ġoutline":9884,"Ġburied":9885,"Ġordered":9886,"umer":9887,"Ġda":9888,"Ġacceptance":9889,"ĠOS":9890,"chemical":9891,"fe":9892,"Ġbreeds":9893,"Ġpurchased":9894,"Ġminimizing":9895,"Ġdistances":9896,"Ġvag":9897,"ĠRegion":9898,"Ġprayer":9899,"ĠBrain":9900,"redic":9901,"Ġfingers":9902,"Ġalgae":9903,"ommon":9904,"Ġcryptocurrency":9905,"ĠCarbon":9906,"ĠCBD":9907,"vin":9908,"Ġsuicide":9909,"ĠThroughout":9910,"Ġcarries":9911,"ĠPoli":9912,"Ġbrowser":9913,"Ġedges":9914,"Ġpathways":9915,"Ġdissol":9916,"Ġspecialists":9917,"Ġherbs":9918,"ĠProp":9919,"Ġcoping":9920,"Ġfilling":9921,"lymp":9922,"ropriate":9923,"Ġexacerb":9924,"Ġattributes":9925,"ĠÂ£":9926,"itus":9927,"Ġmim":9928,"Ġpolitic":9929,"phen":9930,"Ġnegatively":9931,"ĠAssessment":9932,"Ġsheets":9933,"ĠIss":9934,"Ġeconomies":9935,"Ã¤":9936,"Ġinver":9937,"ĠCollabor":9938,"Ġspray":9939,"Ġsystematic":9940,"Ġadvertising":9941,"Ġlabels":9942,"ĠAch":9943,"Ġdecentral":9944,"Ġelectrons":9945,"eted":9946,"Ġreviews":9947,"ĠAdvanced":9948,"Ġcolonies":9949,"Ġthickness":9950,"quis":9951,"Ġparti":9952,"Ġrevers":9953,"bra":9954,"OW":9955,"Ġtransferred":9956,"brew":9957,"ĠDet":9958,"Ġmotivated":9959,"ĠMichigan":9960,"Ġamp":9961,"ĠMediterranean":9962,"Ġstreams":9963,"ĠTesting":9964,"agnetic":9965,"ĠWik":9966,"Ġion":9967,"mental":9968,"Ġparks":9969,"Ġcandidate":9970,"uity":9971,"Ġintu":9972,"Ġtribes":9973,"Ã¢":9974,"ĠMer":9975,"ulous":9976,"ĠPDF":9977,"Ġentities":9978,"dominal":9979,"Ġgraduate":9980,"ĠSkills":9981,"phal":9982,"ĠMeanwhile":9983,"Ġfunded":9984,"Ġeducate":9985,"Ġsalmon":9986,"ĠEffective":9987,"ĠPlants":9988,"iencies":9989,"imental":9990,"Ġdesk":9991,"Ġcorners":9992,"Ġembedded":9993,"ĠTemple":9994,"ĠGarden":9995,"MI":9996,"Ġreferences":9997,"Ġcath":9998,"ĠPaper":9999,"Ġprevalence":10000,"Ġcopyright":10001,"teor":10002,"amel":10003,"oa":10004,"ĠLinux":10005,"ausea":10006,"Ġoceans":10007,"ĠLog":10008,"rid":10009,"ĠSaint":10010,"arn":10011,"rots":10012,"Our":10013,"ĠFocus":10014,"Un":10015,"ĠOcc":10016,"green":10017,"ermat":10018,"Ġboxes":10019,"ĠAbr":10020,"Ġ<":10021,"ĠSug":10022,"Ġinflammatory":10023,"Ġargued":10024,"Ġmarking":10025,"ĠSyn":10026,"Ġsemi":10027,"Ġrelate":10028,"ĠPrior":10029,"Ġlibraries":10030,"Ġwireless":10031,"ĠCost":10032,"erries":10033,"ĠCirc":10034,"formed":10035,"Ġexped":10036,"Ġpumps":10037,"tained":10038,"Ġirregular":10039,"ĠLittle":10040,"ĠHarvard":10041,"Ġemerge":10042,"EA":10043,"Ġexceed":10044,"ĠChronic":10045,"Ġelsewhere":10046,"ĠVen":10047,"ĠColumbia":10048,"Ġreef":10049,"Ġaquatic":10050,"Ġborders":10051,"Ġbron":10052,"ĠTree":10053,"Ġworksheets":10054,"ĠExample":10055,"ĠJava":10056,"Ġamongst":10057,"ĠChatGPT":10058,"Ġdurability":10059,"Ġending":10060,"ĠCorn":10061,"ĠHim":10062,"fire":10063,"Ġdispar":10064,"Ġantibodies":10065,"Ġviolent":10066,"Ġrestricted":10067,"Ġdelivering":10068,"sters":10069,"reement":10070,"Ġpotatoes":10071,"Ġdelicious":10072,"ĠFarm":10073,"ĠForce":10074,"uning":10075,"Ġcurious":10076,"ĠHab":10077,"oston":10078,"cular":10079,"Ġash":10080,"ENT":10081,"Ġlimiting":10082,"RL":10083,"Ġdict":10084,"Ġdistricts":10085,"terone":10086,"Ġcorrosion":10087,"Ġ55":10088,"Ġfluor":10089,"person":10090,"Ġspeakers":10091,"Ġtiming":10092,"oln":10093,"65":10094,"PV":10095,"inance":10096,"CT":10097,"Ġ180":10098,"Ġlakes":10099,"Ġdemocratic":10100,"ibl":10101,"Ġanalog":10102,"Ġabstract":10103,"Ġsciences":10104,"Ġacceptable":10105,"Ġupl":10106,"ĠMount":10107,"Ġplates":10108,"Ġzinc":10109,"gregation":10110,"ĠColorado":10111,"ocity":10112,"Ġbeat":10113,"Ġslave":10114,"ĠRet":10115,"Ġadministrative":10116,"Ġinjured":10117,"Ġedition":10118,"Ġuncle":10119,"Ġprecious":10120,"Ġracism":10121,"Ġdiscussing":10122,"Ġshouldn":10123,"Ġseasonal":10124,"itches":10125,"Ġembry":10126,"Ġrib":10127,"Ġtom":10128,"Ġguides":10129,"ĠBegin":10130,"oting":10131,"Ġdiscl":10132,"Ġvisually":10133,"Ġuncertainty":10134,"Ġduties":10135,"Ġelectron":10136,"wa":10137,"Ġcannabis":10138,"asal":10139,"Ġreminder":10140,"ĠAlong":10141,"ulator":10142,"ĠOlymp":10143,"Ġbelonging":10144,"Ĥ¬":10145,"Ġcuriosity":10146,"aya":10147,"Ġdivide":10148,"Ġflooding":10149,"Ġbladder":10150,"Ġrefriger":10151,"47":10152,"Ġendangered":10153,"Ġassessing":10154,"ommun":10155,"ĠIncorpor":10156,"yard":10157,"Ġspeaker":10158,"tip":10159,"ĠArts":10160,"Ġaside":10161,"Ġbears":10162,"ĠAncient":10163,"elly":10164,"ĠElizabeth":10165,"tomy":10166,"Ġgrat":10167,"Ġtimely":10168,"Ġfilms":10169,"Ġnutritious":10170,"Ġexecution":10171,"Ġslaves":10172,"Ġartw":10173,"Ġaquarium":10174,"Ġtear":10175,"Ġfulfill":10176,"Ġdamaging":10177,"Ġexcav":10178,",âĢĻ":10179,"Ġtire":10180,"esteem":10181,"Ġteaches":10182,"oral":10183,"Ġsurveys":10184,"Ġexpressions":10185,"Ġhero":10186,"azz":10187,"Ġpermit":10188,"ĠBody":10189,"ott":10190,"Ġrepresentative":10191,"Os":10192,"OD":10193,"copic":10194,"ĠPatients":10195,"Ġsubsid":10196,"ĠHeritage":10197,"49":10198,"ĠParliament":10199,"ĠName":10200,"Ġfreely":10201,"CS":10202,"Ġrank":10203,"Ġfirms":10204,"Ġtumors":10205,"Ġrhe":10206,"from":10207,"Ġavoided":10208,"Ġinequality":10209,"ĠLater":10210,"ĠGreece":10211,"Ġdisasters":10212,"Ġride":10213,"ĠRab":10214,"Ġsubtle":10215,"elec":10216,"Ġintermedi":10217,"Ġopposition":10218,"raid":10219,"Ġabsolutely":10220,"Ġgathering":10221,"inn":10222,"ĠMuslims":10223,"Ġgrace":10224,"88":10225,"Ġbub":10226,"Ġgastro":10227,"itar":10228,"Ġprime":10229,"ĠEPA":10230,"Ġbreathe":10231,"Ġtermin":10232,"Ġpreventive":10233,"ĠEssay":10234,"Ġnice":10235,"Ġdepr":10236,"Ġdecreases":10237,"Ġsees":10238,"ĠBh":10239,"Ġsubmit":10240,"ounting":10241,"olid":10242,"Ġtutorial":10243,"Ġprol":10244,"ĠDom":10245,"ĠCut":10246,"isco":10247,"Ġdos":10248,"Ġdemonstrates":10249,"ran":10250,"Ġpathogens":10251,"ifice":10252,"ĠNutrition":10253,"Ġfought":10254,"ĠPhilipp":10255,"ĠStor":10256,"Ġastronom":10257,"Ġenabled":10258,"lude":10259,"Co":10260,"ĠCri":10261,"Ġinvention":10262,"abled":10263,"Ġgrasp":10264,"Ġadopting":10265,"Ġpond":10266,"Ġmere":10267,"ðŁ":10268,"Ġexceptional":10269,"enda":10270,"aze":10271,"ĠIncreased":10272,"Ġdefects":10273,"Ġcombus":10274,"ometer":10275,"ĠDiagn":10276,"estone":10277,"Ġfactory":10278,"ĠIntroduction":10279,"ĠLi":10280,"Ġhide":10281,"ĠSecret":10282,"Ġrelies":10283,"ĠTeaching":10284,"Ġmarginal":10285,"Ġlicense":10286,"ĠSchools":10287,"Ġdreams":10288,"Ġpairs":10289,"Ġrh":10290,"ĠPet":10291,"cript":10292,"Ġapproval":10293,"entials":10294,"mo":10295,"ĠRegard":10296,"Ġnotion":10297,"ĠCDC":10298,"ideo":10299,"Ġproud":10300,"ĠNep":10301,"Ġprecautions":10302,"ĠOt":10303,"isp":10304,"ecutive":10305,"ĠLine":10306,"Ġimportantly":10307,"imination":10308,"ĠCompan":10309,"ĠScientific":10310,"Ġcontinent":10311,"ĠDiscover":10312,"ĠMid":10313,"Ġcrown":10314,"Ġdesert":10315,"Ġmetaph":10316,"chron":10317,"building":10318,"Ġdecomp":10319,"ĠPhD":10320,"ĠTar":10321,"Ġbeet":10322,"ĠEnter":10323,"verages":10324,"ĠDyn":10325,"Ġsteady":10326,"onto":10327,"Ġregister":10328,"zer":10329,"jud":10330,"matic":10331,"Ġshipping":10332,"Ġevaluating":10333,"Ġmyself":10334,"Ġpersu":10335,"Ġhighlighted":10336,"Ġaddic":10337,"Ġimmense":10338,"Ġabsorbed":10339,"Ġinch":10340,"istration":10341,"Ġagreements":10342,"Ġphotography":10343,"oline":10344,"Ġgran":10345,"ĠCauses":10346,"iano":10347,"ĠCD":10348,"ĠProfessional":10349,"Ġtired":10350,"ĠOhio":10351,"rous":10352,"Ġindicating":10353,"Ġvocal":10354,"Ġuncom":10355,"Ġonset":10356,"Ġphotographs":10357,"iop":10358,"Ġpractitioners":10359,"Ġdatabases":10360,"Ġcommod":10361,"Ġstiff":10362,"vania":10363,"Ġgods":10364,"ĠÐ":10365,"Ġactors":10366,"Ġcouldn":10367,"ĠCe":10368,"pes":10369,"iev":10370,"ĠIndians":10371,"inea":10372,"Ġmouse":10373,"izational":10374,"Ġcombining":10375,"Ġconfiguration":10376,"usalem":10377,"ĠFlu":10378,"ĠParticip":10379,"ĠIndividuals":10380,"Ġautonomous":10381,"RS":10382,"Ġassignments":10383,"Ġsuspect":10384,"Ġjurisd":10385,"Ġcooked":10386,"ĠPortu":10387,"Ġcrafts":10388,"Ġmutual":10389,"Ġdeterior":10390,"Ġprovince":10391,"Ġmicrobi":10392,"Ġemphasizes":10393,"adequate":10394,"Ġdramatically":10395,"Ġretention":10396,"ĠIndustrial":10397,"aka":10398,"ĠConsequ":10399,"text":10400,"ĠBoston":10401,"Ġindoors":10402,"Ġcommands":10403,"Ġdirt":10404,"American":10405,"ĠWeek":10406,"issance":10407,"%)":10408,"anas":10409,"gy":10410,"ulent":10411,"Ġyes":10412,"ĠChallenges":10413,"ĠThird":10414,"Ġphrases":10415,"Ġbowel":10416,"Ġlongevity":10417,"Ġreplacing":10418,"itations":10419,"ĠLinc":10420,"Ġunhealthy":10421,"akh":10422,"Ġvictory":10423,"ĠMedic":10424,"Ġpreserved":10425,"feeding":10426,"ĠComb":10427,"Ġregime":10428,"ĠAbs":10429,"Ġrecall":10430,"Ġpredom":10431,"ĠCulture":10432,"Ġpartial":10433,"Ġarmed":10434,"Ġcitizen":10435,"erman":10436,"Ġparticle":10437,"ĠMos":10438,"Ġcomparing":10439,"Ġremedies":10440,"Ġtransplant":10441,"Ġcalculations":10442,"Ġpositively":10443,"Ġeliminating":10444,"emistry":10445,"Ġcourage":10446,"ques":10447,"ĠCold":10448,"ĠGetting":10449,"Ġdistant":10450,"Ġprogressive":10451,"Ġhomework":10452,"ĠUltimately":10453,"Ġincidents":10454,"New":10455,"organisms":10456,"Ġinspection":10457,"Ġacres":10458,"ystal":10459,"Ġeaten":10460,"Ġdetermines":10461,"Ġcompensation":10462,"entical":10463,"Ġcrimes":10464,"Ġmapping":10465,"Ġchamber":10466,"ĠMarket":10467,"Ġvacuum":10468,"Ġharmon":10469,"Ġstressed":10470,"ĠTurkey":10471,"Ġprotest":10472,"aneous":10473,"Ġoperators":10474,"bour":10475,"Ġpreschool":10476,"Ġalle":10477,"orestation":10478,"Ġinventory":10479,"Ġcommittee":10480,"Ġchose":10481,"flies":10482,"Ġperf":10483,"stall":10484,"Ġpharmace":10485,"Ġdiagram":10486,"Ġvulnerabilities":10487,"Ġliterally":10488,"ĠDog":10489,"aments":10490,"ĠLiving":10491,"Ġoccasionally":10492,"Ġfung":10493,"ĠSD":10494,"Ġpaths":10495,"syl":10496,"Ġwinds":10497,"Ġdistor":10498,"Ġequation":10499,"cal":10500,"ĠDiscuss":10501,"Ġseasons":10502,"Ġpneum":10503,"Ġbeach":10504,"Ġautomatic":10505,"orig":10506,"Ġcaution":10507,"burn":10508,"ĠVisual":10509,"Ġdegradation":10510,"Ġapplicable":10511,"Ġrenow":10512,"Ġfron":10513,"Ġ38":10514,"Ġunity":10515,"ĠAsse":10516,"Ġhypothesis":10517,"ĠMajor":10518,"Ġlandf":10519,"....":10520,"etts":10521,"Ġdocumented":10522,"Ġvet":10523,"dimensional":10524,"Ġboards":10525,"Ġbinding":10526,"ulting":10527,"Ġsurprising":10528,"di":10529,"Ġloop":10530,"Ġdetr":10531,"Ġconsultation":10532,"Ġlawn":10533,"Ġcycl":10534,"Ġfatal":10535,"ĠSqu":10536,"Ġsle":10537,"Ġpatent":10538,"trics":10539,"Ġscreens":10540,"iner":10541,"ĠJerusalem":10542,"Ġharmony":10543,"Ġexisted":10544,"Ġbackgrounds":10545,"wall":10546,"ĠPrevent":10547,"Ġcharges":10548,"Ġexamining":10549,"Ġthank":10550,"achus":10551,"Ġdating":10552,"turning":10553,"ĠEat":10554,"Ġuter":10555,"zone":10556,"ĠArea":10557,"ĠJeff":10558,"Ġweekly":10559,"Ġthrow":10560,"orie":10561,"And":10562,"ĠFull":10563,"Ġentity":10564,"ĠCurrently":10565,"Ġthresh":10566,"oded":10567,"ĠDO":10568,"Ġorientation":10569,"emed":10570,"Ġsheep":10571,"Ġprecip":10572,"Ġhunger":10573,"Ġwelcome":10574,"ĠCorpor":10575,"Ġnurses":10576,"Ġpushing":10577,"Ġinsu":10578,"ĠStudent":10579,"Ġcertified":10580,"Ġirre":10581,"Ġdeliber":10582,"ĠCell":10583,"Ġbegun":10584,"asures":10585,"Ġcoins":10586,"Ġworkshops":10587,"Ġspreads":10588,"Ġgains":10589,"Ġblu":10590,"Ġ1999":10591,"Ġenjoyable":10592,"Ġlift":10593,"ÙĦ":10594,"Ġdisin":10595,"Ġconnectivity":10596,"ĠIslands":10597,"Ġdeposits":10598,"Ġsurrounded":10599,"ĠOffic":10600,"Ġafraid":10601,"Ġborrow":10602,"ĠLGBT":10603,"ĠCloud":10604,"Ġcompletion":10605,"ĠJoin":10606,"Ġediting":10607,"testinal":10608,"coun":10609,"Ġgau":10610,"tral":10611,"Ġunem":10612,"Ġadvers":10613,"Ġcompleting":10614,"Ġwars":10615,"ĠTurn":10616,"Ġefficacy":10617,"Ġhob":10618,"Ġrevol":10619,"Ġorganize":10620,"ĠBan":10621,"Ġhers":10622,"Ġsucc":10623,"Ġenzyme":10624,"MP":10625,"foot":10626,"Ġextraordinary":10627,"ĠMaterials":10628,"Ġviable":10629,"ĠImportant":10630,"ĠGive":10631,"Ġbull":10632,"Ġsynthesis":10633,"Ġ33":10634,"ĠPrince":10635,"Ġstraightforward":10636,"ocial":10637,"Ġtraveling":10638,"Ġethics":10639,"ĠTypically":10640,"aham":10641,"activity":10642,"Ġpredictions":10643,"sized":10644,"ĠWi":10645,"By":10646,"Ġstood":10647,"Ġancestors":10648,"ĠSud":10649,"Ġassistant":10650,"Pro":10651,"vereign":10652,"Ġevaluated":10653,"yes":10654,"Ġcomprehension":10655,"Ġessays":10656,"Ġpsychiat":10657,"Ġtriang":10658,"Ġpediatric":10659,"Ġlegend":10660,"ĠExplore":10661,"Ġspoke":10662,"ficiency":10663,"Ġ95":10664,"orient":10665,"ĠPennsyl":10666,"xy":10667,"iology":10668,"Ġbreakdown":10669,"Ġsoap":10670,"Ġembracing":10671,"Ġmedieval":10672,"Ġminority":10673,"Ġpine":10674,"Ġanatom":10675,"ĠUsually":10676,"thood":10677,"resistant":10678,"Ġtrusted":10679,"Ġprosp":10680,"Ġtendency":10681,"ĠDraw":10682,"Ġpredicted":10683,"ĠConvers":10684,"Ġposes":10685,"Ġachievements":10686,"Ġ1930":10687,"Ġoffices":10688,"Ġstrains":10689,"ĠTax":10690,"Ġchecks":10691,"ĠLee":10692,"ĠPrin":10693,"Ġguided":10694,"urities":10695,"Ġsuggesting":10696,"Ġcollapse":10697,"umns":10698,"wan":10699,"ĠDrug":10700,"Ġvoices":10701,"To":10702,"ĠBooks":10703,"Ġlenses":10704,"iblical":10705,"real":10706,"Ġfeas":10707,"iah":10708,"Ġswallow":10709,"ĠTogether":10710,"ĠConvention":10711,"Ġphenomena":10712,"Ġsimulation":10713,"Ġpowered":10714,"LP":10715,"ĠVirtual":10716,"ĠLoss":10717,"Ġimmigrants":10718,"orrow":10719,"ĠCR":10720,"Ġcaring":10721,"ĠStory":10722,"ĠRNA":10723,"Ġgradu":10724,"Ġrecon":10725,"ĠSuccess":10726,"ĠHebrew":10727,"Ġexcited":10728,"Ġadvancement":10729,"Ġinfant":10730,"Ġcivilization":10731,"âĦ":10732,"disciplinary":10733,"Ġrecommends":10734,"uble":10735,"Ġscatter":10736,"Ġassumed":10737,"ayers":10738,"Ġprofits":10739,"bul":10740,"aternal":10741,"ĠSoftware":10742,"Ġvolunteers":10743,"Ġproph":10744,"Ġappointed":10745,"Be":10746,"Ġenthusiasts":10747,"Ġdefines":10748,"mn":10749,"ĠDiabetes":10750,"ĠFA":10751,"Ġmutations":10752,"Ġstimulation":10753,"Ġconstruct":10754,"ferences":10755,"che":10756,"ĠLincoln":10757,"Ġtreats":10758,"Ġstereotyp":10759,"quiry":10760,"Ġpleasure":10761,"Ġboil":10762,"Ġmagic":10763,"ĠSurvey":10764,"Ġsurviv":10765,"Ġbrushing":10766,"ĠBio":10767,"Ġment":10768,"Ġmistake":10769,"Ġspacecraft":10770,"ufact":10771,"abetic":10772,"ĠLower":10773,"Ġraises":10774,"eek":10775,"elve":10776,"ĠMess":10777,"velength":10778,"Ġhopes":10779,"ĠWeight":10780,"Ġscrew":10781,"utical":10782,"ĠCub":10783,"Ġstunning":10784,"ĠMexican":10785,"Ġshore":10786,"Ġgenerator":10787,"ĠCH":10788,"ĠEstabl":10789,"umbers":10790,"bel":10791,"Ġstruggles":10792,"Ġconsequence":10793,"Ġidentical":10794,"Ġbin":10795,"ĠProvide":10796,"adic":10797,"Ġcolony":10798,"ĠAT":10799,"ĠAnimal":10800,"Ġtotally":10801,"ĠES":10802,"Ġrenowned":10803,"Ġfaculty":10804,"osters":10805,"Ġcareers":10806,"Ġbeam":10807,"ĠNov":10808,"Ġgolden":10809,"tored":10810,"ĠArchit":10811,"Ġinfluential":10812,"Ġincorrect":10813,"oir":10814,"ĠUnivers":10815,"ĠPennsylvania":10816,"ĠOil":10817,"parts":10818,"85":10819,"ĠMonth":10820,"Ġcompression":10821,"ĠÂ©":10822,"Ġchromos":10823,"claim":10824,"CP":10825,"Ġbuilds":10826,"jective":10827,"Ġ37":10828,"Ġsovereign":10829,"ĠSafe":10830,"Ġdisrupt":10831,"Ġrom":10832,"Ġtab":10833,"ĠCA":10834,"Ġconvinc":10835,"Ġmolecule":10836,"uncture":10837,"Ġinterf":10838,"Ġauthentication":10839,"Ġsearching":10840,"Ġconvenience":10841,"ĠFig":10842,"enza":10843,"BI":10844,"Ġclassrooms":10845,"Ġcountless":10846,"eller":10847,"ĠOpp":10848,"Ġmiscon":10849,"ĠHot":10850,"Ġ120":10851,"Ġhorizontal":10852,"astrop":10853,"Ġmeanings":10854,"Ġgray":10855,"Ġdisag":10856,"ĠYellow":10857,"ĠEmploy":10858,"Ġdevastating":10859,"ĠBattle":10860,"Ġpride":10861,"Ġarom":10862,"Ġemission":10863,"Ġeconomics":10864,"Ġphases":10865,"ĠDepression":10866,"ĠAy":10867,"ĠFed":10868,"ointing":10869,"Ġyard":10870,"Ġbanking":10871,"ĠEvalu":10872,"Ġsenti":10873,"ĠVR":10874,"ĠPV":10875,"Ġfiction":10876,"ĠEgyptian":10877,"Ġuntreated":10878,"Ġ1920":10879,"Ġconclusions":10880,"Ġomega":10881,"Ġbeds":10882,"Ġopio":10883,"Ġnewspaper":10884,"breaking":10885,"ĠAsh":10886,"Ġseeks":10887,"Ġmethane":10888,"ishop":10889,"step":10890,"Ġsugars":10891,"ĠIron":10892,"Ġyields":10893,"ĠLaboratory":10894,"depth":10895,"DL":10896,"66":10897,"uff":10898,"Ġelectroly":10899,"Ġty":10900,"Ġchurches":10901,"ĠClinical":10902,"ete":10903,"Ġindicator":10904,"Ġliv":10905,"ĠChief":10906,"Ġarrival":10907,"Ġdetermination":10908,"Ġmerch":10909,"Ġjewel":10910,"Ġiconic":10911,"Ġoperates":10912,"Ġheaven":10913,"uv":10914,"dess":10915,"Ġnavigation":10916,"ĠRos":10917,"Ġbullying":10918,"Ġmissions":10919,"Ġcertificate":10920,"osity":10921,"Ġpeaceful":10922,"Ġscholar":10923,"FA":10924,"Ġhatch":10925,"Ġrotation":10926,"ghan":10927,"found":10928,"ĠClear":10929,"ĠChemical":10930,"Ġconstraints":10931,"Ġinhabitants":10932,"ĠCalc":10933,"syn":10934,"Ġoperated":10935,"Ġsnakes":10936,"perature":10937,"ja":10938,"Ġmasks":10939,"achusetts":10940,"Ġsustained":10941,"Ġgeographical":10942,"ĠCase":10943,"Ġvulnerability":10944,"ped":10945,"Ġmeter":10946,"ĠLarge":10947,"Ġelections":10948,"ĠNear":10949,"Ġglasses":10950,"ĠAlexander":10951,"tah":10952,"utor":10953,"Ġtag":10954,"you":10955,"enders":10956,"Ġwastewater":10957,"Ġcollections":10958,"ĠImprove":10959,"Ġrespective":10960,"Ġcampus":10961,"ĠMond":10962,"ĠFair":10963,"Ġirritation":10964,"Ġpollen":10965,"tier":10966,"ipedia":10967,"They":10968,"199":10969,"Ġfestival":10970,"ĠSoil":10971,"Ġsurveillance":10972,"Ġcoral":10973,"xiety":10974,"Ġhighlighting":10975,"Ġlac":10976,"tribution":10977,"Ġanalyses":10978,"ĠChoosing":10979,"Ġdistinction":10980,"Ġfrozen":10981,"Ġ(âĢľ":10982,"Ġassessed":10983,"plas":10984,"Do":10985,"ARS":10986,"itives":10987,"Ġrevolutionary":10988,"ĠGas":10989,"Ġmalicious":10990,"Ġbottles":10991,"Ġstoring":10992,"MC":10993,"arity":10994,"Ġearned":10995,"Ġsettled":10996,"Ġmultipl":10997,"Ġanch":10998,"Ġsore":10999,"Ġelabor":11000,"Ġtape":11001,"Ġunin":11002,"Ġworkshop":11003,"Ġrehabilitation":11004,"ĠFortunately":11005,"Ġatmospheric":11006,"ji":11007,"actures":11008,"Ġproposal":11009,"Ġstic":11010,"Ġcavity":11011,"Ġclouds":11012,"olph":11013,"Ġtraditionally":11014,"ĠPlanning":11015,"Ġlocally":11016,"Ġphysicians":11017,"Ġnurse":11018,"Ġaccommodate":11019,"Ġsenses":11020,"Ġlob":11021,"Ġinterconnected":11022,"ĠOrigin":11023,"ĠSunday":11024,"Ġmenu":11025,"Ġwidth":11026,"Ġneurological":11027,"ĠCS":11028,"Ġoriginated":11029,"Ġprevented":11030,"Ġherself":11031,"Ġmodules":11032,"ĠNeg":11033,"ĠThank":11034,"ĠOxford":11035,"Ġcerv":11036,"Ġsmile":11037,"Ġplacement":11038,"ĠHeat":11039,"Ġphysiological":11040,"Ġbind":11041,"Ġasbestos":11042,"Ġshifts":11043,"Ġoccurrence":11044,"Ġdying":11045,"ĠDivision":11046,"ĠKorean":11047,"Ġcorrec":11048,"Ġfungi":11049,"Ġantioxidant":11050,"htm":11051,"Ġinvented":11052,"Ġdiver":11053,"ĠLos":11054,"ĠTwitter":11055,"Ġlithium":11056,"ryp":11057,"ĠMassachusetts":11058,"Ġsomewhere":11059,"estr":11060,"ĠEffects":11061,"Ġstuck":11062,"ĠStan":11063,"Ġkidneys":11064,"Ġ×":11065,"Ġsediment":11066,"venues":11067,"tax":11068,"Ġwing":11069,"Ġalignment":11070,"Ġacquis":11071,"ĠHam":11072,"intestinal":11073,"Ġcables":11074,"Ġdropped":11075,"Ġsuited":11076,"Ġgraphics":11077,"ĠSigns":11078,"ocate":11079,"ĠImagine":11080,"screen":11081,"ĠEdward":11082,"ĠKnowledge":11083,"Ġelectrom":11084,"42":11085,"ĠCa":11086,"Ġchips":11087,"Ġbought":11088,"emes":11089,"Ġgently":11090,"Ġtodd":11091,"ĠBot":11092,"Ġcarp":11093,"Ġstops":11094,"ĠCos":11095,"Ġmini":11096,"Ġtubes":11097,"Ġimplies":11098,"Ġshallow":11099,"Ġpatience":11100,"ss":11101,"Ġstrange":11102,"enter":11103,"Ġwise":11104,"Ġuncomfortable":11105,"Ġtoilet":11106,"Ġglac":11107,"ĠPath":11108,"ceeding":11109,"ĠFrequently":11110,"Ġpunishment":11111,"ĠFunction":11112,"Ġaspir":11113,"ĠIndustry":11114,"rant":11115,"Ġdepartments":11116,"Ġsperm":11117,"Ġinherent":11118,"mond":11119,"Ġhearts":11120,"Ġdisk":11121,"Ġpalm":11122,"Ġhind":11123,"Ġconstitution":11124,"Ġkilometers":11125,"Ġreign":11126,"Ġrequests":11127,"ĠPlus":11128,"Ġtroubles":11129,"bell":11130,"ĠHistorical":11131,"Ġcultivation":11132,"ceeds":11133,"Ġnausea":11134,"preced":11135,"Ġmirror":11136,"Ġaltered":11137,"Ġcombines":11138,"Ġrecipes":11139,"Ġcalendar":11140,"ĠBetter":11141,"Ġverb":11142,"Ġfans":11143,"Ġloads":11144,"after":11145,"Ġadolescents":11146,"Ġcircuits":11147,"Ġpartially":11148,"Ġadvocate":11149,"Ġabdominal":11150,"55":11151,"ĠNorm":11152,"Ġdiff":11153,"ĠGall":11154,"ĠInves":11155,"Ġhos":11156,"oub":11157,"Ġentrepreneurs":11158,"Ġfemin":11159,"Ġcigare":11160,"Ġtower":11161,"Ġforever":11162,"MD":11163,"Ġconsisting":11164,"aluable":11165,"Ġunwanted":11166,"Ġmarch":11167,"Ġmethodology":11168,"ictionary":11169,"Ġstatic":11170,"ston":11171,"Ġgenome":11172,"Ġpanic":11173,"Ġrefugees":11174,"Ġurgent":11175,"Ġlanding":11176,"ĠCast":11177,"Ġstig":11178,"ĠFather":11179,"vasive":11180,"Ġmystery":11181,"requ":11182,"ĠTalk":11183,"Ġrelating":11184,"Ġvillages":11185,"iments":11186,"Ġcro":11187,"ĠStandards":11188,"precedented":11189,"Ġconcentrated":11190,"ima":11191,"bone":11192,"Ġvolumes":11193,"vi":11194,"Ġdiscoveries":11195,"Ġarrive":11196,"makers":11197,"Ġverify":11198,"adel":11199,"CE":11200,"Ġlig":11201,"Ġmixing":11202,"rels":11203,"Ġtrus":11204,"Ġawarded":11205,"ĠTransport":11206,"But":11207,"asions":11208,"Ġreceptors":11209,"Ġnecessity":11210,"Ġorganism":11211,"Ġimperative":11212,"Ġwires":11213,"Ġadvised":11214,"UT":11215,"ĠAqu":11216,"Ġhes":11217,"ĠTeam":11218,"Ġreturning":11219,"ĠEncourage":11220,"oked":11221,"Ġinvasion":11222,"ĠTrump":11223,"Ġburned":11224,"Ġsystemic":11225,"ador":11226,"ĠWHO":11227,"ĠMap":11228,"rays":11229,"ĠCPU":11230,"ĠMonitoring":11231,"develop":11232,"ĠDry":11233,"Ġdeals":11234,"Ġemergence":11235,"Ġvelocity":11236,"onymous":11237,"At":11238,"child":11239,"Ġwhilst":11240,"ĠNone":11241,"agan":11242,"Ġantibiotic":11243,"Ġdrying":11244,"ĠImplement":11245,"ĠSolutions":11246,"Ġframeworks":11247,"Ġfeatured":11248,"UR":11249,"Ġstrengthening":11250,"Ġenterprise":11251,"Ġnam":11252,"Ġlotteries":11253,"Ġrewards":11254,"assment":11255,"Ġ1000":11256,"Ġcleaner":11257,"Ġ1998":11258,"Ġreinforce":11259,"Ġperceive":11260,"Ġinstalling":11261,"Ġadministered":11262,"Ġlayout":11263,"Ã±":11264,"rey":11265,"Ġtremend":11266,"Ġstretching":11267,"ĠAlcohol":11268,"inator":11269,"Ġchip":11270,"ĠVan":11271,"ĠWil":11272,"Ġoccupied":11273,"Ġprovisions":11274,"immune":11275,"Ġrituals":11276,"Ġaccountability":11277,"Ġartif":11278,"oning":11279,"Ġelementary":11280,"Ġodds":11281,"Ġfears":11282,"Ġassociations":11283,"Ġcaptivating":11284,"Ġbom":11285,"Ġ250":11286,"Ġincentives":11287,"ĠHapp":11288,"ĠPoor":11289,"Ġtied":11290,"Ġevolutionary":11291,"Ġinterviews":11292,"Ġpasswords":11293,"high":11294,"Ġplasma":11295,"Ġwavelength":11296,"izona":11297,"Ġcontaminants":11298,"ĠPoint":11299,"Ġcub":11300,"43":11301,"Ġdeadly":11302,"Ġgraphic":11303,"ĠSetting":11304,"Ġofficially":11305,"Ġwage":11306,"ĠNumber":11307,"kay":11308,"Ġcookies":11309,"ergar":11310,"Ġportfol":11311,"Ġregulated":11312,"thew":11313,"luded":11314,"Ġgland":11315,"ĠSkin":11316,"Ġwax":11317,"Ġcheaper":11318,"Ġgrav":11319,"oxide":11320,"ĠSelect":11321,"Ġwarmer":11322,"ali":11323,"forming":11324,"Ġpainted":11325,"asound":11326,"appropriate":11327,"ĠGuid":11328,"Ġanxious":11329,"Ġreleases":11330,"ĠContr":11331,"Ġcolumns":11332,"ĠFinding":11333,"Ġpurple":11334,"Ġinputs":11335,"Ġeligible":11336,"bot":11337,"Ġsubstitute":11338,"Ġsuppliers":11339,"ĠList":11340,"Ġcustoms":11341,"ĠEmbr":11342,"Ġpursuit":11343,"Ġpassive":11344,"Ġexhibition":11345,"Ġroutines":11346,"ĠPrimary":11347,"Ġmanufactured":11348,"iage":11349,"ĠNigeria":11350,"Ġvolat":11351,"Ġbulbs":11352,"ptic":11353,"Ġentrance":11354,"Ġbes":11355,"Ġbearing":11356,"raul":11357,"ĠBa":11358,"Ġaccumulation":11359,"Ġintrig":11360,"Ġconsensus":11361,"ureau":11362,"ĠRelations":11363,"iral":11364,"ĠPoly":11365,"Ġ)":11366,"Ġintensive":11367,"Ġnumer":11368,"Ġdefining":11369,"tarctic":11370,"ĠTrade":11371,"usters":11372,"ĠFriday":11373,"Ġleverage":11374,"One":11375,"Ġarrangement":11376,"ĠCats":11377,"Ġvalued":11378,"also":11379,"Ġillustrate":11380,"Ġcolored":11381,"ela":11382,"conf":11383,"Ġconfused":11384,"ĠâĢĿ":11385,"piece":11386,"ĠEvent":11387,"ĠLeaders":11388,"ĠVPN":11389,"otechn":11390,"Ġreflecting":11391,"Ġcopies":11392,"Ġdelight":11393,"ĠSanta":11394,"ĠNavy":11395,"Ġintegrating":11396,"ila":11397,"ĠSto":11398,"Ġlighter":11399,"Ġalarm":11400,"ĠPCB":11401,"Ind":11402,"Ġdamages":11403,"ĠLuc":11404,"ĠFoods":11405,"ĠMur":11406,"acon":11407,"ĠTurk":11408,"omer":11409,"Ġfifth":11410,"Ġstrive":11411,"Ġblank":11412,"inch":11413,"ĠSC":11414,"Ġcorrespond":11415,"yram":11416,"torney":11417,"atories":11418,"ĠGulf":11419,"Ġwages":11420,"ĠLastly":11421,"sec":11422,"Ġcycling":11423,"ĠAP":11424,"ĠLiber":11425,"ĠRetr":11426,"Ġlux":11427,"Ġdedication":11428,"Ġassumptions":11429,"ĠAndrew":11430,"ĠRa":11431,"ĠIra":11432,"rement":11433,"Ġcock":11434,"ĠDaily":11435,"Ġapple":11436,"Ġaxis":11437,"Ġdiplom":11438,"Ġbeer":11439,"ĠDownload":11440,"Ġgenerates":11441,"ĠPeriod":11442,"ashed":11443,"ansas":11444,"Ġmovies":11445,"Ġcollaborate":11446,"Ġmicroorganisms":11447,"ationally":11448,"Ġpushed":11449,"ĠManufact":11450,"Ġabandoned":11451,"Ġbasket":11452,"Ġappealing":11453,"Ġnick":11454,"casting":11455,"ĠHyper":11456,"Ġunprecedented":11457,"Ġtransformative":11458,"ĠVo":11459,"ĠIB":11460,"ĠNG":11461,"Ġfeat":11462,"Ġexpense":11463,"cure":11464,"ĠTestament":11465,"Ġcement":11466,"Ġtender":11467,"Ġcombustion":11468,"tose":11469,"Ġterritories":11470,"ĠSa":11471,"Ġfundament":11472,"79":11473,"âĦ¢":11474,"ighth":11475,"Ġspons":11476,"ĠFat":11477,"pur":11478,"Ġcompact":11479,"ĠMarine":11480,"Ġentitled":11481,"Ġemphasize":11482,"Ġtestament":11483,"Tr":11484,"ĠEye":11485,"ifer":11486,"clusively":11487,"FC":11488,"ersion":11489,"RNA":11490,"Ġrever":11491,"ĠDefin":11492,"Ġruled":11493,"Ġpatches":11494,"Ġrepresentatives":11495,"Ġattracted":11496,"Ġmorph":11497,"ĠPeace":11498,"page":11499,"Ġcolleges":11500,"Ġbark":11501,"ached":11502,"rents":11503,"41":11504,"Ġdoctr":11505,"Ġcompanion":11506,"ĠGrowth":11507,"Ġtracks":11508,"Ġreproduction":11509,"ĠIndonesia":11510,"ĠMoses":11511,"together":11512,"ĠSav":11513,"Ġimpression":11514,"ĠMes":11515,"Ġdeple":11516,"Ġmalware":11517,"Ġunderwater":11518,"risk":11519,"Ġfault":11520,"ĠBad":11521,"Ġimplant":11522,"Ġscenes":11523,"Ġmonument":11524,"amboo":11525,"ĠCenters":11526,"ĠCredit":11527,"Ġobligations":11528,"Ġbulk":11529,"ĠVarious":11530,"ĠArizona":11531,"Ġexpend":11532,"Ġbold":11533,"Ġharvesting":11534,"Ġolive":11535,"ĠConference":11536,"Ġreviewed":11537,"Ġmodifications":11538,"Ġdescribing":11539,"ett":11540,"Ġencompasses":11541,"Ġincidence":11542,"Ġflavors":11543,"Ġadhes":11544,"ĠContents":11545,"anz":11546,"uana":11547,"Ġcardiac":11548,"Ġcave":11549,"Ġlicensed":11550,"tative":11551,"Sp":11552,"ois":11553,"Ġbridges":11554,"Ġcamps":11555,"ĠQur":11556,"ĠField":11557,"Ġadul":11558,"ĠAnim":11559,"emies":11560,"opathy":11561,"ĠHem":11562,"Ġfootball":11563,"thetics":11564,"Ġsampling":11565,"Ġbaking":11566,"Ġtranslated":11567,"Ġ85":11568,"ĠTown":11569,"ĠWales":11570,"Ġhat":11571,"ĠClu":11572,"Ġeducated":11573,"Ġneedle":11574,"Ġtraumatic":11575,"Ġpropos":11576,"Ġprogrammes":11577,"ĠMerc":11578,"ĠSon":11579,"Ġaggreg":11580,"Ġfloss":11581,"Ġcompelling":11582,"Ġlining":11583,"Ġpale":11584,"onent":11585,"Ġfusion":11586,"Ġfailures":11587,"Ġpressures":11588,"Ġcounseling":11589,"Ġbod":11590,"Ġanes":11591,"Ġsymbolic":11592,"Ġdrastic":11593,"Ġconditioning":11594,"Ġtomatoes":11595,"Ġpressing":11596,"ĠNether":11597,"asy":11598,"ĠFrancisco":11599,"Ġmagnitude":11600,"elong":11601,"LL":11602,"Ġobserving":11603,"Ġank":11604,"Ġmodify":11605,"Ġvice":11606,"Ġlu":11607,"ĠHous":11608,"ĠQuestion":11609,"ĠNOT":11610,"Ġmainstream":11611,"Ġchickens":11612,"Ġgroundwater":11613,"ĠNic":11614,"Ġwithdrawal":11615,"Ġorganizational":11616,"ĠDaniel":11617,"Ġyeast":11618,"Ġmechanics":11619,"Ġvoting":11620,"ĠAware":11621,"angers":11622,"Ġsensation":11623,"Ġcompromise":11624,"Ġpoisoning":11625,"ackets":11626,"Ġfosters":11627,"Ġembark":11628,"Ġquar":11629,"tib":11630,"ĠEducational":11631,"ergarten":11632,"isons":11633,"vals":11634,"Ġinvaluable":11635,"Ġcolours":11636,"iolet":11637,"ĠAntarctic":11638,"Ġnode":11639,"Ġdual":11640,"Ġextinction":11641,"lock":11642,"Ġanten":11643,"St":11644,"casts":11645,"ĠKeeping":11646,"ĠShare":11647,"Ġnic":11648,"vae":11649,"uns":11650,"Ġbet":11651,"ĠAssembly":11652,"Ġbelt":11653,"Ġinterfere":11654,"ppers":11655,"Ġstorms":11656,"ĠHealthcare":11657,"ĠMand":11658,"asis":11659,"metic":11660,"Ġslower":11661,"ĠAsked":11662,"Ġblo":11663,"Ġtablets":11664,"Ġdraft":11665,"Ġuncons":11666,"Ġrecess":11667,"Ġautomotive":11668,"Ġacidic":11669,"Ġheated":11670,"Ġdegener":11671,"Ġdimension":11672,"Ġlinguistic":11673,"ĠGDP":11674,"Ġcooper":11675,"Ġyog":11676,"Ġsatellites":11677,"Ġdescend":11678,"Ġattempting":11679,"Ġcriticism":11680,"EG":11681,"regon":11682,"idal":11683,"ĠVisit":11684,"Ġhorn":11685,"edding":11686,"Ġdemanding":11687,"Ġkne":11688,"ĠRespons":11689,"urred":11690,"Ġsacrific":11691,"threat":11692,"Ġappropriately":11693,"Ġarc":11694,"Ġrewarding":11695,"ĠSix":11696,"vy":11697,"Ġbuck":11698,"eter":11699,"ĠLif":11700,"Ġdisciplines":11701,"itored":11702,"riers":11703,"Ġinadequate":11704,"Ġ600":11705,"atus":11706,"ennial":11707,"Ġnamely":11708,"Ġfounder":11709,"ocket":11710,"ĠNC":11711,"Ġignore":11712,"Ġseverely":11713,"cher":11714,"inois":11715,"Ġcorrelation":11716,"Ġpresenting":11717,"ĠOrder":11718,"ĠPH":11719,"Ġstorytelling":11720,"agle":11721,"Ġholy":11722,"Ġanthrop":11723,"Ġalkal":11724,"ĠChanges":11725,"Ġpigs":11726,"ĠHit":11727,"ĠRub":11728,"adays":11729,"Ġfails":11730,"Ġaccompany":11731,"ĠðŁ":11732,"Ġopt":11733,"Ġencompass":11734,"Ġaggression":11735,"Ġenters":11736,"ĠIdentify":11737,"Ġlocate":11738,"ĠUtil":11739,"ĠIraq":11740,"ĠLooking":11741,"Ġpredominant":11742,"Ġaccomplished":11743,"Ġdinosa":11744,"ĠFun":11745,"ĠAdditional":11746,"Ġcritically":11747,"Ġdefinitions":11748,"intens":11749,"spring":11750,"Tube":11751,"ulsion":11752,"ĠKnowing":11753,"Ġreserves":11754,"Ġsinging":11755,"Ġaccordance":11756,"Ġtransforming":11757,"ĠListen":11758,"agus":11759,"ĠUC":11760,"Ġflowing":11761,"letter":11762,"ĠCharacter":11763,"Ġdece":11764,"Ġpoorly":11765,"Ġrescue":11766,"ĠCompanies":11767,"apore":11768,"Ġinstitutional":11769,"inth":11770,"ĠSearch":11771,"Ġ?":11772,"ĠMechan":11773,"âĢĿ)":11774,"ospel":11775,"Ġhypertension":11776,"oz":11777,"Ġspelling":11778,"89":11779,"Ġcluster":11780,"Ġoxide":11781,"ĠLew":11782,"ĠTes":11783,"ĠHan":11784,"Ġfee":11785,"Ġ34":11786,"Ġemployer":11787,"bitr":11788,"ruit":11789,"tanding":11790,"ylon":11791,"Ġsister":11792,"ogene":11793,"Ġgrocer":11794,"Ġbicy":11795,"Ġenduring":11796,"ĠMaintaining":11797,"Ġfles":11798,"Ġhunt":11799,"mann":11800,"Ġorn":11801,"Ġdiamond":11802,"vation":11803,"86":11804,"tuary":11805,"Ġimagery":11806,"ĠVideo":11807,"Ġcolorful":11808,"Ġmonetary":11809,"Ġsubsequently":11810,"list":11811,"ĠFred":11812,"Ġgenuine":11813,"ĠPM":11814,"ĠSecretary":11815,"Ġ1940":11816,"Ġjoining":11817,"Ġpreference":11818,"Ġarranged":11819,"Ġfraction":11820,"ĠNeu":11821,"vas":11822,"ĠContent":11823,"Ġsacrifice":11824,"ĠTheory":11825,"Ġcoin":11826,"Ġvalves":11827,"Ġcompanions":11828,"Ġweapon":11829,"Ġaudiences":11830,"rin":11831,"Ġfallen":11832,"ttes":11833,"ushed":11834,"Ġfreshwater":11835,"Ġboundary":11836,"Ġexplaining":11837,"Ġtrap":11838,"ĠObserv":11839,"Ġlunch":11840,"Ġfort":11841,"Ġattempted":11842,"Ġdeployment":11843,"Ġprize":11844,"Ġconnects":11845,"ĠUrban":11846,"Ġacne":11847,"ĠPas":11848,"Ġrefused":11849,"ĠEll":11850,"Ġhormonal":11851,"Ġgrants":11852,"Ġunauthor":11853,"Ġaffairs":11854,"Ġgarlic":11855,"ĠSM":11856,"ĠTools":11857,"Ġteachings":11858,"ika":11859,"Ġadjacent":11860,"ĠCarib":11861,"Ġangles":11862,"Ġverbal":11863,"Ġglands":11864,"ĠOregon":11865,"Ġempire":11866,"Ġlegitimate":11867,"Ġcaregivers":11868,"Ġdisadvantages":11869,"ĠEmotional":11870,"Ġpremature":11871,"Res":11872,"ĠGame":11873,"Ġgloves":11874,"ĠInstall":11875,"kh":11876,"Ġmonitored":11877,"Ġmitigation":11878,"onut":11879,"Ġprosperity":11880,"ĠAgreement":11881,"Ġvisibility":11882,"Ġstocks":11883,"Ġgifts":11884,"Ġexecuted":11885,"Ġpathway":11886,"Ġreinforcement":11887,"Ġdecentralized":11888,"itzer":11889,"Ġattending":11890,"ĠNO":11891,"Ġcatastrop":11892,"oultry":11893,"ĠInsp":11894,"Ġarres":11895,"ĠEveryone":11896,"Ġbomb":11897,"ĠNob":11898,"Ġfriction":11899,"ĠAfghan":11900,"agic":11901,"Ġdinner":11902,"Ġ1997":11903,"ĠUnit":11904,"Ġcircles":11905,"Ġsurprised":11906,"Ġearthquake":11907,"Ġportra":11908,"lecting":11909,"Ġutilization":11910,"otten":11911,"Ġregulating":11912,"Ġcorporations":11913,"Ġhistorically":11914,"tops":11915,"Ġdragon":11916,"ĠDeterm":11917,"Ġbrill":11918,"Pl":11919,"Ġtriggered":11920,"Ġmol":11921,"Ġconfidential":11922,"phere":11923,"Ġdecreasing":11924,"Ġcontrary":11925,"some":11926,"Ġfits":11927,"Ġinvestigated":11928,"ĠBasic":11929,"Ġtalks":11930,"Ġgrab":11931,"ĠRelig":11932,"Ġinsufficient":11933,"ĠApplications":11934,"Ġcomply":11935,"ĠCambridge":11936,"ĠApart":11937,"Ġfoundations":11938,"ĠNi":11939,"ĠPrep":11940,"inates":11941,"ria":11942,"Ġbreakthrough":11943,"urable":11944,"tipation":11945,"Ġseaf":11946,"Ġbeverages":11947,"Ġcult":11948,"ĠArabic":11949,"rise":11950,"Ġcharts":11951,"tario":11952,"ropol":11953,"Ġcondens":11954,"Ġportable":11955,"ĠMA":11956,"Ġberries":11957,"FS":11958,"ĠRecommend":11959,"Ġdollar":11960,"Ġcompete":11961,"ĠBerlin":11962,"igs":11963,"raulic":11964,"atin":11965,"Ġriding":11966,"Ġcontroversial":11967,"05":11968,"Ġpromptly":11969,"ori":11970,"ĠNetherlands":11971,"Ġoffset":11972,"arms":11973,"brush":11974,"Ġpacked":11975,"inely":11976,"Ġtruck":11977,"Ġadventure":11978,"ĠMovement":11979,"Ġshield":11980,"Ġink":11981,"Ġemails":11982,"Ġtechnic":11983,"Ġabroad":11984,"Ġchecked":11985,"htt":11986,"Ġoutlined":11987,"holder":11988,"ĠRail":11989,"Ġseemingly":11990,"ĠColon":11991,"terious":11992,"Ġguitar":11993,"irop":11994,"Ġtrim":11995,"CH":11996,"Ġweaknesses":11997,"ĠWel":11998,"Ġrepeatedly":11999}